#version: 0.2
ã ĥ
ã Ĥ
č Ċ
ãĥ ¼
ãĥ ³
ãĥ¼ ãĥ
ãĤ ·
ãĤ «
ãĤ ¤
ãĥ «
ãĤ Ń
ãĤ ¹
ãĥ Ĭ
ãĤ ¯
ãĤ ¥
ãĥ ŀ
ãĤ ¿
ãĥ Į
ãĥ ĳ
ãĤ ¦
ãĤ µ
ãĥ ł
ãĥ ©
ãĥ Ī
ãĥ ĥ
ãĤ ¢
ãĥ ª
ãĥĪ ãĤ¥
ãĥ« ãĥ³
ãĥ ģ
ãĥ Ĳ
ãĥ Ł
ãĥ ¤
ãĥ ĭ
ãĤ¹ ãĥ³
ãĤ ¸
ãĤ ¬
ãĥ ķ
ãĤ £
ãĥ Ķ
ãĥ ĸ
ãĥ Ĩ
ãĥ Ģ
ãĥ ĵ
ãĥĨ ãĤ£
ãĤ °
ãĤ ¶
ãĥ ī
ãĥ¼ ãĥ³
ãĥ¼ãĥ «
ãĤ ¡
ãĥī ãĤ¥
ãĥ¼ ãĤ·
ãĥ ¦
ãĤ¯ ãĥ³
ãĥł ãĥĮ
ãĥ Ħ
ãĥ Ĺ
ãĤ ®
ãĥ¼ãĥ ©
ãĤ· ãĤŃ
ãĥ¼ãĥ Į
ãĥ¼ãĥ ŀ
ãĥ¼ãĥ ª
ãĤ º
ã ģ
ãģ µ
ãĥ¼ ãĤ¹ãĥ³
ãĤµ ãĥ³
ãĥĦ ãĤ¡
ãĤ ³
ãĥ¼ãĥ« ãĥ³
ãĥĥ ãģµ
ãĥĹ ãĤ¹
ãĥł ãĥ³
ãĤ« ãĤ¤
ãĥ³ ãĤ¬
ãĤ¦ ãĥ³
ãĤ ½
ãĥĥãģµ ãĤ¡
ãĥĳ ãĥĬ
ãĥĳ ãĥ³
ãĥķ ãĥģ
ãĥŀ ãĤ¤
ãĥĬ ãĤ«
ãĥ¼ãĥ Ĭ
ãĥ¤ ãĥ¼
ãĥĲ ãĤ¿
ãĥ¼ãĥ ł
ãĥ ¨
ãĤ¹ ãĤ¯
ãĥĬ ãĥŀ
ãĥĥ ãĤµ
ãĤ ±
ãĥŁ ãĥ¼
ãĥĬ ãĥ¼
ãĤ« ãĤ¿
ãĤ· ãĤ¥
ãĤ« ãĥ©
ãĤ« ãĥ¼
ãĥĸ ãĥ³
ãĥŁ ãĥ«ãĥ³
ãĤ· ãĥ³
ãĥĶ ãĤŃ
ãĤ ´
ãĥ© ãĤ¤
ãĥ¼ãĥ ĥ
ãĤ« ãĥ³
ãĥ ĩ
ãĥĪãĤ¥ ãĥª
ãĥ¼ ãĤŃ
ãĥ³ ãĤ°
ãĥ¼ãĥ ķ
ãĥ© ãĤ¹ãĥ³
ãĥĪãĤ¥ ãĥ³
ãĥĲ ãĤ«
ãĥĬ ãĤ¤
ãĤŃ ãĥł
ãĥ İ
ãĥ¼ãĥ ¤
ãĥ¤ ãĥŀ
ãĤ¹ ãĤ¯ãĥ³
ãĤ¦ ãĥĸ
ãĤ ¾
ãĥ³ ãĥĢ
ãĥĩ ãĤ£
ãĥŀ ãĥ¼
ãĥª ãĥ³
ãĥ ¯
ãĤŃ ãĥ³
ãĤŃ ãĥ«ãĥ³
ãĥ ¥
ãĥĥ ãĤ¯
ãĥĭ ãĥ³
ãĥ¼ ãĤ¸
ãĤ« ãĤ¸
ãĥ £
ãĥ¼ãĥ ĳ
ãĥĲ ãĥ³
ãĤ¦ ãĤ·
ãĥł ãĥĭ
ãĤ¢ ãĤ¬
ãĥ §
ãĤ ª
ãĤ¤ ãĥ«ãĥ³
ãĥŀ ãĥª
ãĥ¼ãĥ ĸ
ãĥ ¬
ãĥ ı
ãĤ §
ãĥ¼ãĥ Ĳ
ãĥĳ ãĥ¼
ãĤ¦ ãĤ¤
ãĥ ľ
ãĥł ãĥģ
ãĥ¼ãĥ Ĩ
ãĤ· ãĥ¼
ãĥĥ ãĥĦãĤ¡
ãĥª ãĥ«ãĥ³
ãĥŁ ãĤ¸
ãĥ¤ ãĥ³
ãĥĥ ãĤ«
ãĤµ ãĥ¼
ãĤ¸ ãĥ³
ãĤ·ãĤ¥ ãĤ«
ãĥ¼ãĥ Ł
ãĥĳ ãĤ¿
ãĤ¤ ãĤ·
ãĥĬ ãĥ³
ãĥĥ ãĤ¹
ãĤ¢ ãĥ©
ãĥ¦ ãĥ¼
ãĥķ ãĤ¿
ãĥĥ ãĥģ
ãĥª ãĥłãĥĮ
ãĤ¿ ãĥ¼
ãĤ¢ ãĤ¤
ãĥŁ ãĥģ
ãĤ¯ ãĤ¤
ãĤ« ãĤ¹ãĥ³
ãĥ¼ãĥ ĭ
ãĤ« ãĤ¶
ãĤ· ãĥŀ
ãĤ¦ ãĥ¤
ãĥĭ ãĥ¼
ãĤ³ ãĥ¼
ãĥ¼ãĥ Ī
ãĥĳ ãĥ¤
ãĥĬ ãĤ¬
ãĥ Ļ
ãĤ« ãĤŃ
ãĤ¤ ãĤŃ
ãĤ¯ ãĥ«
ãĥīãĤ¥ ãĥ«
ãĥ¨ ãĥ¼
ãĥ¼ãĥ Ģ
ãĤ· ãĥ©
ãĤ¿ ãĥ³
ãĥĳ ãĤ¤
ãĥĨãĤ£ ãĥ³
ãĥĨãĤ£ ãĥ¼
ãĥĥãģµãĤ¡ ãĤ¤
ãĥŀ ãĥ«ãĥ³
ãĤ¦ ãĥł
ãĤŃ ãĥ¼
ãĤ¢ ãĥ³
ãĥĶ ãĥ¼
ãĥ ¡
ãĥĳ ãĥĢ
ãĤ· ãĥĵ
ãĥĲ ãĥ©
ãĤ¹ ãĥĸ
ãĤ¦ ãĥģ
ãĥ¼ãĥ ģ
ãĤ¤ ãĥ³
ãĤ¿ ãĤ«
ãĥĭ ãĥĵ
ãĥĪãĤ¥ ãĤ·
ãĤ° ãĥĪãĤ¥
ãĥ ®
ãĥŁ ãĥ³
ãĥ¼ãĥĪ ãĤ¥
ãĥ Ń
ãĥĬ ãĤ·
ãĥĪãĤ¥ ãĥ«
ãĥĶ ãĤµ
ãĤ® ãĥ«ãĥ³
ãĥĬãĥŀ ãĥ³ãĥĢ
ãĤ¦ ãĤ¿
ãĤ¬ ãĤ¤
ãĥ¼ãĥ Ķ
ãĤ« ãĤµ
ãĥŀ ãĥģ
ãĤ· ãĥ«
ãĤ· ãĤ¿
ãĥ į
ãĤµ ãĤŃ
ãĤ° ãĥ«
ãĥ© ãĤ·
ãĥĵ ãĥ¼
ãĥĢ ãĤ¤
ãĤ·ãĤŃ ãĥ«ãĥ³
ãĥķ ãĤ¯
ãĤ° ãĥ³
ãĤ± ãĥ¼
ãĤ¤ ãĥģ
ãĤ¤ ãĤº
ãĤ¢ ãĤµ
ãĥķ ãĥ³
ãĥĬ ãĥ«
ãĥĸ ãĤ·
ãĤ« ãĤ·
ãĥ¼ãĥ ¬
ãĥĮ ãĥģ
ãĥĳ ãĥģ
ãĥ¼ãĥĨ ãĤ£
ãĥŀ ãĤŃ
ãĥ© ãĥ¼
ãĤ¢ ãĥĲ
ãĤ¿ ãĤ¤
ãĤ¢ ãĥŀ
ãĤ¢ ãĤ¦
ãĥĲ ãĥ«
ãĥ Ĵ
ãĤ¢ ãĤ¿
ãĥĲ ãĥª
ãĤ½ ãĥ¼
ãĤ¹ ãĥ¼
ãĥ¼ãĥ© ãĤ¹ãĥ³
ãĤŃ ãĤ·
ãĥĬ ãĤŃ
ãĥĬ ãĥ©
ãĤ¢ ãĥŁ
ãĥ³ãĤ¬ ãĤ¤
ãĥ¬ ãĥ¼
ãĥ¼ãĥ Ĺ
ãĤ¢ ãĤ·
ãĥĪãĤ¥ ãĥ«ãĥ³
ãĤº ãĥ³
ãĤ« ãĥ«ãĥ³
ãĥŀ ãĥ³
ãĤ¬ ãĥ¼
ãĤ¬ ãĥ³
ãĥ£ ãĥ¼
ãĤ« ãĥĬ
ãĤ« ãĤ¯
ãĤ¯ ãĥ¼
ãĥ¼ãĥł ãĥĮ
ãĥ ¢
ãĥŀ ãĥ¼ãĥ«
ãĤ¿ ãĥŀ
ãĥĳ ãĤ¸
ãĥł ãĥĪãĤ¥
ãĥĲ ãĤ¹ãĥ³
ãĥĨãĤ£ ãĥ«ãĥ³
ãĤ´ ãĥ¼
ãĤ¾ ãĥ¼
ãĥ¥ ãĥ¼
ãĥ§ ãĥ¼
ãĥ Ŀ
ãĤ¤ ãĤ¸
ãĥĲ ãĤ¤
ãĥ Ľ
ãĤ· ãĥŁ
ãĤ· ãĤ¸
ãĤ¿ ãĤŃ
ãĤ¶ ãĥ¼
ãĤ ©
ãĤ¤ ãĥ¼
ãĤ¯ ãĥĮ
ãĥĪãĤ¥ ãĥł
ãĤ¸ ãĥ«
ãĤ·ãĤ¥ ãĤ«ãĤ¤
ãĥĢ ãĥ³
ãĥīãĤ¥ ãĥ¼
ãĤ· ãĥģ
ãĤ¯ ãĥĪãĤ¥
ãĥŀ ãĤ¿
ãĤ¬ ãĥ©
ãĤ« ãĥ«
ãĤŃ ãĥłãĥĮ
ãĥĬ ãĥ¼ãĥ³
ãĥĭ ãĥģ
ãĥĸ ãĥª
ãĥĢ ãĥ«
ãĤ¶ ãĥ©
ãĥ¼ãĥ ¯
ãĤ« ãĥŀ
ãĤ¤ ãĥ«
ãĤ¯ ãĥĲ
ãĥĳ ãĥ«
ãĥĳ ãĥ«ãĥ³
ãĥ³ ãĥ¼ãĥĬ
ãĤ¤ ãĥª
ãĥĪ ãĥ¼
ãĥĵ ãĤŃ
ãĤ¶ ãĥ³
ãĤ§ ãĥ¼
ãĤµ ãĥ©
ãĥĥ ãĤ¿
ãĥĦ ãĤ©
ãĥĳ ãĥ©
ãĥĳ ãĥĭ
ãĤ¦ ãĤ¯
ãĤµ ãĤ¤
ãĥĥ ãĥĪãĤ¥
ãĥĲ ãĥ©ãĤ¤
ãĤº ãĥ¼
ãĥĥãĥĦãĤ¡ ãĥ¼ãĤ¹ãĥ³
ãĥ¡ ãĥ¼
ãĥ¼ãĥ¬ ãĥ¼
ãĥ¼ãĥ ĵ
ãĥĥ ãĤµãĥ³
ãĥĶ ãĥĢ
ãĥĵ ãĥ³
ãĥ¼ãĥĨ ãĥ¼
ãĥĮ ãĤ·
ãĥĳ ãĥª
ãĥĪãĤ¥ ãĤŃ
ãĤ¦ ãĤŃ
ãĤ¦ ãĥª
ãĤ¢ ãĥĪãĤ¥
ãĥĢ ãĥ©
ãĥ¼ãĥ ī
ãĤ« ãĥª
ãĤ« ãĥŁ
ãĥĮ ãĥ³
ãĥĶ ãĥ³
ãĥĢ ãĤŃ
ãĥ¼ãĤ· ãĤŃ
ãĤ· ãĥĪãĤ¥
ãĤ¤ ãĥ©
ãĥĬ ãĥ«ãĥ³
ãĥĬ ãĥĵ
ãĤ¸ ãĥ¼
ãĥĨ ãĥ¼
ãĤ· ãĥĬ
ãĤ¯ ãĤ·
ãĤ¯ ãĥ©
ãĥ¤ ãĥĬ
ãĤ¬ ãĥŀ
ãĥķ ãĤŃ
ãĥķãĥģ ãĥ«
ãĤ¹ãĤ¯ ãĥª
ãĤ¹ãĥĸ ãĥ«
ãĥ¼ãĥ¯ ãĥ³
ãĤ· ãĥĭ
ãĥĥ ãĥĨãĤ£
ãĥĪãĤ¥ ãĥ©
ãĥ¼ãĥł ãĥĨãĤ£
ãĥ¨ ãĤ¤
ãĤ¦ãĥł ãĤ¤
ãĤ¹ ãĥ«
ãĤ¯ ãĤ¸
ãĤ¢ ãĤŃ
ãĥĪãĤ¥ ãĤ¯
ãĥķ ãĤ«
ãĤ° ãĥŀ
ãĤ· ãĤ«
ãĥĬ ãĥª
ãĤ¿ ãĤ¿
ãĤ¿ ãĥĨãĤ£
ãĥĮ ãĥĵ
ãĤ¦ ãĤµ
ãĥł ãĥ©
ãĥĪãĤ¥ ãĤ¸
ãĥĦ ãĥ³
ãĤ«ãĤ¤ ãĤ¹ãĥ³
ãĤ¤ ãĤ«
ãĤŃ ãĤ¹ãĥ³
ãĥł ãĥ«
ãĥĪãĤ¥ ãĥĵ
ãĥĭ ãĥ³ãĤ¬ãĤ¤
ãĥķ ãĤ¯ãĥ³
ãĥĸ ãĥ¼
ãĥ³ ãĤ®
ãĥ¼ãĥ ¦
ãĥ¼ãĥ ¨
ãĥª ãĤµãĥ³
ãĥĢ ãĥ¼
ãĥĨãĤ£ ãĥĢ
ãĤ¶ ãĤ¹ãĥ³
ãĥĳãĥ³ ãĤ¿
ãĥĮ ãĥ¼ãĤ·
ãĥł ãĤ·
ãĥĥ ãĤŃ
ãĥĲ ãĥĬ
ãĥĲ ãĥ¼ãĤŃ
ãĤ¸ ãĥ«ãĥ³
ãĤ¬ ãĥ«ãĥ³
ãĥķ ãĥĭ
ãĥĵ ãĥª
ãĤ¶ ãĥ¼ãĥĨãĥ¼
ãĤ«ãĤ¤ ãĥ«ãĥ³
ãĥĳãĥĬ ãĤ·
ãĥĻ ãĥ¼
ãĤ¤ ãĥĦãĤ¡
ãĥŀ ãĥ¼ãĤ·
ãĥĮ ãĥŁ
ãĥĮ ãĥ¼ãĥ«
ãĥĶ ãĥ«
ãĥ¦ ãĤ¯
ãĥ³ãĤ¬ ãĥģ
ãĥ¼ãĥł ãĥ³
ãĥ¼ãĥĥ ãģµ
ãĥ ļ
ãĤ« ãĥĭ
ãĥĬ ãĥĬ
ãĥĬ ãĥĢ
ãĥĬ ãĥ¼ãĥŀ
ãĥł ãĥĨãĤ£
ãĤ¢ ãĥ¼
ãĥĲ ãĥ¼
ãĥķ ãĥ¼
ãĥķ ãĥ«
ãĥ¼ãĥª ãĥ³
ãĤ³ ãĥ¼ãĥŀ
ãĤ ²
ãĤ« ãĥĵ
ãĤ« ãĥ¼ãĤ·
ãĥĬ ãĤ¹ãĥ³
ãĤ¯ ãĥŀ
ãĤ¯ ãĥłãĥ³
ãĥĮ ãĥ¼
ãĥĮ ãĥ¼ãĥĮ
ãĤ¦ ãĤ¹
ãĤ¦ ãĥĨãĤ£
ãĤµ ãĥĵ
ãĥĥ ãĤ¹ãĥ³
ãĥĥ ãĤ¯ãĥ³
ãĥĥ ãĤ³ãĥ¼
ãĤ¢ ãĥĨãĤ£
ãĤ¢ ãĤ®
ãĥīãĤ¥ ãĤ·
ãĥĳãĥ³ ãĥĮ
ãĤ± ãĥ³
ãĥ¼ãĥ¤ ãĥ¼
ãĥĳãĤ¿ ãĥ©
ãĤ« ãĥĸãĥ³
ãĥŀ ãĥ©
ãĤ¿ ãĥĵ
ãĥĮ ãĥŁãĥ¼
ãĥĳ ãĤ«
ãĥĳ ãĥŀ
ãĤ¦ ãĥĮ
ãĤ¢ ãĤ«
ãĤ¢ ãĤ¶
ãĤ¢ ãĥĦãĤ¡
ãĥī ãĥ¼
ãĥ¯ ãĤ¶
ãĤ· ãĥĮ
ãĤ« ãĤ¦
ãĥĬ ãĥ¼ãĥĮ
ãĤ¯ ãĥģ
ãĥĳ ãĤ·
ãĤ¢ ãĥģ
ãĤ¢ ãĤ¸
ãĥĲ ãĤŃ
ãĥŁ ãĥ¼ãĥĮ
ãĥĸ ãĥ«
ãĥĸ ãĥĭ
ãĤ° ãĥ®
ãĥĲãĤ« ãĥª
ãĥĥãĥģ ãĥ³
ãĥ³ ãĥŀ
ãĤ· ãĤ§
ãĤ« ãĥĦ
ãĤ¤ ãĥŁ
ãĤ¯ ãĤµ
ãĥŀ ãĥŁ
ãĥŀ ãĤ¹ãĥ³
ãĥŀ ãĥ¼ãĤ¹ãĥ³
ãĤ¿ ãĥģ
ãĤ¦ ãĥ©
ãĤµ ãĥĭ
ãĥĥ ãĥĪ
ãĥ¤ ãĥ¼ãĥ©
ãĥīãĤ¥ ãĥ³
ãĥ¼ãĥł ãĥģ
ãĥĦãĤ© ãĥ¼
ãĥ¼ãĥĥãģµ ãĤ¡
ãĤ· ãĥĨãĤ£
ãĤ« ãĤ«ãĥ«ãĥ³
ãĥŀ ãĥ«
ãĥĳ ãĤ®
ãĤ¦ ãĥ¼
ãĤµ ãĤ¹ãĥ³
ãĤ¢ ãĥ¼ãĤ¹ãĥ³
ãĤ¬ ãĥª
ãĤ¶ ãĤ¤
ãĥĹ ãĥ¼
ãĤ¹ãĤ¯ ãĥ©ãĤ¤
ãĥ¼ãĥĥ ãĤµ
ãĤ¯ ãĥª
ãĤ¯ ãĥĵ
ãĥŀ ãĤ·
ãĤ¿ ãĥ©
ãĤ¿ ãĥĭ
ãĤ¸ ãĥĬ
ãĤ¸ ãĥĸãĥ³
ãĥķ ãĥĬ
ãĥĶ ãĥ©
ãĥĸ ãĥ©
ãĥīãĤ¥ ãĥł
ãĥ¼ãĥª ãĥłãĥĮ
ãĤ³ ãĥ¼ãĥ«ãĥ³
ãĥ¼ãĥī ãĤ¥
ãĤ· ãĤ¶
ãĥĳ ãĥĨãĤ£
ãĤ¦ ãĥĪãĤ¥
ãĥĪ ãĥ³
ãĥĪãĤ¥ ãĥŀ
ãĥĲ ãĥ«ãĥ³
ãĤ¬ ãĥĭ
ãĥķ ãĤ¤
ãĥĹ ãĥ¼ãĥ«
ãĤ® ãĥ¼
ãĥ¼ãĥª ãĥ«ãĥ³
ãĤ³ ãĥ¼ãĤ·
ãĤ¦ãĥ³ ãĥĮ
ãĤ½ ãĥ¼ãĤ¸
ãĥ¼ãĥĬ ãĥ¼ãĥĮ
ãĥ¨ ãĥ¼ãĥ³
ãĥĥãĤ¯ ãĥłãĥ³
ãĤ· ãĤ°ãĥĪãĤ¥
ãĤŃ ãĥ¼ãĥĮ
ãĥŀ ãĥĬãĥŀ
ãĥĮ ãĥĥãģµãĤ¡
ãĤµ ãĤ¯
ãĤ¢ ãĥ¤
ãĥĲ ãĤµ
ãĥ¤ ãĥīãĤ¥
ãĤ® ãĥ³
ãĥĦãĤ¡ ãĤ¹ãĥ³
ãĥľ ãĥ¼
ãĤ· ãĥ¼ãĤ·
ãĤ« ãĤ¦ãĥ³
ãĤ¤ ãĥĥ
ãĥĮ ãĥ¼ãĥª
ãĤ¦ ãĥĵ
ãĤµ ãĤ«
ãĤµ ãĥª
ãĥł ãĤ¤
ãĥĲ ãĥģ
ãĥ¤ ãĤŃ
ãĥ¤ ãĥĵ
ãĥĭ ãĥ¼ãĥĲ
ãĤ° ãĤ¤
ãĤº ãĥ¼ãĥ¯ãĥ³
ãĤ³ ãĥ¼ãĥ³
ãĤ³ ãĥ¼ãĤ¹ãĥ³
ãĥ¼ãĥĬ ãĥ¼
ãĥ³ãĤ° ãĥ®
ãĥ¼ãĥĸ ãĥ«
ãĤ¢ãĤµ ãĥĵ
ãĥ¼ãĥĹ ãĤ¹
ãĥĬ ãĥģ
ãĥĬ ãĤ¯ãĥ³
ãĥĮ ãĤŃ
ãĥĳ ãĥĦãĤ¡
ãĥ© ãĥªãĥ³
ãĥª ãĥ¼
ãĥĪãĤ¥ ãĥ¼
ãĤ¸ ãĥŀ
ãĤ¬ ãĤ¹ãĥ³
ãĥ¦ ãĥĮ
ãĤ® ãĥª
ãĥ¼ãĥ© ãĥ¼
ãĤ·ãĤŃ ãĥ³
ãĤº ãĥŁ
ãĥĳãĥĬ ãĤ·ãĤŃ
ãĥĬãĤ« ãĥ©
ãĥĥãĤµ ãĥ¼
ãĤ«ãĤ¿ ãĥģ
ãĥİ ãĥ¼
ãĥİ ãĥ¼ãĥ³
ãĥĥãĤ¯ ãĥĬãĥ¼
ãĥĳãĤ¿ ãĤŃ
ãĤŃ ãĤ¶
ãĥŀ ãĥ¼ãĥ«ãĥ³
ãĥĮ ãĤ¤
ãĤµ ãĤ¦
ãĤ¢ ãĥ¼ãĤ·
ãĥĭ ãĤ·
ãĤ¸ ãĥ©
ãĥķ ãĥĪãĤ¥
ãĥĸ ãĥĥ
ãĤ° ãĥªãĤµãĥ³
ãĤ¶ ãĤŃ
ãĥ¼ãĥ© ãĥ³
ãĥ¼ãĥŀ ãĤ¤
ãĤ³ ãĥ¼ãĥ©
ãĤ«ãĥ© ãĥ¼
ãĥ¯ ãĥ³
ãĤ¦ãĤ· ãĥĮ
ãĤª ãĥ¼
ãĥŃ ãĥ¼ãĥ³
ãĤŃ ãĥª
ãĤ¯ ãĥĸ
ãĤ¿ ãĥ«ãĥ³
ãĤ¿ ãĥłãĥĮ
ãĤ¿ ãĥ³ãĤ¬
ãĤµ ãĥ¼ãĥ©
ãĥĥ ãĤ±
ãĥĭ ãĤ¬ãĤ¤
ãĤ¬ ãĤµ
ãĥķ ãĥĢ
ãĥķ ãĤ¯ãĥ«
ãĥĢ ãĤ«
ãĥĵ ãĤ¶
ãĥīãĤ¥ ãĤ¯
ãĥĹãĤ¹ ãĥŀ
ãĥ¼ãĥĥ ãĥĨãĤ£
ãĥŀãĥ¼ ãĤ¹
ãĥĹãĥ¼ãĥ« ãĤ¦ãĤ¿
ãĤ· ãĥĲãĥ«
ãĤ« ãĥ¼ãĥ©
ãĤ¹ ãĥĵ
ãĤ¹ ãĥ¼ãĥ«ãĥ³
ãĤ¹ ãĥ¼ãĥĸ
ãĥĬ ãĥŁ
ãĤ¯ ãĥ¼ãĥ³
ãĤ¿ ãĥ«
ãĤ¿ ãĤ¯
ãĤ¿ ãĥĪãĤ¥ãĥ³
ãĥĮ ãĥīãĤ¥
ãĤ¦ ãĥĩãĤ£
ãĥģ ãĥ³
ãĥĲ ãĥĥ
ãĥĲ ãĤ¯ãĥ³
ãĤ¬ ãĤŃ
ãĥĶ ãĤ¯ãĥ³
ãĥĸ ãĥ«ãĥ³
ãĥī ãĥ¼ãĥ³
ãĤ«ãĤ¤ ãĥ¤ãĥ³
ãĤ½ ãĥĥãĤ³ãĥ¼
ãĥİ ãĥ¼ãĤ¹ãĥ³
ãĥ¤ãĥŀ ãĥĪãĤ¥
ãĥĥãĥĦãĤ¡ ãĥ¼ãĥ³
ãĥŃ ãĥ¼
ãĥ³ãĤ°ãĥ® ãĥģ
ãĥĥãĤµãĥ¼ ãĤ¯
ãĤ· ãĥłãĥ³
ãĤŃ ãĥĬãĤ¤
ãĤ¹ ãĥĲ
ãĤ¯ ãĥ®
ãĥĳ ãĤ¯
ãĤ¦ ãĥ©ãĤ¹ãĥ³
ãĤ¦ ãĥĪãĤ¥ãĥ³
ãĥ¤ ãĥ©
ãĤ¸ ãĥ¥
ãĥĶ ãĥ¼ãĥĮ
ãĥĶ ãĥ¥
ãĥĸ ãĤ¯
ãĥĢ ãĥŀ
ãĥĵ ãĥ«ãĥ³
ãĥĹ ãĤ·
ãĥĹ ãĥĭ
ãĥĦãĤ¡ ãĥ³
ãĥİ ãĥ¼ãĤ·
ãĥİ ãĥ¼ãĥª
ãĤ¾ ãĥ¼ãĤ¸
ãĥ¬ ãĥ¼ãĥĮ
ãĥĳãĥ¤ ãĥ¼ãĥ³
ãĥį ãĥ¼
ãĥĬãĥ© ãĥ¼ãĤ·
ãĤ· ãĥŁãĥ«ãĥ³
ãĤ« ãĤ¯ãĥ³
ãĤ« ãĥĬãĤ¤
ãĤ¹ ãĤ¤
ãĥĬ ãĥ¼ãĤ·
ãĤ¯ ãĤ¯ãĥ«
ãĤ¦ ãĤ¬ãĥ³
ãĤµ ãĥ¼ãĥ«ãĥ³
ãĥĪ ãĥ¼ãĥķ
ãĥĪãĤ¥ ãĥīãĤ¥
ãĥĪãĤ¥ ãĥŁãĥ«ãĥ³
ãĤ¬ ãĤ¿
ãĥķ ãĤ«ãĤ¹ãĥ³
ãĥĸ ãĤ«ãĥ©
ãĥĸ ãĥīãĤ¥ãĥ«
ãĥĦãĤ¡ ãĥ¼
ãĤ³ ãĥ³
ãĤ«ãĤ¤ ãĤ·
ãĤ± ãĥ¼ãĥª
ãĥ¼ãĥķ ãĤŃ
ãĥĥãĤ¯ ãĥ«
ãĥ£ ãĥ³
ãĥĬãĥ³ ãĤ«
ãĥĲãĥ© ãĥ¼
ãĤ¢ãĤ¿ ãĥ«
ãĥ³ ãĤ¿
ãĤ· ãĥ«ãĥ³
ãĤ· ãĥĢ
ãĤ¤ ãĤ¿
ãĥĬ ãĥ¼ãĥª
ãĥĬ ãĤ¦ãĥ³
ãĥŀ ãĥ¼ãĥª
ãĥĮ ãĥ¼ãĥ³
ãĥĮ ãĤ«ãĥ¼
ãĥĮ ãĥ¼ãĥĨãĤ£
ãĤµ ãĤ¿
ãĥ© ãĥĮ
ãĤ¢ ãĥĸ
ãĤ¢ ãĥ³ãĤ¬
ãĥ¤ ãĤ¯
ãĥ¤ ãĥ¼ãĥĮ
ãĤ¬ ãĥĥ
ãĥĶ ãĥ¼ãĥģ
ãĥĢ ãĥĨãĤ£
ãĥĨãĤ£ ãĥ¼ãĥĮ
ãĤ¶ ãĥŀ
ãĥīãĤ¥ ãĥ¼ãĥłãĥĨãĤ£
ãĥ¼ãĤ· ãĤ¥
ãĥĹ ãĥª
ãĥĹ ãĥĪãĤ¥ãĤŃ
ãĤ½ ãĥ¼ãĥ³
ãĤ·ãĤ¥ ãĤ«ãĥ©
ãĤ§ ãĥ¼ãĥŀ
ãĥĲãĥ© ãĥķãĤ¿
ãĥĬãĥ© ãĥĮ
ãĥ¼ãĥ¨ ãĥ¼
ãĥĶãĥ¥ ãĥ¼ãĥ«
ãĥ³ ãĤ«
ãĥ¼ãĥ Ħ
ãĥ¼ãĥ ĩ
ãĤ· ãĥłãĥĮ
ãĤ· ãĤ±ãĥ¼
ãĤ« ãĥ³ãĤ¬
ãĤ« ãĥŀãĤ¤
ãĤ¤ ãĤµ
ãĤ¹ ãĥĩãĤ£
ãĥĬ ãĥ©ãĤ¤
ãĤ¯ ãĥ«ãĥ³
ãĤ¢ ãĥª
ãĤ¢ ãĤ¦ãĥ³
ãĥĪãĤ¥ ãĥĬãĥ«
ãĥģ ãĥ§
ãĥĲ ãĤ·
ãĥĲ ãĤ¯
ãĥŁ ãĥ¼ãĥĳ
ãĥ¤ ãĥª
ãĤ¸ ãĥ¥ãĥ¼
ãĤ¸ ãĥ§ãĥ¼
ãĥķ ãĥĵ
ãĥķ ãĥ¼ãĥ³
ãĥķ ãĥīãĤ¥
ãĥĶ ãĥ¼ãĥŀ
ãĤ° ãĤ·
ãĥ¦ ãĥĢ
ãĤ® ãĤµãĥ³
ãĤ½ ãĥ³ãĤ¬ãĥģ
ãĥĳãĥ³ ãĥĦãĤ¡ãĤ¹ãĥ³
ãĥ¼ãĥĬ ãĥ¼ãĥ³
ãĥĥãĤµ ãĤ¤
ãĥŁãĥ¼ ãĤ¹
ãĤ·ãĤ¥ ãĤ«ãĥ³
ãĥ³ãĤ° ãĥ³
ãĥ¯ ãĥª
ãĤª ãĥ¼ãĥĮ
ãĥĬãĥ³ ãĤ®
ãĥį ãĥ¼ãĥ©
ãĤ¬ãĥŀ ãĤ¸
ãĤ«ãĥĦ ãĥĮ
ãĤ ¨
ãĥ³ ãĤ¸
ãĤ· ãĤ®
ãĤ« ãĥ¼ãĥŀ
ãĤ« ãĤŃãĥ«ãĥ³
ãĤ« ãĥ³ãĤ¬ãĤ¤
ãĥŀ ãĥĢ
ãĥŀ ãĥīãĤ¥
ãĥŀ ãĤ¯ãĥ³
ãĥĮ ãĥłãĥĮ
ãĤµ ãĥĲ
ãĤµ ãĥªãĥ³
ãĥł ãĥª
ãĥł ãĤ«ãĤ·
ãĥĥ ãĤ·
ãĤ¢ ãĥ¼ãĥ«ãĥ³
ãĤ¢ ãĥ©ãĤ¤
ãĤ¢ ãĤ®ãĥ«ãĥ³
ãĥĪãĤ¥ ãĥ¼ãĥ«
ãĥ¤ ãĥłãĥ³
ãĥĭ ãĥ¼ãĥĮ
ãĤ¬ ãĥ¼ãĥ©
ãĤ¬ ãĥ©ãĤ¹ãĥ³
ãĥĶ ãĥģ
ãĥĶ ãĥĥãĤŃ
ãĥĢ ãĥª
ãĤ° ãĥ¼
ãĤ¶ ãĤ·
ãĥ¦ ãĥ¼ãĤ·
ãĤ½ ãĥ¼ãĤ·
ãĤ± ãĥ¼ãĥ©
ãĥ³ãĤ° ãĥªãĤµãĥ³
ãĥĪãĤ¥ãĥ³ ãĤ¯ãĤ¤
ãĥ¼ãĥŁ ãĥ¼
ãĤ¿ãĥ³ ãĥĨãĤ£ãĥ³
ãĥĴ ãĥ£ãĥ¼
ãĥĿ ãĥ¼ãĤŃ
ãĥĶãĥĢ ãĥª
ãĥ¼ãĥĩ ãĤ£
ãĥ¼ãĥ Ŀ
ãĤ· ãĥª
ãĤ· ãĤº
ãĤ« ãĥĲ
ãĤ« ãĥ¼ãĥ«ãĥ³
ãĤ« ãĥ¼ãĥĭ
ãĤ¹ ãĤ³ãĥ¼
ãĥĬ ãĤ¦
ãĥĬ ãĥ¼ãĥ«
ãĤ¯ ãĥŁ
ãĤ¯ ãĥĢ
ãĤ¯ ãĥĨãĤ£
ãĤ¯ ãĥ©ãĤ·
ãĥĮ ãĤ¯ãĥ³
ãĥĮ ãĥĳãĥ¼
ãĥĮ ãĥĥãĤ¹
ãĥĳ ãĥ¼ãĥķ
ãĤ¦ ãĤ«
ãĤ¦ ãĥ¼ãĥ«
ãĤµ ãĥ¼ãĥ«
ãĥł ãĥĪãĤ¥ãĥ³
ãĥĥ ãĥĳ
ãĥĥ ãĤŃãĥ«ãĥ³
ãĥĪãĤ¥ ãĥĮ
ãĥĪãĤ¥ ãĥłãĥ³
ãĥģ ãĥ£ãĥ¼
ãĥŁ ãĥĬ
ãĥŁ ãĥ¼ãĥĬ
ãĥ¤ ãĥķ
ãĥ¤ ãĥ¼ãĥŀ
ãĥ¤ ãĥĥãĤµãĥ³
ãĥĭ ãĥ¤ãĥ³
ãĤ¬ ãĥªãĥ«ãĥ³
ãĥķ ãĤŃãĥ«ãĥ³
ãĥĶ ãĤ·
ãĥĶ ãĥĭ
ãĥĶ ãĥĥãĥģãĥ³
ãĥĸ ãĥĪãĤ¥
ãĥĢ ãĥģ
ãĤ¶ ãĥª
ãĥīãĤ¥ ãĤŃ
ãĥīãĤ¥ ãĥª
ãĥ¦ ãĤ¤
ãĥ¦ ãĥ«
ãĥ¼ãĥ© ãĤ·
ãĥĦãĤ¡ ãĥ¼ãĤ¹ãĥ³
ãĤ½ ãĥ¼ãĤŃ
ãĤ½ ãĥ¼ãĥŁ
ãĥĥãĤµ ãĥ¼ãĥ³
ãĥĥãĤµ ãĥ¼ãĥ«ãĥ³
ãĤ·ãĥ³ ãĤ¿
ãĥ¼ãĥĥ ãĤµãĥ³
ãĥ£ ãĥ¼ãĥ³
ãĥ¼ãĥĳ ãĥ³
ãĥľ ãĥ¼ãĥ³
ãĥĥãĤ« ãĥ«ãĥ³
ãĥĥãĤ« ãĥ¼ãĤ¹ãĥ³
ãĤ·ãĤ¥ãĤ« ãĤ¦ãĥ³
ãĥ¼ãĥĢ ãĤ¤
ãĥ¼ãĥĶ ãĤŃ
ãĤ¦ãĤ¯ ãĥª
ãĥĭãĥ¼ãĥĲ ãĥ³
ãĥ ĺ
ãĥ³ ãĥ¼ãĥŀ
ãĤ· ãĥ¼ãĥłãĥĮ
ãĤ· ãĥĨãĤ£ãĥ«ãĥ³
ãĤ« ãĥ¤ãĥ¼
ãĤ¤ ãĤ¬
ãĥĬ ãĥĦãĤ¡
ãĥĬ ãĥĻ
ãĥĬ ãĥ¼ãĥĨãĤ£
ãĥĬ ãĥ¼ãĥłãĥĨãĤ£
ãĥĮ ãĤ«
ãĥĮ ãĤ·ãĥ¼
ãĥĳ ãĥĪãĤ¥
ãĥĳ ãĥĪãĤ¥ãĥŀ
ãĤ¦ ãĥŀ
ãĤ¦ ãĤ¯ãĥ³
ãĤ¦ ãĤº
ãĤµ ãĥ¼ãĥª
ãĤµ ãĤ¦ãĥ³
ãĥĪ ãĥ¼ãĤ¹ãĥ³
ãĤ¢ ãĥĬ
ãĤ¢ ãĥ¼ãĥ©ãĤ¹ãĥ³
ãĥĪãĤ¥ ãĥ³ãĤ¬
ãĥģ ãĥ¥
ãĥĲ ãĤ·ãĤŃ
ãĥĲ ãĤ¶ãĥ©
ãĥŁ ãĥ¼ãĥŀ
ãĥŁ ãĥĦãĤ¡
ãĥŁ ãĥ¼ãĥĪãĤ¥
ãĥ¤ ãĥĥ
ãĥĭ ãĥ¼ãĤ·
ãĥĭ ãĥ¼ãĥ©
ãĥĭ ãĥ¼ãĥ«ãĥ³
ãĥĭ ãĥĥãģµãĤ¡
ãĥĭ ãĥ³ãĤ°ãĥ®ãĥģ
ãĤ¬ ãĥĲãĥ©
ãĥĶ ãĤ¿
ãĥĶ ãĥ¼ãĥª
ãĥĵ ãĥģ
ãĤ° ãĥ«ãĥ³
ãĤ° ãĤ¸
ãĥī ãĥ³
ãĥīãĤ¥ ãĥ¼ãĥĮ
ãĥīãĤ¥ ãĥ¼ãĥ¤
ãĥ¼ãĥ© ãĥ¼ãĥ³
ãĥĥãģµ ãĥ³
ãĥĳãĥ³ ãĤ·
ãĥĳãĥ³ ãĥĸãĥ³
ãĥĲãĤ¿ ãĥĮ
ãĥĬãĥŀ ãĤ¸
ãĤ«ãĥ¼ ãĤŃ
ãĤ·ãĥ³ ãĤ«
ãĥĬãĤ¤ ãĥ«ãĥ³
ãĥ¼ãĤ¸ ãĥ«
ãĥı ãĥģ
ãĤ·ãĤ¥ãĤ« ãĥĬãĤ¤
ãĤ¢ãĥ© ãĤŃ
ãĥķãĤ¿ ãĤ¤
ãĤ¦ãĥ¤ ãĤŃ
ãĤ«ãĤŃ ãĥłãĥĮ
ãĤ¦ãĤ¿ ãĤ¹ãĥ³
ãĥ¼ãĥĶ ãĥ¼
ãĥķãĤ¯ ãĥĵ
ãĤ«ãĤ¯ ãĥģ
ãĤ¿ãĥŀ ãĤ·
ãĥĳãĤ¿ãĥ© ãĤŃ
ãĤ°ãĥ® ãĥ³
ãĥĥãĥĪ ãĥ¼ãĤ¹ãĥ³
ãĥłãĤ¤ ãĤµãĥ³
ãĤ· ãĥ¼ãĥĮ
ãĤ· ãĥĪãĤ¥ãĥ³
ãĤ· ãĥĩãĤ£
ãĤ« ãĥłãĥ³
ãĤ¤ ãĥĦ
ãĤ¹ ãĥ©
ãĤ¹ ãĥª
ãĤ¹ ãĥ¼ãĥĮ
ãĤ¯ ãĥĭ
ãĤ¯ ãĤµãĤ¤
ãĥŀ ãĥ¼ãĥĵ
ãĤ¿ ãĥľ
ãĤ¿ ãĥĨãĤ£ãĥ«ãĥ³
ãĥĮ ãĤ¹
ãĥĮ ãĤ®
ãĥĮ ãĥ¼ãĥ«ãĥ³
ãĥĮ ãĥ¦ãĥ¼
ãĥĮ ãĥĸãĤ·
ãĥĳ ãĤ¦ãĥ³
ãĥĳ ãĤ¸ãĥ³
ãĤ¦ ãĥĥ
ãĤ¦ ãĥ¼ãĥ³
ãĤµ ãĥĲãĥ³
ãĤµ ãĤ®ãĥ«ãĥ³
ãĥł ãĤ¹
ãĥł ãĤ¿
ãĥł ãĤ¤ãĥ«ãĥ³
ãĥ© ãĥ¼ãĥ³
ãĥĥ ãĥĹ
ãĥĥ ãĥĦãĥ³
ãĥĪãĤ¥ ãĤ¤
ãĥĭ ãĥĲãĥ«
ãĥķ ãĤ¸
ãĥĢ ãĥ«ãĥ³
ãĥĨãĤ£ ãĥ¼ãĥķ
ãĤ° ãĥª
ãĤ° ãĤ¹ãĤ¯
ãĤ¶ ãĤ¯
ãĥī ãĥ³ãĤ°
ãĥ¼ãĤ· ãĥłãĥĮ
ãĥ¦ ãĥį
ãĤ¯ãĥ³ ãĤŃ
ãĤµãĥ³ ãĤ·ãĥ³
ãĥ³ãĤ¬ ãĥ¼ãĥª
ãĤ½ ãĥ¼ãĥ©ãĥ³
ãĥĳãĥĬ ãĥª
ãĥĬãĤ« ãĥ³
ãĥ¼ãĥł ãĥĪãĤ¥
ãĥ¼ãĥł ãĥĭ
ãĤ¹ãĤ¯ ãĥ«ãĥ³
ãĥĥãĤµ ãĥª
ãĤ± ãĥ¼ãĥĮ
ãĥĬãĥ¼ ãĤ«
ãĥ¼ãĥĥ ãĤ¿
ãĤ«ãĥ³ ãĥĨãĤ£
ãĥİ ãĥ¼ãĥ«
ãĥĩãĤ£ ãĥŀãĥª
ãĤ¦ãĤ· ãĥĪãĤ¥
ãĥı ãĥ¼
ãĥı ãĥ©
ãĤ¸ãĥ³ ãĥĸãĥ³
ãĤ¤ãĥ³ ãĤ¿
ãĥ¼ãĥĪãĤ¥ ãĥª
ãĤ·ãĤ¿ ãĥķ
ãĥĿ ãĥ¼
ãĥĽ ãĥ¼
ãĤ«ãĥ« ãĤ¤
ãĥĥãĤ¿ ãĥ«
ãĥĶãĥ© ãĤ¯
ãĥĸãĥĥ ãĤ¿ãĥ¼
ãĥ¼ãĥĦ ãĤ¡
ãĥ¼ãĥ Ļ
ãĥ¼ãĥ ľ
ãĤ· ãĥĲ
ãĤ· ãĤ§ãĥ¼
ãĤ« ãĥĸ
ãĤ« ãĥ¼ãĥ«
ãĤ« ãĥŀãĥģ
ãĤ¤ ãĥĬ
ãĤ¤ ãĥĪãĤ¥
ãĤ¤ ãĥĵ
ãĤ¹ ãĥ¼ãĥª
ãĤ¹ ãĤ³
ãĥĬ ãĤ°
ãĤ¯ ãĥ©ãĤ¹ãĥ³
ãĤ¯ ãĤ¯ãĥģ
ãĥŀ ãĥŀ
ãĥŀ ãĥ¤
ãĥŀ ãĤ¸
ãĥŀ ãĤ«ãĥ«
ãĤ¿ ãĥĬ
ãĥĮ ãĥĳãĥĬ
ãĥĮ ãĥ¤ãĥ¼
ãĥĮ ãĤ«ãĤ¿
ãĥĮ ãĥ¼ãĥ¤
ãĥĮ ãĤ¯ãĥ¼
ãĥĮ ãĥĲãĤ¹ãĥ³
ãĥĮ ãĥĭãĥ³ãĤ¬ãĤ¤
ãĥĳ ãĥ¼ãĤ¹ãĥ³
ãĥĳ ãĤ®ãĥ«ãĥ³
ãĤ¦ ãĤŃãĥ«ãĥ³
ãĤµ ãĤ·
ãĤµ ãĥ¼ãĥ³
ãĥł ãĥ¼
ãĥł ãĥ©ãĤ·
ãĥĥ ãĥĦãĤ©
ãĤ¢ ãĥĢ
ãĤ¢ ãĥ¼ãĥ©
ãĤ¢ ãĥ¼ãĥĮ
ãĤ¢ ãĤŃãĥ«ãĥ³
ãĥģ ãĤ¬ãĤ¤
ãĥŁ ãĤº
ãĥŁ ãĥ¼ãĥł
ãĥŁ ãĥ³ãĤ°
ãĥŁ ãĥ¼ãĥķ
ãĥ¤ ãĤ¤
ãĥ¤ ãĤ·ãĤŃ
ãĥĭ ãĤ¸
ãĥĭ ãĥ¼ãĥĸ
ãĥĭ ãĥ¼ãĥĸãĥ«
ãĤ¬ ãĥ¼ãĥª
ãĤ¬ ãĤ¦ãĥ³
ãĤ¬ ãĥ¤ãĥ¼
ãĥķ ãĥ©
ãĥķ ãĥĬãĥ¼
ãĥĶ ãĤ¸
ãĥĶ ãĥ¼ãĥ«
ãĥĶ ãĤµãĥ³
ãĥĶ ãĥ¼ãĥ¤
ãĥĶ ãĤ¸ãĥ«
ãĥĸ ãĥģ
ãĥĵ ãĤ¶ãĥ¼
ãĤ° ãĥģ
ãĤ° ãĥĥãģµãĤ¡
ãĤ¶ ãĥ©ãĤ·
ãĥīãĤ¥ ãĥ«ãĥ³
ãĥ¼ãĤ· ãĥ¼
ãĥ¦ ãĥª
ãĥ¦ ãĥ¼ãĤ¹ãĥ³
ãĥ¦ ãĥĥãĤ«
ãĥĹ ãĤ¹ãĥ³
ãĤ³ ãĤ¤
ãĥĹãĤ¹ ãĥ«
ãĤ½ ãĥ¼ãĥ«ãĥ³
ãĥ¤ãĥ¼ ãĤµ
ãĥ¨ ãĥ¼ãĥ«ãĥ³
ãĤ± ãĥ¼ãĤ·
ãĤ«ãĤ¿ ãĥŁ
ãĤ´ ãĥ¼ãĥĢ
ãĥ©ãĤ¤ ãĥ«ãĥ³
ãĥ¼ãĥĥ ãĤ¹ãĥ³
ãĥĭãĥ³ ãĤŃ
ãĥĭãĥ³ ãĤºãĥ¼
ãĥ¼ãĥĲ ãĥ³
ãĥĥãĥĦãĤ¡ ãĥ¼
ãĤ·ãĤ¥ãĤ« ãĥªãĥ³
ãĥ¼ãĥŁ ãĥģ
ãĤ«ãĤ¶ ãĥª
ãĥ¨ãĥ¼ ãĤ¾ãĥ¼
ãĤ¦ãĥł ãĥĨãĤ£
ãĥ¡ ãĥ¼ãĥŀ
ãĤ¿ãĤ« ãĥĵ
ãĥŃ ãĥ¼ãĥŀ
ãĤ«ãĤµ ãĥłãĥ³
ãĤ¤ãĥģ ãĥĲãĥ³
ãĥĴ ãĥ¼ãĥ¤
ãĤŃãĤ· ãĥ«ãĥ³
ãĥĳãĤ¸ ãĥŁ
ãĥĪãĤ¥ãĥł ãĥ¬ãĥ¼ãĥĮ
ãĥĳãĥ³ãĤ¿ ãĥª
ãĤ«ãĤ¦ ãĥ¯ãĥ³
ãĥĳãĥĦãĤ¡ ãĥ©
ãĥĥãĤ± ãĥ¼ãĥ«ãĥ³
ãĥ¦ãĥį ãĥ³
ãĥ³ ãĥĭ
ãĥ¼ãĥ ¡
ãĥ¼ãĥ ¢
ãĥ¼ãĥ Ľ
ãĤ· ãĥł
ãĤ« ãĤ«
ãĤ« ãĥŃãĥ¼ãĥ³
ãĤ¤ ãĥ¼ãĥª
ãĤŃ ãĤ¸
ãĤŃ ãĥ§
ãĤ¹ ãĥŁ
ãĤ¹ ãĥ¼ãĥŀ
ãĥĬ ãĥ¼ãĥ©
ãĥĬ ãĥ¼ãĥĳ
ãĤ¯ ãĥĥãĥģ
ãĤ¯ ãĥŀãĥ«ãĥ³
ãĤ¯ ãĥĵãĥ³
ãĤ¯ ãĥłãĥ«
ãĤ¯ ãĤ¬ãĥĭ
ãĥŀ ãĥ¼ãĥ³
ãĤ¿ ãĥĸ
ãĤ¿ ãĥ¼ãĥ«ãĥ³
ãĤ¿ ãĥĲãĤ¯
ãĥĮ ãĤ«ãĤ¹ãĥ³
ãĥĮ ãĥŁãĥ³
ãĥĳ ãĤ¯ãĥ³
ãĥĳ ãĤ«ãĥ©
ãĥĳ ãĥ©ãĤ¤
ãĥĳ ãĥ©ãĤ¹ãĥ³
ãĤ¦ ãĥŁ
ãĤ¦ ãĥľ
ãĤµ ãĥŁ
ãĥ© ãĤ¯
ãĥ© ãĤ¦ãĥ³
ãĥĥ ãĤ«ãĥ¼
ãĤ¢ ãĥ¼ãĥ«
ãĥĪãĤ¥ ãĤº
ãĥģ ãĥª
ãĥĲ ãĤ¦ãĥ³
ãĥŁ ãĤ·
ãĥ¤ ãĥĦ
ãĥ¤ ãĥĸãĥª
ãĥ¤ ãĥĭãĥ¤ãĥ³
ãĥĭ ãĤ¯
ãĤ¸ ãĥ§
ãĤ¬ ãĥģ
ãĥķ ãĤ·
ãĥķ ãĥŁ
ãĥķ ãĤ¡
ãĥĸ ãĤ¶
ãĥĸ ãĤ¬ãĥª
ãĥĵ ãĤ¹ãĥ³
ãĥĨãĤ£ ãĥĲ
ãĥĨãĤ£ ãĥ¼ãĥŀ
ãĥĨãĤ£ ãĥ¼ãĥ¤
ãĥīãĤ¥ ãĥ¼ãĥł
ãĥ¼ãĤ· ãĤŃãĥ«ãĥ³
ãĥ¦ ãĥ³
ãĥ¦ ãĥģ
ãĥ¦ ãĥłãĥ³
ãĥĹ ãĥªãĥłãĥĮ
ãĥ¼ãĥ© ãĥªãĥ³
ãĥ¼ãĥŀ ãĤ¹ãĥ³
ãĥ³ãĤ¬ ãĤµ
ãĥ³ãĤ¬ ãĥĭ
ãĤ½ ãĥ¼ãĥª
ãĥĳãĥĬ ãĤ¹ãĥ³
ãĥŀãĤ¤ ãĥĮ
ãĥ¼ãĥł ãĤ¤
ãĥĥãĤµ ãĥ¼ãĥ©
ãĥĥãĤµ ãĤ¦ãĥ³
ãĤ± ãĥ¼ãĥ«ãĥ³
ãĥ¼ãĥĥ ãĤ¹
ãĥĩ ãĥ¼
ãĥĩ ãĥ¼ãĤ¸
ãĥ³ãĤ° ãĤ¤
ãĤ¦ãĥĸ ãĤ¤
ãĥĥãĤ¯ ãĥ®
ãĤ«ãĤ¸ ãĥĮ
ãĤª ãĥ³ãĤ®
ãĥ¼ãĥĲ ãĤ¤
ãĥľ ãĥ¼ãĥ«
ãĤµãĥ¼ ãĤ®
ãĤ¢ãĥ© ãĥĮ
ãĥ¼ãĥĭ ãĥģ
ãĤ·ãĥŀ ãĥ«ãĥ³
ãĥĥãģµãĤ¡ãĤ¤ ãĥłãĥĮ
ãĥ¡ ãĥ¼ãĥĮ
ãĤ·ãĤ¿ ãĥĢãĥ«
ãĥķãĤ¯ ãĥª
ãĤ¢ãĤ¿ ãĥ«ãĥ³
ãĥŀãĥ³ ãĤ¿
ãĥ¢ ãĥ¼
ãĤ·ãĥĪãĤ¥ ãĥĥãĥģ
ãĥ¼ãĥ¦ ãĥ¼
ãĥ¼ãĥ¨ ãĥ¼ãĥ³
ãĥ¼ãĥĥãģµãĤ¡ ãĤ¤
ãĥ¼ãĥĻ ãĥ¼
ãĥ³ ãĥĨãĤ£
ãĥ³ ãĥŀãĥ¼
ãĥ³ ãĥ¼ãĥĭ
ãĥ³ ãĤ¶ãĤ¹ãĥ³
ãĥ¼ãĥ į
ãĥ¼ãĥ ı
ãĥ¼ãĥ Ń
ãĤ· ãĥĥ
ãĤ· ãĤ®ãĥ«ãĥ³
ãĤ« ãĥĨãĤ£
ãĤ« ãĥ¼ãĥ³
ãĤ« ãĥīãĤ¥
ãĤ« ãĥ¼ãĥª
ãĤŃ ãĤ¯
ãĤŃ ãĤ¿
ãĤŃ ãĥģ
ãĤŃ ãĥ¼ãĥĳ
ãĤ¹ ãĥĢãĥĨãĤ£
ãĥĬ ãĥ©ãĤ¹ãĥ³
ãĥĬ ãĥĢãĥ©
ãĥĬ ãĥ¼ãĥĥãĤ¹
ãĥŀ ãĥ¼ãĥ©
ãĥŀ ãĤµãĥ³
ãĥŀ ãĥ¼ãĤŃ
ãĤ¿ ãĤ¯ãĥĮ
ãĥĮ ãĥ«
ãĥĮ ãĥª
ãĥĮ ãĥ¼ãĤ¹ãĥ³
ãĥĮ ãĤ¦ãĥ¤
ãĥĮ ãĥĬãĥ«
ãĥĮ ãĤ«ãĥ«
ãĥĮ ãĥ¨ãĤ¤
ãĥĳ ãĤ¶
ãĥĳ ãĥ¼ãĥ©
ãĥĳ ãĥ¤ãĥŀ
ãĥĳ ãĤ·ãĤ«
ãĤ¦ ãĥ«
ãĤ¦ ãĥ¼ãĤŃ
ãĤµ ãĥ«
ãĤµ ãĤ®
ãĤµ ãĥ¼ãĥĮ
ãĤµ ãĤ¯ãĥ©
ãĥĥ ãĥĪãĥ¼
ãĥĥ ãĤ«ãĤ¤ãĤ¹ãĥ³
ãĤ¢ ãĥ«
ãĤ¢ ãĤ¯
ãĤ¢ ãĤº
ãĤ¢ ãĤ¤ãĥ«ãĥ³
ãĤ¢ ãĤ°ãĥ³
ãĥĪãĤ¥ ãĤ«
ãĥĪãĤ¥ ãĥĥ
ãĥĪãĤ¥ ãĤ¬
ãĥĪãĤ¥ ãĥ¼ãĥĬ
ãĥĪãĤ¥ ãĥĲãĤ¹ãĥ³
ãĥģ ãĥ£
ãĥĲ ãĤ¶
ãĥĲ ãĥ¼ãĥ³
ãĥŁ ãĥ«
ãĥŁ ãĥ¼ãĥ¤
ãĥŁ ãĥīãĤ¥ãĥł
ãĥ¤ ãĤ·
ãĥ¤ ãĥŁ
ãĥ¤ ãĤ¹ãĥ³
ãĥ¤ ãĥĸ
ãĥ¤ ãĥ¼ãĥ³
ãĤ¸ ãĥ¼ãĥŀ
ãĤ¬ ãĤ¤ãĥ«ãĥ³
ãĥĶ ãĥ³ãĤ°
ãĥĶ ãĥĥãĤ«
ãĥĶ ãĥ¼ãĥĢ
ãĥĶ ãĥ¼ãĥĹ
ãĥĶ ãĥĵãĤ¶
ãĥĢ ãĤ·
ãĥĢ ãĥĭ
ãĥĢ ãĥ¼ãĥª
ãĥĢ ãĥ¼ãĥģ
ãĥĨãĤ£ ãĥŀ
ãĥĨãĤ£ ãĥ¼ãĥĬ
ãĤ¶ ãĥ¼ãĥ³
ãĥīãĤ¥ ãĥŁ
ãĥīãĤ¥ ãĥ¼ãĥĬ
ãĥīãĤ¥ ãĥ¼ãĥķ
ãĥīãĤ¥ ãĥ¼ãĥĳ
ãĥ¦ ãĥł
ãĥ¦ ãĥŁ
ãĥ¦ ãĥ¼ãĥ³
ãĤ·ãĤŃ ãĥłãĥĮ
ãĤº ãĤ¯
ãĥ³ãĤ¬ ãĥ³
ãĥĥãģµãĤ¡ ãĥ¼ãĤ¹ãĥ³
ãĥĳãĥĬ ãĤ¤ãĤŃ
ãĥĳãĥ³ ãĤ¯ãĥ³
ãĥĬãĤ« ãĥĲ
ãĥ¼ãĥĬ ãĥ«
ãĥ¼ãĥĬ ãĥª
ãĤ¹ãĤ¯ ãĥªãĥłãĥĮ
ãĤ± ãĥ¼ãĥ³
ãĤ± ãĥ¼ãĥŀ
ãĥĬãĥ¼ ãĤ¤
ãĤ«ãĥ© ãĥ¼ãĥ³
ãĤ´ ãĥ¼ãĤ·
ãĥĪãĤ¥ãĥª ãĥł
ãĥ¼ãĤŃ ãĥ³
ãĥ³ãĤ° ãĥĪãĤ¥
ãĥĪãĤ¥ãĥ³ ãĥĨãĤ£
ãĥĲãĤ« ãĤ¹ãĥ³
ãĥĲãĤ« ãĥ¼ãĥ³
ãĤŃãĥł ãĤ·
ãĥİ ãĥ³
ãĥİ ãĥ¼ãĥ«ãĥ³
ãĥ¼ãĥ¤ ãĤ¯
ãĤ¾ ãĥ¼ãĥ«
ãĥĭãĥ³ ãĤº
ãĥ¼ãĥĸ ãĥĭ
ãĥı ãĤ¤
ãĥ¼ãĥĲ ãĥ¼
ãĥ¼ãĥĲ ãĤŃ
ãĥĥãĥĦãĤ¡ ãĥ¼ãĥ«ãĥ³
ãĤ·ãĤ¥ãĤ« ãĥ«ãĥ³
ãĥ¼ãĥŁ ãĤ¸
ãĥ¼ãĥŁ ãĥīãĤ¥ãĥł
ãĥĬãĥ³ ãĥĦãĤ¡
ãĤ·ãĥ© ãĤ·
ãĥĨãĤ£ãĥ³ ãĥĮ
ãĤ¢ãĥ³ ãĥŀ
ãĥ¼ãĥĶ ãĤµ
ãĥį ãĥ¼ãĤ·
ãĤ¢ãĤ¿ ãĥª
ãĥ¢ ãĥ¼ãĤŃ
ãĥĪãĤ¥ãĥł ãĥĨãĤ£
ãĤ¯ãĥĪãĤ¥ ãĥĲ
ãĤ¬ãĥ© ãĤµ
ãĥĵãĤŃ ãĥīãĤ¥ãĥł
ãĥĮãĤ· ãĥĪãĤ¥ãĥ«
ãĤ¿ãĤ¿ ãĥŁ
ãĥķãĥ« ãĥŀãĤ¤
ãĤ² ãĥ¼
ãĤ«ãĥĵ ãĥłãĥĮ
ãĤ°ãĥ® ãĥ¼
ãĥķãĥĪãĤ¥ ãĥĥãĥģ
ãĥ¤ãĥ© ãĥĵ
ãĤ¤ãĤ¿ ãĥ³ãĥĢ
ãĥ³ ãĤ´
ãĥ³ ãĥĳãĥ¼
ãĥ¼ãĥ İ
ãĤ· ãĥ¼ãĥĳ
ãĤ· ãĥ¥ãĥ¼
ãĤ« ãĥ¼ãĤ¹ãĥ³
ãĤ« ãĥĦãĤ¡
ãĤ« ãĥ¼ãĥŁ
ãĤ¤ ãĥªãĥ«ãĥ³
ãĤŃ ãĥ¥
ãĥĬ ãĥĨãĤ£
ãĥĬ ãĤ·ãĤŃ
ãĥĬ ãĥ¼ãĥ«ãĥ³
ãĥĬ ãĥĩãĤ£
ãĥĬ ãĥ¼ãĥĭ
ãĤ¯ ãĥŁãĥ«ãĥ³
ãĤ¯ ãĥĲãĥª
ãĥŀ ãĥĭ
ãĥŀ ãĥĥãģµãĤ¡
ãĤ¿ ãĤ¦
ãĤ¿ ãĥķ
ãĤ¿ ãĥ¼ãĥ³
ãĤ¿ ãĥłãĥ³
ãĤ¿ ãĥªãĥ«ãĥ³
ãĤ¿ ãĥĲãĥ«
ãĥĮ ãĥĹãĤ¹
ãĥĮ ãĥ³ãĤ¬
ãĥĮ ãĤŃãĥ«ãĥ³
ãĥĳ ãĥĸ
ãĥĳ ãĥ¼ãĤ·
ãĥĳ ãĤ«ãĤ¹ãĥ³
ãĥĳ ãĤ°ãĥ³
ãĤ¦ ãĤ¹ãĥ³
ãĤ¦ ãĥªãĥ«ãĥ³
ãĤ¦ ãĥĢãĥ©
ãĤ¦ ãĥĦãĤ¡ãĤ¹ãĥ³
ãĤµ ãĤ¸
ãĤµ ãĥĢ
ãĥł ãĤ¯
ãĥł ãĥł
ãĥł ãĥ¼ãĥ³
ãĥł ãĥ¨ãĥ¼
ãĥ© ãĤµ
ãĥĥ ãĥĦ
ãĥĥ ãĤ·ãĥ³
ãĤ¢ ãĥŀãĤ¤
ãĤ¢ ãĤ·ãĤ¥ãĤ«ãĤ¤
ãĤ¢ ãĥĢãĥ³
ãĤ¢ ãĥ¯ãĥª
ãĥĪãĤ¥ ãĥ¼ãĥ³
ãĥĪãĤ¥ ãĥ¼ãĤ·
ãĥĪãĤ¥ ãĥŀãĥ«ãĥ³
ãĥģ ãĤ¸
ãĥģ ãĥ§ãĥ¼
ãĥĲ ãĤ¦
ãĥŁ ãĥ¼ãĥĶ
ãĤ¬ ãĥĬãĤ·
ãĥĶ ãĥ©ãĤ¤
ãĥĶ ãĥ§
ãĥĶ ãĥ¼ãĥ©ãĤ¹ãĥ³
ãĥĶ ãĥ£ãĥ¼
ãĥĶ ãĤ«ãĥª
ãĥĶ ãĥ£ãĥ¼ãĥ³
ãĥĸ ãĤ¹ãĤ¯
ãĥĢ ãĥ¼ãĥ©
ãĥĢ ãĥ¼ãĤŃ
ãĥĵ ãĥ§ãĥ¼
ãĥĵ ãĥĢãĥ¼
ãĥĨãĤ£ ãĤ¸
ãĤ¶ ãĥ¼ãĥª
ãĥī ãĥ¼ãĥª
ãĥī ãĥ¼ãĥ¬ãĥ¼
ãĥīãĤ¥ ãĥ¼ãĤ·
ãĥ¦ ãĥĬ
ãĥ¦ ãĥ¼ãĥ«
ãĥ¦ ãĥ¼ãĥģ
ãĥĹ ãĥ©
ãĤ® ãĥ©
ãĤ® ãĥ¥
ãĤ·ãĤŃ ãĥ«
ãĤ·ãĤŃ ãĥ©ãĥªãĥ³
ãĥ¼ãĥŀ ãĥ¼ãĥ«
ãĤº ãĥĭ
ãĤ³ ãĥ¼ãĤ¸
ãĥĥãģµ ãĤ£
ãĤ«ãĤ¤ ãĤ·ãĥ³
ãĥ³ãĤ¬ ãĤ¿
ãĥĥãģµãĤ¡ ãĥĨãĤ£
ãĥĳãĥĬ ãĥĢãĥ«
ãĥĳãĥ³ ãĥģ
ãĥĳãĥ³ ãĥĦãĥ³
ãĥĳãĥ³ ãĤ¯ãĥ«ãĥ³
ãĥĲãĤ¿ ãĤ·
ãĥ¨ ãĥ¼ãĥĭ
ãĥĬãĥŀ ãĥ«ãĥ³
ãĥĬãĥŀ ãĤ·ãĤŃ
ãĥĥãĤµ ãĥ«ãĥ³
ãĥĥãĤµ ãĤ¤ãĥ«ãĥ³
ãĥĥãĤµ ãĥªãĥłãĥĮ
ãĤ«ãĤ¿ ãĥĬ
ãĤ«ãĤ¿ ãĥłãĥ³
ãĥ¼ãĥķ ãĥ³
ãĥ¼ãĥķ ãĥĢ
ãĥİ ãĥ¼ãĥ©
ãĥ¼ãĥ¤ ãĥ³
ãĥ³ãĥĢ ãĤ¤
ãĥĩãĤ£ ãĥĹãĤ¹
ãĥĥãĤ¯ ãĥ«ãĥ³
ãĥ¼ãĤ¸ ãĥ¼
ãĤ¢ãĤ¬ ãĥ«ãĥ³
ãĤª ãĥ³
ãĥŀãĥª ãĥ«ãĥ³
ãĥ¼ãĥĸ ãĥ¼
ãĥ¼ãĥĸ ãĥ³
ãĥ¼ãĥĸ ãĤ·
ãĥ¼ãĥĸ ãĤ¯
ãĥı ãĥ³
ãĥı ãĤ®
ãĤ§ ãĥ¼ãĥ³
ãĥ¼ãĥĲ ãĤ¿
ãĤ·ãĤ¥ãĤ« ãĤ¹ãĥ³
ãĤ¢ãĥ© ãĥ¼ãĥ³
ãĤ¢ãĤ¤ ãĥ¤
ãĥ¼ãĥĭ ãĥ³
ãĥĬãĤ¬ ãĤ¹ãĥ³
ãĤ¿ãĥ³ ãĥĩãĤ£
ãĥĳãĤ¤ ãĥ«
ãĤ¢ãĥ³ ãĥĬãĥ¼ãĥŀ
ãĥĶãĥ¼ ãĤº
ãĥĪãĤ¥ãĤ· ãĥĮ
ãĥ¼ãĥĶ ãĤ¯ãĥ³
ãĤ·ãĤ¿ ãĥ¼ãĥŀ
ãĤ°ãĥ« ãĤ°ãĥ«
ãĥķãĥ³ ãĥĦãĤ¡
ãĤŃãĤ· ãĥłãĥĮ
ãĤ´ãĥ¼ ãĤµãĥ³
ãĥĿ ãĥ¼ãĥĿ
ãĥĽ ãĥ¼ãĥ«
ãĤ¯ãĥĲ ãĥ¼ãĥ³
ãĤµãĥ© ãĥ¼ãĥ³
ãĤ¦ãĤ¯ ãĥ«ãĥ³
ãĥ¼ãĥī ãĥ¼
ãĤ¢ãĤŃ ãĥĬãĤ¤
ãĥļ ãĥ¼
ãĤ¿ãĥ© ãĥ¼ãĤ·
ãĥ¼ãĥīãĤ¥ ãĥ¼
ãĥīãĥ¼ãĥ³ ãĤ°
ãĤ¯ãĥ® ãĥ³
ãĤ¨ ãĥ¼
ãĥĪãĤ¥ãĥ³ãĤ¯ãĤ¤ ãĥĪãĤ¥ãĥ³ãĤ¯ãĤ¤
ãĥĺ ãĥ¼
ãĤ°ãĥĥãģµãĤ¡ ãĥ³
ãĤ´ãĥ¼ãĥĢ ãĥ¼
ãĥ³ ãĤ«ãĤ¤
ãĤ· ãĥĻ
ãĤ· ãĥ¼ãĥĪãĤ¥
ãĤ« ãĥģ
ãĤ« ãĤ°
ãĤ« ãĤµãĥ³
ãĤ« ãĤ«ãĥ¼
ãĤ« ãĥŁãĥ«ãĥ³
ãĤ« ãĥªãĥ³
ãĤ¤ ãĥĢ
ãĤ¤ ãĤ½
ãĤ¤ ãĤ¯ãĤµ
ãĥ« ãĥ¼
ãĥ« ãĥŀ
ãĤŃ ãĥ«
ãĤŃ ãĥłãĥ³
ãĤŃ ãĥ¢
ãĤŃ ãĥ¥ãĥ¼
ãĤŃ ãĥ§ãĥ¼
ãĤŃ ãĥĥãĥĪãĤ¥
ãĤ¹ ãĥł
ãĤ¹ ãĥ¼ãĥ³
ãĤ¹ ãĥ¼ãĥ¯ãĥ³
ãĥĬ ãĥĲ
ãĥĬ ãĥłãĥĮ
ãĥĬ ãĥŀãĤ¤
ãĥĬ ãĥŁãĥ«ãĥ³
ãĥĬ ãĤ·ãĤ¥ãĤ«
ãĥĬ ãĥ¼ãĥªãĥłãĥĮ
ãĥĬ ãĥ¼ãĥĦãĤ¡
ãĤ¯ ãĥł
ãĤ¯ ãĤ·ãĤŃ
ãĤ¯ ãĥŀãĥ¼
ãĤ¯ ãĥĲãĥ³
ãĥŀ ãĥ¦
ãĥŀ ãĥ³ãĤ°
ãĥŀ ãĥ©ãĤ¹ãĥ³
ãĤ¿ ãĥĸãĥ«
ãĤ¿ ãĥ¦ãĥ«
ãĥĮ ãĥŀ
ãĥĮ ãĥĸãĥ³
ãĥĮ ãĤ«ãĥ³
ãĥĮ ãĥĻ
ãĥĮ ãĤ¹ãĥ¼
ãĥĳ ãĤŃ
ãĥĳ ãĥªãĥ³
ãĥĳ ãĤ·ãĤ¥ãĤ«
ãĥĳ ãĥ¼ãĥ¬
ãĥĳ ãĥ¼ãĥĹ
ãĥĳ ãĥ¼ãĥłãĥĮ
ãĥĳ ãĤ¬ãĥĭ
ãĥĳ ãĥĲãĤ¯ãĥ³
ãĥĳ ãĤ´ãĥ¼ãĤµãĥ³
ãĤ¦ ãĥ¯
ãĤµ ãĥłãĥ³
ãĤµ ãĥŁãĥ«ãĥ³
ãĤµ ãĤ«ãĤµ
ãĤµ ãĤ«ãĥĬ
ãĥł ãĥŁ
ãĥ© ãĤµãĥ³
ãĥĪ ãĥ¼ãĥ«ãĥ³
ãĥĪ ãĥ¼ãĥĪãĤ¥
ãĥĥ ãĤ³
ãĥĥ ãĤ½ãĥ¼ãĥ³
ãĤ¢ ãĥīãĤ¥
ãĤ¢ ãĥ¼ãĥª
ãĤ¢ ãĥ¼ãĥĳ
ãĤ¢ ãĥŀãĥª
ãĤ¢ ãĤ«ãĤ¹ãĥ³
ãĥª ãĤ¯ãĥĥãĥģ
ãĥĪãĤ¥ ãĥ¼ãĥĮ
ãĥĪãĤ¥ ãĥ¼ãĤ¹ãĥ³
ãĥĪãĤ¥ ãĥ©ãĤ¹ãĥ³
ãĥĲ ãĥĭ
ãĥŁ ãĥĮ
ãĥŁ ãĥª
ãĥŁ ãĥ¥
ãĥŁ ãĥ¼ãĥĢ
ãĥŁ ãĥ¼ãĥĥãĤµ
ãĥ¤ ãĥ¼ãĤ·
ãĥ¤ ãĤ¯ãĥ³
ãĥ¤ ãĥĬãĤ«
ãĥ¤ ãĤ´
ãĥĭ ãĥ«ãĥ³
ãĥĭ ãĥĸ
ãĥĭ ãĥ¼ãĥª
ãĥĭ ãĥ³ãĤ¬
ãĥĭ ãĥ³ãĤ°
ãĥĭ ãĥ¼ãĥ¤
ãĥĭ ãĥķãĤ¿
ãĥĭ ãĥ¼ãĥ¬
ãĥĭ ãĥĥãĤ¿
ãĥĭ ãĥ¼ãĥłãĥĪãĤ¥
ãĤ¸ ãĤ¯
ãĤ¬ ãĥ«
ãĤ¬ ãĥ¤
ãĤ¬ ãĥķ
ãĤ¬ ãĤ¯ãĥ³
ãĤ¬ ãĤŃãĥ«ãĥ³
ãĤ¬ ãĤ¤ãĤ·
ãĥķ ãĥ¦
ãĥķ ãĥłãĥ³
ãĥķ ãĥĩãĤ£
ãĥķ ãĤºãĥ³
ãĥĶ ãĤ¹
ãĥĶ ãĥ¼ãĥł
ãĥĶ ãĤ«ãĥ©
ãĥĶ ãĤ«ãĤ¤ãĥ«ãĥ³
ãĥĶ ãĥ¼ãĥĥãĤµ
ãĥĶ ãĤ«ãĤ¦ãĥ³
ãĥĸ ãĤ¤
ãĥĨ ãĥ¼ãĥĬ
ãĥĢ ãĥ©ãĤ¹ãĥ³
ãĥĢ ãĥªãĥłãĥĮ
ãĥĵ ãĥ©
ãĥĵ ãĥ¼ãĥĵ
ãĥĵ ãĥĢãĥ©
ãĥĨãĤ£ ãĥ«
ãĥĨãĤ£ ãĥ©
ãĥĨãĤ£ ãĥ¼ãĤ·
ãĥĨãĤ£ ãĥ¼ãĥĳ
ãĤ° ãĤ¯
ãĤ¶ ãĥ«ãĥ³
ãĥ¼ãĥ³ ãĤ®ãĤµãĥ³
ãĥ¼ãĥ« ãĥ¯
ãĥīãĤ¥ ãĤŃãĥ«ãĥ³
ãĥīãĤ¥ ãĤ¯ãĥ«
ãĥīãĤ¥ ãĥĥãĥĪãĤ¥
ãĥīãĤ¥ ãĥ¼ãĥĵ
ãĥīãĤ¥ ãĥ©ãĥ¼ãĥ³
ãĥ¦ ãĤ·ãĤŃ
ãĥ¦ ãĥĬãĤ«
ãĥ¦ ãĥ¼ãĥĬãĥ¼
ãĤ¯ãĥ³ ãĤ¾
ãĤ¯ãĥ³ ãĤ¾ãĥ¼
ãĥ¼ãĥ© ãĤµãĥ³
ãĤº ãĥ¼ãĤ·
ãĤµãĥ³ ãĥŁãĥ³
ãĤ«ãĤ¤ ãĥª
ãĥ³ãĤ¬ ãĥ¼
ãĥ³ãĤ¬ ãĤ¹ãĥ³
ãĤ½ ãĥ¼ãĥĮ
ãĥĥãģµãĤ¡ ãĤ¹ãĥ³
ãĥĳãĥĬ ãĥĮ
ãĥĳãĥĬ ãĥķãĤ¯ãĥ³
ãĥĳãĥĬ ãĥ³ãĤ®
ãĥĳãĥ³ ãĥĳãĥ³
ãĥĳãĥ³ ãĤ¸ãĥ§ãĥ¼
ãĥķãĥģ ãĥĮ
ãĥŀãĤ¤ ãĤ·
ãĥŀãĤ¤ ãĥ¤ãĥ³
ãĥ¼ãĥĬ ãĥ«ãĥ³
ãĥ¼ãĥĬ ãĥĵ
ãĥĲãĤ¿ ãĤ³ãĥ¼ãĥ«ãĥ³
ãĥ¨ ãĥ¼ãĥĥãĤ¿
ãĤ¹ãĤ¯ ãĥ«
ãĤ¹ãĤ¯ ãĥłãĥ³
ãĥĬãĥŀ ãĤ·
ãĥĬãĥŀ ãĥª
ãĤ«ãĤ¿ ãĥŁãĥ«ãĥ³
ãĤ·ãĥ³ ãĤ¶
ãĤ´ ãĤ¤
ãĤ´ ãĥ¼ãĥª
ãĤ´ ãĥ¼ãĥ©ãĥ¼
ãĥĪãĤ¥ãĥª ãĤ·ãĥ©
ãĥ¼ãĤŃ ãĤ¹ãĥ³
ãĥĲãĤ« ãĥ¤ãĥ³
ãĤŃãĥł ãĥģ
ãĤ¾ ãĥ¼ãĥİ
ãĥĥãĤ¯ ãĥŁãĥ«ãĥ³
ãĤ¢ãĤ¬ ãĥª
ãĤª ãĤ·ãĤŃ
ãĤª ãĥ¼ãĤ¹ãĥ³
ãĤª ãĥ¼ãĥ«ãĥ¯
ãĤ§ ãĥ¼ãĥ©
ãĥľ ãĥ¼ãĤ·
ãĥĥãĥĦãĤ¡ ãĤ¹ãĥ³
ãĥĥãĤ« ãĤ¯
ãĤµãĥ¼ ãĤ¯
ãĥĳãĤ¿ ãĥĥãĤ«ãĥ«ãĥ³
ãĥ¦ãĥ¼ ãĤº
ãĥ¦ãĥ¼ ãĤ¯ãĤ¤
ãĥķãĤ¿ ãĥ¼ãĥģ
ãĤ¦ãĥ¤ ãĤ¶
ãĥĳãĥ¤ ãĥ¼ãĥª
ãĥĬãĤ¬ ãĥŁ
ãĥĬãĤ¬ ãĥ¼ãĥ³
ãĤ¤ãĤŃ ãĤ¹ãĥ³
ãĥ¨ãĥ¼ ãĤ«
ãĤ¿ãĥ³ ãĤ«ãĥ¼
ãĥ¡ ãĥ¼ãĥ©
ãĤ·ãĥĵ ãĥ«ãĥ³
ãĤ·ãĥĵ ãĥķ
ãĤ¤ãĥ³ ãĥĮ
ãĥŃ ãĥ¼ãĤ·
ãĥŃ ãĥ¼ãĥ«ãĥ³
ãĥĪãĤ¥ãĥ« ãĥĲãĤ¤
ãĥĶãĤµ ãĤ·
ãĤ«ãĤµ ãĥĵ
ãĤ°ãĥ« ãĥŀ
ãĥĵãĥ¼ ãĤµãĥĵ
ãĥĢãĤ¤ ãĤ¯ãĥĭ
ãĤ¤ãĤº ãĥ³
ãĥĬãĥ© ãĥ¼ãĤ¹ãĥ³
ãĤ¢ãĥŁ ãĥĦãĤ¡
ãĤ´ãĥ¼ ãĤµ
ãĤ¾ãĥ¼ ãĤ°
ãĥĿ ãĥ¼ãĥ«ãĥ³
ãĥĿ ãĥĥãĥģ
ãĤ¬ãĥ© ãĤ¹
ãĤ¯ãĥĲ ãĥ«ãĥ³
ãĥĳãĥ« ãĥŁ
ãĥĳãĥ« ãĤ¹ãĥ¼ãĥĸ
ãĥĥãĤ¿ ãĥ©
ãĥĳãĥ© ãĤ¦ãĥ³
ãĥĳãĥ© ãĥĥãĥĦãĤ¡
ãĥ¼ãĥĵ ãĤŃ
ãĥĮãĤ· ãĥĪãĤ¥ãĥ³
ãĤ«ãĥŁ ãĥĮ
ãĥĶãĥ³ ãĤ®
ãĤ¤ãĥ© ãĥĵ
ãĥĬãĥĵ ãĥĮ
ãĤ·ãĥĬ ãĥ¼ãĤ¹ãĥ³
ãĥĪãĤ¥ãĥ© ãĥĮ
ãĥĪãĤ¥ãĤ¸ ãĥĸãĥĪãĤ¥
ãĤ¤ãĤ« ãĥ¼ãĥ©
ãĥ³ãĤ® ãĥ³
ãĥĬãĥĢ ãĤ«
ãĤ¢ãĥ¼ ãĤ¯ãĥ³
ãĤ¯ãĥŀ ãĥ¼ãĥ³
ãĥŀãĥ© ãĥĲãĤ¹ãĥ³
ãĥĥãĥĪ ãĥ¼ãĥ«ãĥ³
ãĥ¤ãĥ¼ãĥ© ãĥ¼ãĥ³
ãĥ¤ãĥ¼ãĥ© ãĤ¯ãĥ³
ãĥĳãĥĨãĤ£ ãĥłãĥĮ
ãĥĳãĥĨãĤ£ ãĥ«ãĥŀ
ãĥĭãĥ¼ãĥĲ ãĥ«
ãĥĳãĥĦãĤ¡ ãĥ¼ãĥ³
ãĤ«ãĤ¿ãĥģ ãĥĭ
ãĥİãĥ¼ãĥ³ ãĥĨãĤ£ãĥ³
ãĤŃãĤ¶ ãĥ«
ãĥĸãĥĥ ãĥĦ
ãĤ«ãĥ©ãĥ¼ ãĤµãĥ³
ãĥĢãĤ« ãĥ¼ãĥ³
ãĤ¿ãĥ« ãĤ¬ãĤŃ
ãĥ£ãĥ³ ãĥĹ
ãĤ«ãĥ³ãĤ¬ ãĥ³
ãĥĬãĤ¦ ãĤ¹ãĥ³
ãĤ½ãĥ¼ãĥŁ ãĥ³
ãĥĬãĥĻ ãĥ¼ãĥ©
ãĥĬãĥŀãĤ¸ ãĥ©ãĤ¹ãĥ³
ãĥĥãĤµãĥª ãĤ«ãĤ¶
ãĤ¹ãĤ³ ãĥ¼ãĥ«
ãĥĥãĥĦãĤ© ãĥ¼ãĥ«ãĥ³
ãĥĭãĥ¼ãĥĸ ãĤ¿ãĥ¼
ãĤŃãĤ¯ ãĥĥãĥĦãĤ¡ãĥ¼ãĥ³
ãĥ³ ãĤ·
ãĥ³ ãĥĸ
ãĥ³ ãĥĹ
ãĥ³ ãĤ¿ãĥ¼
ãĥ³ ãĥĸãĤ·
ãĥ³ ãĤ±ãĥ¼ãĥª
ãĥ¼ãĥ Ĵ
ãĤ· ãĥĬãĤ«
ãĤ· ãĥŀãĥ¼
ãĤ· ãĥŀãĥª
ãĤ· ãĥĲãĥ©
ãĤ· ãĥĪãĤ¥ãĥ«
ãĤ· ãĥĪãĤ¥ãĥłãĥĨãĤ£
ãĤ« ãĤ®
ãĤ« ãĤ·ãĤŃ
ãĤ« ãĥ¼ãĥĮ
ãĤ« ãĥ¼ãĥķ
ãĤ« ãĥŀãĥ¼
ãĤ« ãĥ¼ãĥĢ
ãĤ« ãĤ·ãĥ©
ãĤ« ãĥĪãĥ³
ãĤ« ãĤ®ãĥ³
ãĤ¤ ãĤ¹
ãĤ¤ ãĥĭ
ãĤ¤ ãĤ¶
ãĤ¤ ãĥ¼ãĥ«
ãĤ¤ ãĥ¼ãĤ·
ãĤ¤ ãĥĬãĤ«
ãĤ¤ ãĤ·ãĤ¥ãĤ«
ãĤ¤ ãĥĥãĤ¹
ãĤ¤ ãĥĥãĥĪãĤ¥
ãĥ« ãĤ¤
ãĤŃ ãĥĢ
ãĤŃ ãĥīãĤ¥
ãĤŃ ãĥ¼ãĥĢ
ãĤŃ ãĤµãĤ¹ãĥ³
ãĤŃ ãĤ·ãĤŃãĥ³
ãĤ¹ ãĥĮ
ãĤ¹ ãĥ«ãĥ³
ãĤ¹ ãĤ«ãĥ¼
ãĤ¹ ãĥ¼ãĥģ
ãĥĬ ãĥīãĤ¥
ãĥĬ ãĥªãĥ«ãĥ³
ãĥĬ ãĤµãĥ¼
ãĥĬ ãĤ±ãĥ¼
ãĥĬ ãĤ¯ãĥ©
ãĥĬ ãĥĥãĥģãĥ³
ãĤ¯ ãĥ¼ãĥª
ãĤ¯ ãĥªãĥ«ãĥ³
ãĤ¯ ãĤ¬ãĥ«ãĥ³
ãĤ¯ ãĤ¬ãĥªãĥ«ãĥ³
ãĤ¯ ãĥīãĤ¥ãĤŃ
ãĥŀ ãĤ¶
ãĥŀ ãĤ®
ãĥŀ ãĥªãĥ³
ãĥŀ ãĥ¼ãĥĳ
ãĥŀ ãĤ¿ãĤ«
ãĥŀ ãĥĸãĥ«
ãĤ¿ ãĥª
ãĤ¿ ãĥ¤
ãĤ¿ ãĤ«ãĥ©
ãĤ¿ ãĥŁãĥ«ãĥ³
ãĤ¿ ãĥ¼ãĥģ
ãĥĮ ãĤŃãĥ³
ãĥĮ ãĤ¦ãĤ¿
ãĥĮ ãĤ«ãĤ·
ãĥĮ ãĤŃãĥłãĥĮ
ãĥĮ ãĥĸãĥª
ãĥĮ ãĥĵãĥ³
ãĥĮ ãĤºãĥŁ
ãĥĳ ãĥĲ
ãĥĳ ãĥ¼ãĥ³
ãĥĳ ãĥ¼ãĥĮ
ãĥĳ ãĥªãĥ«ãĥ³
ãĥĳ ãĥ¼ãĥłãĥģ
ãĤ¦ ãĥ¼ãĤ·
ãĤ¦ ãĤµãĥ³
ãĤ¦ ãĥĦãĤ¡
ãĤ¦ ãĥĬãĥ¼
ãĤ¦ ãĤŃãĥ³
ãĤ¦ ãĥ¼ãĥŁ
ãĤ¦ ãĥ©ãĤ·
ãĤ¦ ãĥ¢
ãĤ¦ ãĤµãĤ¤
ãĤ¦ ãĥ¼ãĥłãĥ³
ãĤ¦ ãĤ³ãĥ¼ãĤ¹ãĥ³
ãĤµ ãĤ¯ãĥ³
ãĤµ ãĥĬãĤ¤
ãĤµ ãĥŀãĥ«ãĥ³
ãĥł ãĤµ
ãĥł ãĥ«ãĥ³
ãĥł ãĥĩãĤ£
ãĥł ãĥ¬ãĥ¼
ãĥĪ ãĥ¼ãĥ©
ãĥĥ ãĥĳãĥ«ãĥ³
ãĥĥ ãĤ«ãĤ¤ãĥ«ãĥ³
ãĥĥ ãĤ³ãĥ¼ãĤ¹ãĥ³
ãĤ¢ ãĤ¯ãĥ³
ãĤ¢ ãĤ¦ãĤ·
ãĤ¢ ãĥ¢
ãĥĪãĤ¥ ãĤ¯ãĥ³
ãĥĪãĤ¥ ãĥ¼ãĤ¸
ãĥĲ ãĤµãĥ³
ãĥĲ ãĥ¼ãĥĲãĥ¼
ãĥŁ ãĥ¼ãĥ³
ãĥŁ ãĥ¼ãĥŁ
ãĥŁ ãĥ¼ãĤ·ãĤŃ
ãĥŁ ãĥĦãĥ³
ãĥŁ ãĥ¼ãĥĥãĤ¹ãĥ³
ãĥ¤ ãĥ«ãĥ³
ãĥ¤ ãĥ¼ãĤ¹ãĥ³
ãĥ¤ ãĥ¼ãĥĥ
ãĥ¤ ãĥ¼ãĥłãĥĨãĤ£
ãĥ¤ ãĥĸãĥ«ãĥ³
ãĥ¤ ãĥĲãĥ¼ãĥ³
ãĥĭ ãĥĲãĤ¹ãĥ³
ãĤ¸ ãĤŃ
ãĤ¸ ãĥĥãĥģ
ãĤ¬ ãĥŁ
ãĤ¬ ãĤ¸
ãĤ¬ ãĥ¼ãĤ·
ãĤ¬ ãĥªãĥ³
ãĤ¬ ãĥ¼ãĥĳ
ãĤ¬ ãĤ«ãĥª
ãĤ¬ ãĥķãĥ¼
ãĤ¬ ãĥ³ãĤ¬ãĥ³
ãĥķ ãĤ·ãĤŃ
ãĥķ ãĤ«ãĥ¼
ãĥķ ãĤ¸ãĥ«ãĥ³
ãĥĶ ãĤ¶
ãĥĶ ãĥĥãĤ¯ãĥ³
ãĥĸ ãĥĬãĥ«
ãĥĸ ãĤµãĥ¼ãĥ©
ãĥĢ ãĥĬ
ãĥĢ ãĥ¼ãĤ·
ãĥĢ ãĤ¯ãĥ³
ãĥĢ ãĥ¤ãĥ¼
ãĥĢ ãĥ¼ãĥĥãĤµãĥ³
ãĥĵ ãĤ·ãĥ«ãĥ³
ãĥĨãĤ£ ãĥ¼ãĥ³
ãĥĨãĤ£ ãĥ³ãĤ¬
ãĥĨãĤ£ ãĥ¼ãĥĥ
ãĥĨãĤ£ ãĥ¼ãĥĢ
ãĥĨãĤ£ ãĥ¼ãĤ·ãĤ¥
ãĤ° ãĥł
ãĤ° ãĥŁ
ãĤ° ãĤ¹ãĥ³
ãĤ° ãĥ³ãĤ¬ãĥģ
ãĤ° ãĥŃãĥ¼ãĥ³
ãĤ¶ ãĤ³ãĥ¼
ãĤ¶ ãĥŀãĥ³
ãĥ¼ãĥ³ ãĥĨãĤ£
ãĥ¼ãĥ« ãĥ¼
ãĥīãĤ¥ ãĤ¹ãĥ³
ãĥ¦ ãĤ·
ãĥ¦ ãĥ¼ãĥĮ
ãĥ¦ ãĥ¼ãĥª
ãĥ¦ ãĥ©ãĤ¹ãĥ³
ãĥ¦ ãĥĢãĥ«
ãĥ¦ ãĤ¯ãĤ·
ãĥ¦ ãĥ¼ãĥīãĤ¥
ãĥłãĥĮ ãĥĥãģµãĤ¡ãĤ¤
ãĥĦ ãĥ«ãĥ³
ãĤ® ãĥ¥ãĥ¼
ãĤº ãĥª
ãĤº ãĥ³ãĤ°
ãĤº ãĥ«ãĤ¤
ãĤ³ ãĥ¼ãĥ¤ãĤ¯
ãĥĹãĤ¹ ãĥĮ
ãĥ³ãĤ¬ ãĥĬãĤ·
ãĤ¦ãĥ³ ãĤŃ
ãĤ½ ãĥ³
ãĥĥãģµãĤ¡ ãĥ¼ãĥŀ
ãĥĥãģµãĤ¡ ãĥ¼ãĥªãĥ³
ãĥŀãĤ¤ ãĥķãĥĬãĥ¼
ãĥ¼ãĥĬ ãĤŃ
ãĥĲãĤ¿ ãĥĥãģµãĤ¡
ãĥ¼ãĥł ãĤ¹
ãĤ¹ãĤ¯ ãĥĮ
ãĤ¹ãĤ¯ ãĥĥãĥģ
ãĥĥãĤµ ãĥĮ
ãĤ± ãĥ¼ãĤ¹ãĥ³
ãĤ·ãĤ¥ ãĤ¯ãĥ³
ãĤ«ãĥ¼ ãĤ¸
ãĥĸãĥ³ ãĤ®
ãĤ·ãĥ³ ãĤ®
ãĤ·ãĥ³ ãĤ«ãĤ¤ãĤ·ãĥ³
ãĥĶãĤŃ ãĥłãĥĮ
ãĤ´ ãĥ¼ãĥĥãģµãĤ¡
ãĤ«ãĥ³ ãĥĬãĥ¼ãĥ«
ãĥ¼ãĤŃ ãĥ«ãĥ³
ãĥ¼ãĥķ ãĥ¼
ãĥĪãĤ¥ãĥ³ ãĤ±ãĥ¼ãĥª
ãĥĲãĤ« ãĤ·
ãĥ¤ãĥŀ ãĥ³ãĤ°
ãĥ³ãĥĢ ãĥ©
ãĥ³ãĥĢ ãĥĨãĤ£
ãĥĩãĤ£ ãĥ¼
ãĥĩãĤ£ ãĥ³
ãĥ¯ ãĥ¼ãĥĲ
ãĤ«ãĤ¸ ãĥŀãĥ¼ãĥ«
ãĥ¼ãĥĳ ãĥĬ
ãĤª ãĥ¼ãĤ·
ãĤª ãĥ¼ãĥ«ãĥ³
ãĤª ãĥ¼ãĥĬ
ãĥ¼ãĥĲ ãĥª
ãĤ¦ãĤ¤ ãĥĵ
ãĥľ ãĥ¼ãĤ¸
ãĤ·ãĥ¼ ãĤ°
ãĥ¼ãĥŁ ãĥ«ãĥ³
ãĥĥãĤ¹ ãĥ«
ãĤ¢ãĤ¤ ãĤ·ãĥ³ãĤ«ãĤ¤ãĤ·ãĥ³
ãĤ¯ãĤ¤ ãĥģ
ãĥ¼ãĥĭ ãĥ¼
ãĤ·ãĥŀ ãĥģ
ãĥĳãĥ¤ ãĤ·
ãĥĬãĤ¬ ãĥ¼
ãĥĻ ãĥ¼ãĥŀ
ãĤ¯ãĥ« ãĥ¼
ãĥ¼ãĥĢ ãĥĭ
ãĥĳãĥĢ ãĤ«
ãĥĳãĥĢ ãĥ©
ãĥ¼ãĥĪãĤ¥ ãĥ«
ãĥĶãĤµ ãĤ¤ãĤº
ãĥ¼ãĥĶ ãĥ¼ãĥģ
ãĥŀãĥģ ãĤ¬ãĤ¤
ãĥķãĤ¯ ãĥ©
ãĥķãĤ¯ ãĥ©ãĤ¹ãĥ³
ãĤ¤ãĥģ ãĥķ
ãĤ¿ãĤ¤ ãĥ©
ãĤ¿ãĤ¤ ãĥ¯ãĥ³
ãĥĬãĥ© ãĤ¦ãĥ³
ãĤ«ãĥĬ ãĤ¦ãĥ³
ãĤ«ãĥĬ ãĥĳãĤ¤
ãĥĳãĤ¸ ãĥŁãĥ«ãĥ³
ãĥĽ ãĥ¼ãĤ·
ãĥĽ ãĥ¼ãĤ¹ãĥ³
ãĥĪãĤ¥ãĥł ãĥ«
ãĤ·ãĤ¥ãĤ«ãĤ¤ ãĥ«ãĥ³
ãĤ¶ãĥ© ãĥ³
ãĥĵãĤŃ ãĥ«
ãĥ¡ãĥ¼ ãĤ¯
ãĥĮãĤ· ãĥ¼ãĥłãĥĮ
ãĤ¦ãĤŃ ãĥĬ
ãĥ¼ãĥī ãĥ¼ãĥª
ãĤ·ãĥĪãĤ¥ ãĥŁ
ãĤ¤ãĥ© ãĤŃ
ãĤ¬ãĥŀ ãĥ¼ãĥ©ãĤµãĥ³
ãĤ¹ãĥĸãĥ« ãĥ¤ãĥ³
ãĥĪãĤ¥ãĥ© ãĥªãĥ³
ãĤ¿ãĤ¿ ãĥĥãĤ¯ãĥ³
ãĤ¦ãĤµ ãĥ¼ãĤ¹ãĥ³
ãĤ² ãĥ©
ãĤ² ãĥ¼ãĥ«ãĥ³
ãĥŀãĥ© ãĤŃ
ãĤ¢ãĥĦãĤ¡ ãĥ³
ãĤ¯ãĥģ ãĤµ
ãĤ°ãĥ® ãĥģ
ãĤ·ãĤ§ ãĥ³
ãĤ¦ãĥ© ãĤ¶
ãĤ¦ãĥĪãĤ¥ ãĤ¶
ãĤ¦ãĥ³ãĥĮ ãĤ·ãĥ«
ãĥĮãĤŃ ãĥ«
ãĥĪãĤ¥ãĥ¼ ãĤµ
ãĤ³ãĥ¼ãĥ© ãĤ·
ãĥĥãĤ± ãĥ¼ãĥ©ãĤ¹ãĥ³
ãĤ·ãĥĲãĥ« ãĥĮ
ãĥĲãĥĥ ãĥĳãĤ¤
ãĤ¢ãĥ³ãĤ¬ ãĥŀ
ãĤ¢ãĥ³ãĤ¬ ãĥª
ãĤ¬ãĥĥ ãĤ³
ãĤ¬ãĥĥ ãĥĨãĤ£ãĥ³
ãĥ¦ãĥ¼ãĤ· ãĥ«ãĥ³
ãĥ¼ãĥĩãĤ£ ãĥŀãĥª
ãĥĬãĤ¦ ãĥ«ãĥ³
ãĥ¤ãĥĥ ãĤ³ãĥ³
ãĤ¿ãĥľ ãĥ¼ãĥ©ãĥªãĥ³
ãĥ¼ãĥ¡ ãĥ¼
ãĥ¼ãĥ¢ ãĥ¼
ãĥĳãĤ«ãĥ© ãĤ¦ãĥ³
ãĥĳãĤ¶ ãĤ¯ãĥ³
ãĥ£ãĥ³ãĥĹ ãĥ«ãĥ¼
ãĥĬãĤ¯ãĥ© ãĥ¼ãĥ³
ãĥ³ ãĥīãĤ¥
ãĥ³ ãĥĦãĤ¡
ãĥ³ ãĥĬãĥ©ãĥĮ
ãĥ³ ãĤ¶ãĤ·
ãĥ³ ãĥ¡ãĥ¼ãĥŀ
ãĤ· ãĥ¼ãĥ©
ãĤ· ãĥ¼ãĥŀ
ãĤ· ãĥĬãĤ¤
ãĤ· ãĥ¥
ãĤ· ãĥ§
ãĤ· ãĥĢãĥ«
ãĤ· ãĥĥãĤŃ
ãĤ« ãĤ³ãĥ¼
ãĤ« ãĥ¼ãĥģ
ãĤ« ãĤ«ãĥ«
ãĤ« ãĤ¦ãĥª
ãĤ« ãĥ¼ãĤ·ãĤŃ
ãĤ« ãĤ®ãĥª
ãĤ« ãĤ«ãĥ©ãĥ¼
ãĤ« ãĥ¼ãĥķãĤŃ
ãĤ¤ ãĥŀ
ãĤ¤ ãĤ·ãĤ¥
ãĤ¤ ãĥ¼ãĥĳ
ãĤ¤ ãĤ¸ãĥ³
ãĤ¤ ãĥĲãĤ¤
ãĤ¤ ãĥĪãĤ¥ãĥŀ
ãĤ¤ ãĤ½ãĥ¼ãĤ·
ãĤ¤ ãĤŃãĥłãĤ·
ãĥ« ãĥ¼ãĤ·
ãĤŃ ãĥ¼ãĥ«
ãĤŃ ãĥ¼ãĤ·
ãĤŃ ãĥ£
ãĤŃ ãĤ·ãĥ«
ãĤŃ ãĥ¼ãĥĹ
ãĤŃ ãĥ£ãĥ¼ãĥ³
ãĤŃ ãĥľãĥ¼ãĤ·
ãĤ¹ ãĥ¼ãĥĶ
ãĤ¹ ãĥ¼ãĤ·ãĤŃ
ãĥĬ ãĤµ
ãĥĬ ãĥĸ
ãĥĬ ãĥ¼ãĤ¹ãĥ³
ãĥĬ ãĤµãĥ³
ãĥĬ ãĥ¼ãĥ¤
ãĥĬ ãĥ¼ãĥĲ
ãĥĬ ãĥªãĥłãĥĮ
ãĥĬ ãĥ©ãĤ·
ãĥĬ ãĥ¼ãĥ©ãĤ¹ãĥ³
ãĥĬ ãĥ¼ãĥ¬ãĥ¼
ãĥĬ ãĤ¦ãĥª
ãĥĬ ãĥ¼ãĤ·ãĤŃ
ãĥĬ ãĤµãĤ¹ãĥ³
ãĥĬ ãĥĸãĥ©
ãĥĬ ãĥ³ãĤ°ãĥ³
ãĥĬ ãĥ¼ãĥĿ
ãĥĬ ãĥ¼ãĥīãĥ¼ãĥª
ãĤ¯ ãĤ¯
ãĤ¯ ãĤ¹ãĥ³
ãĤ¯ ãĥĸãĥ³
ãĤ¯ ãĤ¯ãĥĮ
ãĤ¯ ãĥĭãĥģ
ãĤ¯ ãĥ¡ãĥ¼ãĥĮ
ãĥŀ ãĥ¼ãĥŀ
ãĥŀ ãĥ¤ãĥ¼
ãĥŀ ãĥĬãĥ¼
ãĥŀ ãĤ«ãĤ¹ãĥ³
ãĥŀ ãĥ¼ãĥĭ
ãĥŀ ãĥ¼ãĥĢ
ãĥŀ ãĥ¼ãĥ¬ãĥ¼
ãĤ¿ ãĥĥ
ãĤ¿ ãĥĲ
ãĤ¿ ãĥŁ
ãĤ¿ ãĥĢ
ãĤ¿ ãĥ¼ãĤ·
ãĤ¿ ãĥ¼ãĥĬ
ãĤ¿ ãĥ³ãĤ°
ãĤ¿ ãĤ¹ãĤ¯ãĥ³
ãĤ¿ ãĤ¤ãĥ«ãĥ³
ãĤ¿ ãĤ¿ãĤ«
ãĤ¿ ãĤ·ãĤ«
ãĤ¿ ãĤ¯ãĥŀ
ãĤ¿ ãĥŁãĤ·
ãĥĮ ãĤ¯
ãĥĮ ãĥĸ
ãĥĮ ãĤµãĥ³
ãĥĮ ãĥłãĥ³
ãĥĮ ãĥĲãĤ¿
ãĥĮ ãĥĥãĤµ
ãĥĮ ãĤ¹ãĤ¯ãĥ³
ãĥĮ ãĥ¼ãĥĨ
ãĥĮ ãĥĥãĥĦãĤ¡
ãĥĮ ãĥķãĤ¿
ãĥĮ ãĤ¯ãĤ¤
ãĥĮ ãĤ¢ãĥ³
ãĥĮ ãĤ®ãĥ«ãĥ³
ãĥĮ ãĤ·ãĤŃãĥ«ãĥ³
ãĥĮ ãĤ°ãĥ³
ãĥĮ ãĥ¼ãĥ¦
ãĥĮ ãĥ¼ãĥ¤ãĥ¼
ãĥĮ ãĤ¶ãĤŃ
ãĥĮ ãĤ¦ãĥĩãĤ£
ãĥĮ ãĥĥãģµãĥ³
ãĥĮ ãĥ¼ãĥĶãĥ¼
ãĥĳ ãĥ³ãĤ¬
ãĥĳ ãĥ¤ãĥ¼
ãĥĳ ãĤ´
ãĥĳ ãĥ¼ãĥ¤
ãĥĳ ãĤ¹ãĤ¯ãĥ³
ãĥĳ ãĤ¤ãĥ«ãĥ³
ãĥĳ ãĥĥãĥģ
ãĥĳ ãĥ¼ãĥĪãĤ¥
ãĥĳ ãĤ·ãĥ«
ãĥĳ ãĥ©ãĥ¼
ãĥĳ ãĤºãĥ³
ãĥĳ ãĤ«ãĥ«ãĥ³
ãĥĳ ãĥŀãĥ³
ãĥĳ ãĥĨãĤ£ãĥ«ãĥ³
ãĥĳ ãĥ¼ãĥ¬ãĥ¼
ãĥĳ ãĤ¬ãĤ¹ãĥ³
ãĥĳ ãĥįãĥ¼
ãĥĳ ãĥĥãĥĹ
ãĤ¦ ãĤ¸
ãĤ¦ ãĤ¬
ãĤ¦ ãĤ·ãĤŃ
ãĤ¦ ãĤ«ãĥ¼
ãĤ¦ ãĥĪãĤ¥ãĤ·
ãĤ¦ ãĥĨãĤ£ãĥ«ãĥ³
ãĤµ ãĥŀ
ãĤµ ãĤ«ãĤ¤
ãĤµ ãĤ¤ãĥ«ãĥ³
ãĤµ ãĥªãĥ«ãĥ³
ãĤµ ãĤ«ãĥª
ãĤµ ãĤ¯ãĤ·
ãĤµ ãĤ¿ãĤ¿
ãĤµ ãĤ¬ãĥª
ãĥł ãĥ¼ãĤ¸
ãĥł ãĥ¬
ãĥł ãĥŁãĥ³
ãĥł ãĤ¿ãĤ¤
ãĥł ãĥīãĤ¥ãĤ·
ãĥł ãĥİãĥ¼
ãĥł ãĤ¹ãĥĵ
ãĥ© ãĥ¼ãĤ·
ãĥ© ãĥ¼ãĥŀ
ãĥ© ãĥ©ãĥĮ
ãĥ© ãĤ«ãĥĦãĤ¡
ãĥĪ ãĥ¼ãĥ³
ãĥĪ ãĥ¼ãĥª
ãĥĪ ãĥ¼ãĥªãĥłãĥĮ
ãĥĥ ãĤ«ãĥ©
ãĥĥ ãĥĳãĤ¤
ãĥĥ ãĥĨãĤ£ãĥ³
ãĥĥ ãĥĿãĥ¼
ãĤ¢ ãĥĪãĤ¥ãĥ³
ãĤ¢ ãĥĥãĤ¯
ãĤ¢ ãĤ¤ãĤ·
ãĤ¢ ãĤ¦ãĤ¿
ãĤ¢ ãĥĨãĤ£ãĥ«ãĥ³
ãĤ¢ ãĤ«ãĥŀ
ãĤ¢ ãĥ³ãĤ°ãĥ³
ãĤ¢ ãĤ·ãĤ¥ãĤ«ãĤ¦ãĥ³
ãĥª ãĥ§
ãĥª ãĥ¥ãĥ¼
ãĥĪãĤ¥ ãĥŁ
ãĥĪãĤ¥ ãĥĭ
ãĥĪãĤ¥ ãĥ¦
ãĥĪãĤ¥ ãĥĸãĥ³
ãĥĪãĤ¥ ãĥĥãĤ«
ãĥĪãĤ¥ ãĤ·ãĥŀ
ãĥĪãĤ¥ ãĤ¯ãĥ«
ãĥĪãĤ¥ ãĥīãĤ¥ãĥ«
ãĥĪãĤ¥ ãĤ·ãĥĵ
ãĥĪãĤ¥ ãĥ¬ãĥ¼
ãĥĪãĤ¥ ãĤºãĥŁ
ãĥĪãĤ¥ ãĥĲãĤ·
ãĥĪãĤ¥ ãĥ¼ãĥĶãĥ¼ãĥģ
ãĥĲ ãĤ¹
ãĥĲ ãĥĦãĤ¡
ãĥĲ ãĤ³
ãĥĲ ãĤ«ãĤ¤
ãĥĲ ãĥ¤ãĥ¼
ãĥĲ ãĥĥãĤ¯
ãĥĲ ãĤ¹ãĥĲ
ãĥĲ ãĤ±ãĥ¼ãĥ©
ãĥĲ ãĤµãĥ¼ãĤ®
ãĥŁ ãĤµ
ãĥŁ ãĥ¼ãĤ·
ãĥŁ ãĤµãĥ³
ãĥŁ ãĥ¼ãĤ·ãĤ¥
ãĥ¤ ãĤ«
ãĥ¤ ãĥ«
ãĥ¤ ãĤ«ãĤ¿
ãĥ¤ ãĥĸãĥ³
ãĥ¤ ãĥĬãĥ³
ãĥ¤ ãĤ³ãĥ³
ãĥ¤ ãĥ¼ãĥķãĤŃ
ãĥĭ ãĤ«
ãĥĭ ãĤ¹
ãĥĭ ãĥĸãĥ³
ãĥĭ ãĥĥãĤ«
ãĥĭ ãĥ¼ãĥĹ
ãĥĭ ãĤ·ãĤ§
ãĥĭ ãĤ¸ãĥ¥ãĥ¼
ãĥĭ ãĥ¼ãĤ¸ãĥ«
ãĥĭ ãĤ¬ãĤ¦ãĥ³
ãĥĭ ãĥ¼ãĥĵãĤŃ
ãĤ¸ ãĥ¼ãĥĮ
ãĤ¸ ãĥ£
ãĤ¬ ãĤ·
ãĤ¬ ãĥĲ
ãĤ¬ ãĥ¼ãĥ³
ãĤ¬ ãĥªãĥłãĥĮ
ãĤ¬ ãĥ¬ãĥ¼
ãĥķ ãĥ¼ãĥĮ
ãĥķ ãĤ¯ãĤ¤
ãĥķ ãĤ«ãĤ¤ãĥ«ãĥ³
ãĥķ ãĤ³ãĥ¼ãĥ³
ãĥķ ãĤ³ãĥ¼ãĥ©
ãĥĶ ãĥŀ
ãĥĶ ãĤ¹ãĥ³
ãĥĶ ãĥ¼ãĥ³
ãĥĶ ãĥ¼ãĥ«ãĥ³
ãĥĶ ãĤ«ãĤ¤
ãĥĶ ãĤ½
ãĥĶ ãĥ¼ãĤŃ
ãĥĶ ãĥ¼ãĤ¸
ãĥĶ ãĤ«ãĤ·
ãĥĶ ãĥ¼ãĤ·ãĤŃ
ãĥĶ ãĥĬãĥ«ãĥ³
ãĥĶ ãĥĶãĥ«
ãĥĶ ãĥ¼ãĤ·ãĤ¥
ãĥĶ ãĤ½ãĥ¼ãĥ³
ãĥĶ ãĥ¼ãĥĶãĥ¼
ãĥĸ ãĥ¼ãĥĮ
ãĥĸ ãĥĮãĥ³
ãĥĸ ãĤ¶ãĥŀ
ãĥĨ ãĥ³
ãĥĨ ãĤ¤
ãĥĨ ãĤ¤ãĥ¼
ãĥĢ ãĥĥãģµãĤ¡
ãĥĢ ãĥĥãĤ«
ãĥĵ ãĤ·
ãĥĵ ãĥ«
ãĥĵ ãĥ¼ãĥ«ãĥ³
ãĥĵ ãĥ³ãĤ°
ãĥĵ ãĥªãĥ³
ãĥĵ ãĤ±ãĥ¼
ãĤ° ãĥĸ
ãĤ° ãĥŀãĥ¼
ãĤ° ãĥŀãĥª
ãĤ° ãĤ¯ãĥ«
ãĤ° ãĤ¹ãĤ¤
ãĤ° ãĥ¼ãĥĳãĥ³
ãĤ¶ ãĤ«
ãĤ¶ ãĥ©ãĤ¤
ãĤ¶ ãĥĥãĥĪãĤ¥
ãĥī ãĥ¼ãĤ·
ãĥī ãĥ¼ãĥķ
ãĥīãĤ¥ ãĥ¼ãĥ³
ãĥīãĤ¥ ãĥ¼ãĥŀ
ãĥīãĤ¥ ãĥŁãĥ³
ãĥīãĤ¥ ãĥ¼ãĥ¦
ãĥīãĤ¥ ãĥ¼ãĥ¦ãĥ¼
ãĥīãĤ¥ ãĥ¼ãĥĸãĥĭ
ãĥīãĤ¥ ãĥŀãĥ³ãĤ°
ãĥ¼ãĤ· ãĤ«ãĥ¼ãĤ·
ãĥ¦ ãĤ¿
ãĥ¦ ãĥĵ
ãĥ¦ ãĤ¯ãĥ³
ãĥ¦ ãĥ©ãĤ¤
ãĥ¦ ãĥ¼ãĥķ
ãĥ¦ ãĥĩãĤ£
ãĥ¦ ãĥ¼ãĥĨãĤ£
ãĥ¦ ãĤ°ãĥª
ãĥ¦ ãĥķãĤ¡
ãĤ¯ãĥ³ ãĥĦãĤ¡ãĥ¼
ãĤ¯ãĥ³ ãĤ¬ãĥģ
ãĥĦ ãĥ«
ãĥĹ ãĤµ
ãĥĹ ãĥ«ãĥ³
ãĤ® ãĤ¿
ãĤ® ãĥ¼ãĤ·
ãĤ® ãĤ·ãĥŁ
ãĤ® ãĥ£ãĥ³
ãĤ·ãĤŃ ãĥĭ
ãĥ¼ãĥŀ ãĥ¼
ãĥ¼ãĥŀ ãĥ³
ãĥ¼ãĥŀ ãĥ«ãĥ³
ãĤº ãĥ³ãĤ¬ãĥģ
ãĤµãĥ³ ãĤ°
ãĥĦãĤ¡ ãĥ¼ãĥ³
ãĥĦãĤ¡ ãĥ¼ãĥ«ãĥ³
ãĤ³ ãĥ¼ãĥ¬ãĥ¼
ãĥĥãģµ ãĤ©
ãĥĹãĤ¹ ãĤ±ãĥ³
ãĤ«ãĤ¤ ãĥ¼
ãĥ³ãĤ¬ ãĤŃ
ãĥ³ãĤ¬ ãĤ¤ãĤ·
ãĤ½ ãĥ¼ãĥ©
ãĤ½ ãĥ¼ãĥĳ
ãĥĳãĥĬ ãĤ¤
ãĥĳãĥĬ ãĥĸãĥ¼
ãĥĳãĥĬ ãĥ¼ãĥªãĥ«ãĥ³
ãĥĳãĥ³ ãĥĭãĥ³
ãĥĳãĥ³ ãĥĵãĥ³
ãĥĳãĥ³ ãĤ·ãĤŃãĥ©ãĥªãĥ³
ãĥĳãĥ³ ãĤ¯ãĥªãĥ«ãĥ³
ãĥŀãĤ¤ ãĥ«
ãĥŀãĤ¤ ãĥĬãĥĵ
ãĥĬãĤ« ãĥŀ
ãĥĬãĤ« ãĤ¶
ãĥĬãĤ« ãĥĬãĤ«
ãĥĬãĤ« ãĥŁãĥ¼
ãĥĬãĤ« ãĥĩãĤ£
ãĥĬãĤ« ãĤ°ãĥ«
ãĥĬãĤ« ãĥĪãĤ¥ãĥ«ãĥ³
ãĥĬãĤ« ãĤ¸ãĥ«
ãĥĬãĤ« ãĥİãĥ¼ãĥª
ãĥĬãĤ« ãĤ·ãĤ±ãĥ¼
ãĥĬãĤ« ãĤ°ãĥ¼
ãĥ¼ãĥĬ ãĥ¼ãĥ«ãĥ³
ãĥ¼ãĥĬ ãĥ©ãĤ¤
ãĥĲãĤ¿ ãĥ«ãĥ³
ãĥĲãĤ¿ ãĥŁãĥģ
ãĥĲãĤ¿ ãĤ¤ãĥª
ãĥĲãĤ¿ ãĥķãĤ¯ãĥ«
ãĥĲãĤ¿ ãĤ«ãĥŃãĥ¼ãĥ³
ãĥ¼ãĥł ãĤ·
ãĥ¨ ãĥ¼ãĥª
ãĥ¨ ãĥ¼ãĥĬ
ãĥ¨ ãĥ¼ãĥģ
ãĥĬãĥŀ ãĥ©ãĤ¹ãĥ³
ãĥĬãĥŀ ãĥĳãĥ¼
ãĥĬãĥŀ ãĤ¶ãĥª
ãĥĬãĥ¼ ãĤµ
ãĤ«ãĥ© ãĤ¤
ãĤ«ãĥ© ãĤ¹ãĥ³
ãĤ«ãĥ© ãĥłãĥ³
ãĤ«ãĥ© ãĤ¦ãĥ³
ãĤ·ãĥ³ ãĥĢãĤ¤
ãĤ·ãĥ³ ãĤ¸ãĥ«ãĥ³
ãĥĶãĤŃ ãĤ¹ãĤ¯ãĥ³
ãĥĶãĤŃ ãĤ·ãĤŃãĥ«ãĥ³
ãĥĶãĤŃ ãĤ¹ãĥ¼
ãĥĶãĤŃ ãĥķãĥģãĥ«
ãĥĶãĤŃ ãĥŀãĥ¼ãĤ¹ãĥ³
ãĥĶãĤŃ ãĤ¹ãĥ¼ãĥ«ãĥ³
ãĥĶãĤŃ ãĤµãĥ¼ãĥ«ãĥ³
ãĥĶãĤŃ ãĥłãĤ¿
ãĥĶãĤŃ ãĤ¯ãĥŀãĥ«ãĥ³
ãĥĶãĤŃ ãĥĥãĥĪãĥ¼ãĥ«ãĥ³
ãĥĶãĤŃ ãĥ³ãĥĬãĥ©ãĥĮ
ãĤ´ ãĥ¼ãĥ³
ãĤ´ ãĥ¼ãĥ©ãĥ¼ãĥ³
ãĥ¼ãĥĥ ãĤ¿ãĥĵ
ãĤ«ãĥ³ ãĤ¶
ãĥĪãĤ¥ãĥª ãĥĹãĤ¹
ãĥĪãĤ¥ãĥª ãĥŀãĤ¤
ãĥĪãĤ¥ãĥª ãĥŁãĥ¼
ãĥĪãĤ¥ãĥª ãĤ¤ãĥª
ãĥĪãĤ¥ãĥª ãĤ¢ãĥĦãĤ¡
ãĥĪãĤ¥ãĥª ãĥ¼ãĥĪãĤ¥ãĥª
ãĥĪãĤ¥ãĥª ãĤ«ãĤµãĥłãĥ³
ãĥ¼ãĤŃ ãĤ·ãĥ«ãĥ³
ãĥ¼ãĥķ ãĤ¯
ãĥ¼ãĥķ ãĥģ
ãĥ¼ãĥķ ãĤ¯ãĥ«
ãĥĪãĤ¥ãĥ³ ãĥĬ
ãĥĲãĤ« ãĥ«ãĥ³
ãĥĲãĤ« ãĥ¤
ãĥĲãĤ« ãĥªãĥ«ãĥ³
ãĥĲãĤ« ãĤ¸ãĥ©
ãĥĲãĤ« ãĥ¤ãĤ¹ãĥ³
ãĥĬãĤ¤ ãĥģ
ãĥĬãĤ¤ ãĤ·ãĥŀãĥ¼
ãĤŃãĥł ãĥĭ
ãĤŃãĥł ãĤ¤ãĥĦãĤ¡
ãĥ¤ãĥŀ ãĥĮ
ãĤ¦ãĥĸ ãĤ¤ãĤ·
ãĤ¾ ãĥ³ãĤ¬ãĥĭ
ãĥ³ãĥĢ ãĥ¼
ãĥĩãĤ£ ãĤŃ
ãĥŀãĥ¼ ãĤµ
ãĥŀãĥ¼ ãĤµãĥ¼
ãĥŀãĥ¼ ãĤºãĥ³
ãĥ¯ ãĥ¼
ãĥ¯ ãĥ©
ãĥ¯ ãĥģ
ãĤŃãĥ³ ãĥĮ
ãĥĥãĤ¯ ãĥ©
ãĥĭãĥ³ ãĤ´
ãĥĭãĥ³ ãĤ´ãĥ¼
ãĥĭãĥ³ ãĤ®ãĥ³
ãĤ«ãĤ¸ ãĥŀãĥ¼ãĥ«ãĥ³
ãĥĲãĥ³ ãĥģ
ãĥĲãĥ³ ãĤ¸ãĥ³
ãĥĲãĥ³ ãĤ¹ãĥ«
ãĥĲãĥ³ ãĥīãĥ¼
ãĥĲãĥ³ ãĤ¾ãĥ³ãĤ¬ãĥĭ
ãĤ¢ãĤ¬ ãĥ¤ãĥ¼
ãĥ§ ãĥ¼ãĥĢãĤ¤
ãĥ§ ãĥ¼ãĥ«ãĥ¼
ãĤª ãĥ¼ãĥ³
ãĥ¼ãĥĸ ãĤ¤
ãĥ¬ ãĥ¼ãĥ³
ãĥı ãĤ¯ãĤ¸
ãĥı ãĥ¼ãĥı
ãĥ¼ãĥĲ ãĥ¼ãĤŃ
ãĥĳãĥ¼ ãĤ«ãĥłãĥ³
ãĥĳãĥ¼ ãĤ«ãĤ¦ãĥ¯ãĥ³
ãĥĳãĥ¼ ãĤ®ãĤ·ãĥŁ
ãĤ¦ãĤ¤ ãĥĮ
ãĤ¦ãĤ¤ ãĥĹãĤ¹
ãĤ¦ãĤ¤ ãĥĢãĥ«
ãĤ¦ãĤ¤ ãĥĬãĥ«ãĥ³
ãĥľ ãĥ³
ãĥľ ãĥ¼ãĥĢ
ãĥľ ãĥ¼ãĥľ
ãĥ¤ãĥ³ ãĥŀ
ãĥ¤ãĥ³ ãĥŀãĥ¼
ãĥĥãĤ« ãĥ¼ãĥ«ãĥ³
ãĤ·ãĤ¥ãĤ« ãĥłãĥ³
ãĥĬãĥ³ ãĥĪãĤ¥
ãĥĬãĥ³ ãĥĲ
ãĥĬãĥ³ ãĥĭãĥ³
ãĥĥãĤ¹ ãĥŁ
ãĤ¢ãĥ© ãĤ·
ãĥķãĤ¿ ãĥĬãĤ«
ãĤ¢ãĤ¤ ãĥĸ
ãĤ¢ãĤ¤ ãĥĦãĤ¡
ãĤ¢ãĤ¤ ãĥĢãĥģ
ãĤ¯ãĤ¤ ãĥ³
ãĤ«ãĤ¶ ãĥ¼
ãĤ«ãĤ¶ ãĥŁ
ãĤ·ãĥŀ ãĤ¹ãĥ³
ãĤ·ãĥŀ ãĥĬãĤ«
ãĤ¦ãĥ¤ ãĥĵ
ãĥĭãĥ¼ ãĤ¹ãĤ¯ãĥ³
ãĥĭãĥ¼ ãĤ¦ãĥ©ãĤ¹ãĥ³
ãĥĭãĥ¼ ãĤ«ãĤ¿ãĥŁ
ãĤ³ãĥ¼ ãĤ¶ãĥ©
ãĥ¼ãĥĪ ãĥ¼
ãĥĳãĥ¤ ãĥ¼ãĥ«
ãĥĳãĥ¤ ãĥķãĥģ
ãĥĳãĥ¤ ãĥ¼ãĥĳ
ãĥĳãĥ¤ ãĤ¹ãĥ¼ãĥª
ãĥĬãĤ¬ ãĤ¢ãĥŁ
ãĥĬãĤ¬ ãĥĵãĥª
ãĥĬãĤ¬ ãĥłãĥĨãĤ£
ãĥĻ ãĥ¼ãĥ³
ãĤ¤ãĤŃ ãĥ¼
ãĥīãĤ¥ãĥ« ãĥīãĤ¥ãĥ«
ãĥ¼ãĥĢ ãĥ³
ãĤ·ãĥ© ãĥª
ãĤ¿ãĥ³ ãĤ«
ãĥĳãĤ¤ ãĥŀãĥ«ãĥ³
ãĥĨãĤ£ãĥ³ ãĥŀ
ãĥĨãĤ£ãĥ³ ãĥĹãĥ©
ãĤ¦ãĥł ãĥ¼ãĥ³
ãĥĶãĥ¼ ãĤ¶
ãĥĶãĥ¼ ãĤ«ãĤ¸
ãĥĶãĥ¼ ãĤ«ãĤ¶
ãĥĳãĥĢ ãĥ¤ãĥĵ
ãĤ·ãĥĵ ãĤ¹ãĤ¯ãĥ³
ãĥĲãĥ© ãĥªãĥ³
ãĤ¦ãĥģ ãĥ«ãĥ³
ãĤ¿ãĤ« ãĥĩãĤ£
ãĥĪãĤ¥ãĤ· ãĥĪãĤ¥ãĥª
ãĥĪãĤ¥ãĤ· ãĥĪãĤ¥ãĥ«ãĥ³
ãĥ¼ãĥĪãĤ¥ ãĥ«ãĥ³
ãĥĬãĤ· ãĥĮãĤ¦ãĥ¤
ãĥĪãĤ¥ãĥ« ãĥĮãĤ·ãĥ¼
ãĥĶãĤµ ãĤ¤
ãĥĶãĤµ ãĤ¹ãĥ³
ãĥĶãĤµ ãĥĵ
ãĥĬãĥŀãĥ³ãĥĢ ãĤ·ãĤŃ
ãĥĬãĥŀãĥ³ãĥĢ ãĤ¹ãĥª
ãĥĬãĥŀãĥ³ãĥĢ ãĤ¦ãĥ¼ãĥŁ
ãĤ«ãĤµ ãĥªãĥ³
ãĤ«ãĤµ ãĥŀãĤµãĥ³
ãĤ·ãĤ¿ ãĥĩãĤ£
ãĥį ãĥ¼ãĤ¹ãĥ³
ãĤµãĤŃ ãĥĬãĥª
ãĥĵãĥ¼ ãĤ°
ãĤ¢ãĤµ ãĥ¼ãĥ³
ãĥĬãĥ« ãĤ¹ãĤ³ãĥ¼
ãĥĮãĥģ ãĥ¢
ãĥĮãĥģ ãĤºãĥ¼
ãĥĮãĥģ ãĤ°ãĤ¹ãĤ¤
ãĥĳãĥģ ãĥĳãĥģ
ãĥĳãĥģ ãĤ¦ãĤ¯
ãĥĳãĥģ ãĥ³ãĤ°ãĥ®ãĥģ
ãĥĳãĥģ ãĥ³ãĤ¸
ãĤ¿ãĤ¤ ãĥĳãĥ³
ãĤ¿ãĤ¤ ãĤ¬ãĤ¤
ãĤ¢ãĥŀ ãĤ¹ãĥ³
ãĤ¢ãĥŀ ãĤ·ãĤ§
ãĤ¢ãĤ¦ ãĥª
ãĤ¢ãĤ¦ ãĥĮãĥ³
ãĥĴ ãĥ£
ãĥĲãĥª ãĤ«ãĥŁ
ãĤ¹ãĥ¼ ãĤ¿ãĤ¤
ãĥĬãĤŃ ãĥĸ
ãĤ¢ãĤ· ãĥĸ
ãĥŀãĥ³ ãĤ«
ãĤ¬ãĥ¼ ãĤµ
ãĤ«ãĥĬ ãĥłãĥĮ
ãĥĳãĤ¸ ãĥª
ãĥĿ ãĥ¼ãĥĦãĤ¡
ãĥĲãĤ¤ ãĤ«ãĥ³
ãĥĽ ãĥ¼ãĥ©
ãĤ¶ãĥ¼ ãĤ¯
ãĥĪãĤ¥ãĥł ãĤ¹ãĥ³
ãĥĪãĤ¥ãĥł ãĥ¦ãĥĥãĤ«
ãĥĢãĥ³ ãĥĳãĥģ
ãĤ·ãĥģ ãĥ³ãĤ¬ãĥģ
ãĥĬãĥ¼ãĥ³ ãĥłãĥĮ
ãĤ¶ãĥ© ãĥĲãĤ¶ãĥ©
ãĤ¶ãĥ© ãĤ³ãĥ¼ãĤ¶ãĥ©
ãĥ¼ãĥ¯ ãĤ¶
ãĤ¯ãĥĲ ãĤ¬ãĤµ
ãĥĳãĥ« ãĥĮãĥŁãĥ¼
ãĤ¶ãĥ³ ãĥ¡ãĥ¼
ãĥĥãĤ¿ ãĥ¼ãĥ«ãĥ³
ãĥĳãĥ© ãĥ³
ãĥĳãĥĭ ãĥ«ãĥ³
ãĥĳãĥĭ ãĥĥãĤ±ãĥ¼ãĥ«ãĥ³
ãĤ¦ãĤ¯ ãĤ¸
ãĤµãĤ¤ ãĤ¯
ãĥĥãĥĪãĤ¥ ãĥĲãĤ¹ãĥ³
ãĥĳãĥª ãĤ¹
ãĥĪãĤ¥ãĤŃ ãĥīãĤ¥ãĤŃ
ãĤ¦ãĤŃ ãĥĬãĥ¼
ãĥĢãĥ© ãĥĢãĥ©
ãĥĮãĥ³ ãĥĨãĤ£
ãĥĶãĥ³ ãĤ½ãĥ¼
ãĤ¤ãĥ© ãĥĸ
ãĤ¤ãĥ© ãĤŃãĥłãĥĮ
ãĤ·ãĥĬ ãĤ¿
ãĤ·ãĥĬ ãĤ¦ãĥ³
ãĤ¯ãĥ© ãĤ¦ãĥ³
ãĤ¹ãĤ¯ãĥª ãĥĹãĤ¹
ãĥĪãĤ¥ãĥ© ãĥªãĥ«ãĥ³
ãĥĪãĤ¥ãĥ© ãĥ³ãĥĳãĥ¼
ãĤ¹ãĥ« ãĥĲãĥ³
ãĥĪãĤ¥ãĤ¯ ãĤ¿ãĥľãĥ¼ãĥ©ãĥªãĥ³
ãĥķãĤ« ãĥ¼ãĥ³
ãĤ·ãĤ« ãĥ¼ãĥ³
ãĥĮãĥĵ ãĥ«ãĥ³
ãĤ¦ãĤµ ãĤ¤ãĥ«ãĥ³
ãĥĪãĤ¥ãĥĵ ãĥĳãĥ«ãĥ³
ãĥ³ãĤ® ãĤµãĥ³
ãĥĳãĥ³ãĤ¿ ãĥ¼ãĥŀ
ãĥĮãĥ¼ãĤ· ãĥ«
ãĥĮãĥ¼ãĤ· ãĤ¿
ãĥĮãĥ¼ãĤ· ãĤªãĥ¼ãĥ«ãĥ¯
ãĥĮãĥŁ ãĥĥãĤ¯ãĥłãĥ³
ãĥļ ãĥ¼ãĥª
ãĥĬãĥĬ ãĥĨãĤ£
ãĥĬãĥĬ ãĤ·ãĤŃ
ãĥĬãĥĬ ãĥĥãĥģ
ãĥķãĥ¼ ãĤ«ãĥ©
ãĥĮãĥ¼ãĥĮ ãĤ¦ãĥª
ãĥĮãĥ¼ãĥĮ ãĥĶãĤ«ãĤ·
ãĤ¦ãĤ¹ ãĥ¼ãĥ³
ãĤ¦ãĤ¹ ãĥŀãĤ¤
ãĤ¦ãĤ¹ ãĥĥãģµãĤ¡ãĤ¤
ãĥĳãĥ³ãĥĮ ãĥļãĥ¼
ãĥĳãĤ¿ãĥ© ãĥ¼ãĥĥãĥĨãĤ£
ãĥĳãĥŀ ãĤ¦ãĥª
ãĤ¢ãĤ« ãĥĲãĤ¿
ãĥĳãĤ· ãĥĬãĥ¼
ãĤ·ãĤ§ ãĥ¼ãĥŀ
ãĥĥãĥĪ ãĥ¼ãĥ³
ãĥīãĤ¥ãĥ³ ãĥģ
ãĥ¼ãĥłãĥģ ãĥĬãĥª
ãĤ¶ãĤ¤ ãĤ¯
ãĤ¿ãĥ© ãĤŃ
ãĥķãĥĬ ãĥĸ
ãĥĳãĥĨãĤ£ ãĥłãĥĭ
ãĥĮãĥ¼ãĥª ãĥķãĥģ
ãĤµãĤ« ãĤ·ãĤŃ
ãĥĲãĥģ ãĤ¯ãĥ®
ãĥĮãĤŃ ãĥĲãĥĬ
ãĥİãĥ¼ ãĤµãĥ³
ãĤŃãĤ¶ ãĥŁ
ãĥĮãĤ¤ ãĥķãĥģ
ãĥĭãĤ· ãĥīãĥ¼
ãĥĭãĤ· ãĤ¯ãĥĵ
ãĥĵãĤ¶ ãĥ¼ãĥª
ãĥĵãĤ¶ ãĥ¼ãĥ«ãĥ³
ãĥĮãĥīãĤ¥ ãĥŀãĤŃ
ãĥĮãĥīãĤ¥ ãĥĲãĥ«ãĥ³
ãĥĲãĥĥ ãĤ¶ãĥ©ãĥĲãĤ¶ãĥ©
ãĥīãĥ¼ãĥ³ ãĥĥãģµãĤ¡
ãĥĦãĤ¡ãĥ³ ãĤ·
ãĥİãĥ¼ãĤ· ãĥ³
ãĥİãĥ¼ãĥª ãĥ¦ãĥ¼
ãĥĪãĤ¥ãĥīãĤ¥ ãĤ¯ãĥ³
ãĥĪãĤ¥ãĥīãĤ¥ ãĥŁãĥ«ãĥ³
ãĥĮãĥ¼ãĥĨãĤ£ ãĥ¼
ãĤ¢ãĥĸ ãĤ¸
ãĤ¢ãĥ³ãĤ¬ ãĥ©ãĤ¹ãĥ³
ãĥĶãĥ¼ãĥģ ãĤ«ãĤ¤
ãĥīãĤ¥ãĥ¼ãĥłãĥĨãĤ£ ãĥ¨ãĥ¼
ãĤ¤ãĤµ ãĥĬãĤŃ
ãĥĲãĤ· ãĥ£
ãĤ¸ãĥ¥ãĥ¼ ãĤµãĥ³
ãĥ¼ãĥĬãĥ¼ãĥ³ ãĥłãĥĮ
ãĥĭãĥ¼ãĥĮ ãĥĳãĥ¼
ãĥĶãĥģ ãĥŀãĤ¯ãĥ³
ãĥ¼ãĥĩãĤ£ ãĥ³
ãĤ«ãĥĲ ãĥĥãĤµãĥ³
ãĥĳãĥ¼ãĥķ ãĤ¤
ãĥĳãĥ¼ãĥķ ãĥ¼ãĥ³
ãĥŁãĥĬ ãĥĪãĤ¥
ãĥľãĥ¼ãĥ³ ãĤ±ãĥ¼ãĥ«ãĥ³
ãĥĬãĥĦãĤ¡ ãĥ¼ãĥ©
ãĥĬãĥĦãĤ¡ ãĥ©ãĤ«ãĥĦãĤ¡
ãĥĪãĤ¥ãĥ³ãĤ¬ ãĥ¼
ãĥĲãĤ¶ãĥ© ãĥĲãĤ¶ãĥ©
ãĥĭãĥ¼ãĤ· ãĤ§ãĥ¼
ãĥĵãĥģ ãĥ«
ãĥīãĥ³ ãĥĪãĥ³
ãĥīãĤ¥ãĥ¼ãĥ¤ ãĥ¼ãĥ©ãĥ¼ãĥ³
ãĥĲãĤ¿ãĥĮ ãĥłãĤ·
ãĥĬãĥŀãĤ¸ ãĥª
ãĤ°ãĥ®ãĥ³ ãĤ¹
ãĥĮãĤ¹ ãĥĭ
ãĥŁãĥ³ãĤ° ãĥ©ãĤ¹ãĥ³
ãĥŁãĥ¼ãĥķ ãĥ©
ãĥ¤ãĤ¤ ãĥŀ
ãĥĵãĤ¶ãĥ¼ ãĤ¯ãĥ³
ãĥĳãĤ¸ãĥŁ ãĥĨãĤ£
ãĥĳãĥĦãĤ¡ãĥ© ãĥĳãĥĦãĤ¡ãĥ©
ãĥ¼ãĥĽ ãĥ¼
ãĤ«ãĤ« ãĥªãĥłãĥĮ
ãĤŃãĥ§ ãĥ¼ãĥĢãĤ¤
ãĥĬãĥ¼ãĥĳ ãĤ¤
ãĥĳãĤ«ãĥ© ãĤ¤
ãĥĪãĤ¥ãĤº ãĥŁãĥ«ãĥ³
ãĥĩãĥ¼ ãĤ«ãĥ¼
ãĥ¼ãĥį ãĥ¼
ãĥ¼ãĥŃ ãĥ¼
ãĥĬãĥĢãĥ© ãĤ«
ãĥĮãĥª ãĤ«ãĥĸãĥ³
ãĥĳãĥ¼ãĥ© ãĥĳãĥ¼ãĥ©
ãĥĳãĥ¤ãĥŀ ãĥ«ãĥ³
ãĥĳãĤ·ãĤ« ãĤŃãĥ«ãĥ³
ãĥĪãĤ¥ãĤ¬ ãĥŁãĥ«ãĥ³
ãĥĲãĤ¶ ãĥ¼ãĥ«ãĥ³
ãĥ¤ãĥĸ ãĥªãĥłãĥĮ
ãĥĶãĥĥãĤ« ãĤ«ãĥ«ãĥ³
ãĥĶãĥ¼ãĥĢ ãĥŀ
ãĥĶãĥ¼ãĥĹ ãĤ·
ãĥīãĤ¥ãĥ¼ãĥĬ ãĤ¤
ãĥīãĤ¥ãĥ¼ãĥĳ ãĥĢ
ãĥĪãĤ¥ãĥªãĥł ãĤ·ãĤ¥ãĤ«ãĤ¤
ãĤ¾ãĥ¼ãĥ« ãĤ¾ãĥ¼ãĥ«
ãĤŃãĥ¥ ãĥ¼ãĥĮ
ãĤ¦ãĥĢãĥ© ãĤŃ
ãĤµãĥĢ ãĥŁ
ãĤ¢ãĥĢãĥ³ ãĥĸãĥ©
ãĥĶãĥ£ãĥ¼ ãĤ¯
ãĥĶãĥ£ãĥ¼ãĥ³ ãĤ¬ãĥ«ãĥ³
ãĥĵãĥĢãĥ¼ ãĤ¯ãĥ³
ãĥĥãģµãĤ£ ãĥ«ãĥ³
ãĥĳãĥ³ãĥģ ãĥ«ãĥ³
ãĥ¼ãĥĭãĥ³ ãĤº
ãĤ°ãĥ«ãĤ°ãĥ« ãĥ¼
ãĥĬãĥŀãĤ¤ ãĥ¼
ãĥĬãĤ·ãĤ¥ãĤ« ãĤµãĥ³
ãĥĪãĤ¥ãĥ¼ãĥĮ ãĤ¯ãĥ³
ãĥŁãĥ¥ ãĥ¼ãĥĪãĤ¥
ãĥĭãĥķãĤ¿ ãĥ¼ãĥ³ãĤ®ãĤµãĥ³
ãĥĭãĥ¼ãĥ¬ ãĥ³
ãĥĵãĥ¼ãĥĵ ãĥ¼ãĤ·
ãĥīãĤ¥ãĥ¼ãĥĵ ãĥĬãĥ¼ãĥ³
ãĤ¾ãĥ¼ãĥİ ãĥ¼
ãĥĮãĥĵãĥ³ ãĥĶãĤŃãĥ³ãĥĬãĥ©ãĥĮ
ãĤ¢ãĥ¢ ãĥ¼ãĥª
ãĤ¤ãĤ·ãĤ¥ ãĤ«ãĥ¼
ãĥĬãĥ©ãĤ· ãĤ±ãĥ¼
ãĥĳãĥŀãĥ³ ãĥĳãĤ¿
ãĤ¢ãĤ«ãĥŀ ãĤ¿ãĥ¼
ãĥĪãĤ¥ãĥĭ ãĥłãĥĪãĤ¥
ãĥĪãĤ¥ãĤ·ãĥŀ ãĥ¼ãĥ«
ãĥĪãĤ¥ãĥīãĤ¥ãĥ« ãĤ¯ãĥ³
ãĥĲãĤ¹ãĥĲ ãĤ¹
ãĥīãĤ¥ãĥŁãĥ³ ãĤ«ãĤ¹ãĥ³
ãĥ¦ãĥ¼ãĥķ ãĥ«
ãĥĪãĤ¥ãĥªãĥ¼ãĥĪãĤ¥ãĥª ãĥ¼ãĤ·
ãĥıãĥ¼ãĥı ãĥ¼
ãĥĬãĥ«ãĤ¹ãĤ³ãĥ¼ ãĤ¢ãĥ©ãĥĮ
ãĤ¢ãĥŀãĤ·ãĤ§ ãĥ¼ãĥĮ
ãĥĬãĥĦãĤ¡ãĥ©ãĤ«ãĥĦãĤ¡ ãĥ©
ĺ ãĥ¼
ãĥ¼ ãĤ¢ãĥģ
ãĥ³ ãĥŁ
ãĥ³ ãĤ¶
ãĥ³ ãĥ¼ãĥ³
ãĥ³ ãĥŁãĥ¼
ãĥ³ ãĤ«ãĥ¼
ãĥ³ ãĥľ
ãĥ³ ãĤµãĥ¼
ãĥ³ ãĥĪãĥ³
ãĥ³ ãĥĲãĤ¦ãĥ³
ãĥ³ ãĥīãĥ¼ãĥ¬ãĥ¼
ãĥ¼ãĥ ĺãĥ¼
ãĤ· ãĥĸ
ãĤ· ãĥ¼ãĥª
ãĤ· ãĤ«ãĤ¤
ãĤ· ãĥŀãĤ¤
ãĤ· ãĥ¼ãĥĥ
ãĤ· ãĤ«ãĤ¹ãĥ³
ãĤ· ãĥłãĥ«
ãĤ· ãĥĪãĥ³
ãĤ· ãĥ¼ãĤ¸ãĥ«
ãĤ· ãĥ¼ãĥĶãĤ¯ãĥ³
ãĤ« ãĥĮ
ãĤ« ãĤ³
ãĤ« ãĤ·ãĥ³
ãĤ« ãĤ«ãĥ³
ãĤ« ãĥĪãĤ¥ãĥ³
ãĤ« ãĥ¯
ãĤ« ãĥĭãĥ³
ãĤ« ãĤ·ãĥ¼
ãĤ« ãĥªãĥłãĥĮ
ãĤ« ãĤ·ãĤ¿
ãĤ« ãĥĲãĤ¹ãĥ³
ãĤ« ãĤ«ãĤ¤ãĥ«ãĥ³
ãĤ« ãĥĻãĥ¼
ãĤ« ãĥĸãĥ«
ãĤ« ãĤ«ãĤ¦ãĥ³
ãĤ« ãĥłãĤ¤
ãĤ« ãĥ¼ãĥŁãĥ¼
ãĤ¤ ãĥ¼ãĥ©
ãĤ¤ ãĤ·ãĤŃ
ãĤ¤ ãĥ¼ãĥ«ãĥ³
ãĤ¤ ãĥŀãĤ¤
ãĤ¤ ãĥĥãĤµ
ãĤ¤ ãĥĸãĥ³
ãĤ¤ ãĥĥãĤ«
ãĤ¤ ãĥĥãĥģ
ãĤ¤ ãĥŁãĥ³
ãĤ¤ ãĤ«ãĤ·
ãĤ¤ ãĥ©ãĥ¼
ãĤ¤ ãĥĴ
ãĤ¤ ãĥķãĥĬ
ãĤ¤ ãĤ«ãĥ©ãĥ¼
ãĤ¤ ãĤ¶ãĥª
ãĤ¤ ãĤ«ãĥ©ãĥ¼ãĥ³
ãĤ¤ ãĥİãĥ³
ãĤŃ ãĥĬ
ãĤŃ ãĤµ
ãĤŃ ãĥĵ
ãĤŃ ãĥŁãĥ«ãĥ³
ãĤŃ ãĥİ
ãĤŃ ãĤ¹ãĤ¯ãĥ³
ãĤŃ ãĤºãĥ³
ãĤŃ ãĥ¼ãĥĸãĥ«
ãĤŃ ãĥ¼ãĥĲãĤŃ
ãĤ¹ ãĥĭ
ãĤ¹ ãĥĢ
ãĤ¹ ãĥ¼ãĥ«
ãĤ¹ ãĥ¼ãĤ·
ãĤ¹ ãĥłãĥ³
ãĤ¹ ãĥŁãĥ«ãĥ³
ãĤ¹ ãĥ©ãĤ¹ãĥ³
ãĤ¹ ãĥ¯
ãĤ¹ ãĥ¼ãĥĳ
ãĤ¹ ãĥĥãĤ«
ãĤ¹ ãĥ¼ãĥŁ
ãĤ¹ ãĥŀãĥ«ãĥ³
ãĤ¹ ãĥ¼ãĥ©ãĤ¹ãĥ³
ãĤ¹ ãĤ¬ãĥ«ãĥ³
ãĥĬ ãĤ¯
ãĥĬ ãĤµãĤŃ
ãĥĬ ãĤŃãĥłãĥĭ
ãĤ¯ ãĥ¼ãĤ¹ãĥ³
ãĤ¯ ãĤµãĥ³
ãĤ¯ ãĥªãĥ³
ãĤ¯ ãĤ¤ãĥ«ãĥ³
ãĤ¯ ãĥŀãĥª
ãĤ¯ ãĥ¬
ãĤ¯ ãĥĨãĤ£ãĥ³
ãĤ¯ ãĥ¡ãĥ¼
ãĤ¯ ãĤ¿ãĥ³ãĥĩãĤ£
ãĥŀ ãĤµ
ãĥŀ ãĥĨãĤ£
ãĥŀ ãĥ¼ãĥĬ
ãĥŀ ãĥŀãĥ«ãĥ³
ãĥŀ ãĤ®ãĥ«ãĥ³
ãĥŀ ãĥ¼ãĥĨãĤ£
ãĥŀ ãĥ©ãĥ¼
ãĥŀ ãĥ¼ãĥ¦
ãĥŀ ãĤ«ãĥĬãĤ¤
ãĥŀ ãĤµãĥ¼ãĥ³
ãĥŀ ãĤµãĥ«
ãĥŀ ãĥĥãĤ·ãĥ³
ãĤ¿ ãĤ¯ãĥ³
ãĤ¿ ãĥ¼ãĥ©
ãĤ¿ ãĥ¼ãĤ¹ãĥ³
ãĤ¿ ãĥ©ãĤ¤
ãĤ¿ ãĥĩãĤ£
ãĤ¿ ãĥĭãĥ³
ãĤ¿ ãĥªãĥłãĥĮ
ãĤ¿ ãĥŀãĥ«ãĥ³
ãĤ¿ ãĤ¯ãĥłãĥ³
ãĤ¿ ãĥ¼ãĥĥãĥĨãĤ£
ãĤ¿ ãĥĪãĤ¥ãĤ¤
ãĤ¿ ãĥİãĥ¼ãĥ«
ãĥĮ ãĥķãĥģ
ãĥĮ ãĤ·ãĥ³
ãĥĮ ãĥĬãĤ¤
ãĥĮ ãĥĳãĤ¤
ãĥĮ ãĤ¹ãĥĸ
ãĥĮ ãĤ«ãĥ«ãĥ³
ãĥĮ ãĤ¾ãĥ¼
ãĥĮ ãĤ¤ãĥ¼
ãĥĮ ãĤ·ãĥģ
ãĥĮ ãĥ¡ãĥ¼
ãĥĮ ãĥķãĥ«
ãĥĮ ãĤ³ãĥ¼ãĥŀ
ãĥĮ ãĤ¯ãĥłãĥ³
ãĥĮ ãĤµãĤ¦
ãĥĮ ãĥ¤ãĥķ
ãĥĮ ãĥĳãĥ³ãĤ·
ãĥĮ ãĥ³ãĤ¬ãĥ¼ãĥª
ãĥĮ ãĥĹãĥªãĥłãĥĮ
ãĥĮ ãĤ«ãĤ¿ãĥģãĥĭ
ãĥĳ ãĤµãĥ³
ãĥĳ ãĥŀãĤ¤
ãĥĳ ãĥªãĥłãĥĮ
ãĥĳ ãĤ«ãĥª
ãĥĳ ãĤ¦ãĥ«
ãĤ¦ ãĥķ
ãĤ¦ ãĤ½
ãĤ¦ ãĤ·ãĥ³
ãĤ¦ ãĥ¤ãĥŀ
ãĤ¦ ãĥªãĥ³
ãĤ¦ ãĥ¬
ãĤ¦ ãĥĪãĤ¥ãĥ«
ãĤ¦ ãĥ©ãĥ¼
ãĤ¦ ãĥ¬ãĥ¼
ãĤ¦ ãĤºãĥ³
ãĤ¦ ãĥĲãĤ¤
ãĤ¦ ãĥĨãĤ£ãĥĢ
ãĤ¦ ãĥĢãĥĨãĤ£
ãĤµ ãĥĬ
ãĤµ ãĥĳ
ãĤµ ãĥĥ
ãĤµ ãĥ¤
ãĤµ ãĤ«ãĥ¼
ãĤµ ãĤ°ãĥ³
ãĤµ ãĤ¦ãĥª
ãĤµ ãĥŀãĤ¹ãĥ³
ãĤµ ãĥŀãĤ·
ãĤµ ãĥĲãĤ¯ãĥ³
ãĤµ ãĤ·ãĥłãĥĮ
ãĥł ãĤŃ
ãĥł ãĤµãĥ³
ãĥł ãĥ¤ãĥ¼
ãĥł ãĤ¯ãĤ¤
ãĥł ãĥīãĤ¥ãĥ«
ãĥł ãĤ¤ãĤ«
ãĥł ãĥīãĤ¥ãĥª
ãĥł ãĤ¨ãĥ¼
ãĥł ãĥīãĤ¥ãĤ¹ãĥ³
ãĥł ãĤ²ãĥ¼ãĥ«ãĥ³
ãĥ© ãĥ¼ãĥĥãĤµãĥ³
ãĥĪ ãĥ¼ãĥªãĥ«ãĥ³
ãĥĪ ãĥ¼ãĥ©ãĥ¼
ãĥĥ ãĤ«ãĤ¤
ãĥĥ ãĤ½
ãĥĥ ãĤ¿ãĥ¼
ãĥĥ ãĤ³ãĥ¼ãĥŀ
ãĥĥ ãĤ·ãĤ§
ãĤ¢ ãĥĥ
ãĤ¢ ãĤ¹ãĥ³
ãĤ¢ ãĥĨ
ãĤ¢ ãĤµãĥ³
ãĤ¢ ãĤ´
ãĤ¢ ãĤ«ãĥ³
ãĤ¢ ãĤ¹ãĤ¯ãĥ³
ãĤ¢ ãĤ«ãĤ¸
ãĤ¢ ãĥ¼ãĥĭ
ãĤ¢ ãĥĸãĤ·
ãĤ¢ ãĥĥãĤ¿
ãĤ¢ ãĤ¯ãĥĵ
ãĤ¢ ãĥĥãĥĳ
ãĤ¢ ãĥıãĥ¼
ãĤ¢ ãĤ¶ãĥ©ãĥ³
ãĤ¢ ãĥłãĤµãĥ³
ãĥª ãĤ¹ãĥ³
ãĥª ãĤ«ãĤ¶
ãĥª ãĤ¸ãĥĸãĥ³
ãĥª ãĥĥãĤ·ãĥ³
ãĥĪãĤ¥ ãĥĸ
ãĥĪãĤ¥ ãĤŃãĥ«ãĥ³
ãĥĪãĤ¥ ãĥ¬
ãĥĪãĤ¥ ãĤ°ãĥ³
ãĥĪãĤ¥ ãĥ¼ãĥ¯ãĥ³
ãĥĪãĤ¥ ãĤ¢ãĥ¼ãĤ·
ãĥģ ãĤ§
ãĥģ ãĤ¬ãĤ¦ãĥ³
ãĥģ ãĤ¬ãĤ¤ãĥ«ãĥ³
ãĥģ ãĥ£ãĥ³ãĥĹãĥ«ãĥ¼
ãĥĲ ãĥ¼ãĥŀ
ãĥĲ ãĥ¼ãĥª
ãĥĲ ãĤ«ãĥ©
ãĥĲ ãĥªãĥ³
ãĥĲ ãĤ¤ãĥ«ãĥ³
ãĥĲ ãĥªãĥ«ãĥ³
ãĥĲ ãĥªãĥłãĥĮ
ãĥĲ ãĤ³ãĥ¼
ãĥĲ ãĤ·ãĤŃãĥ«ãĥ³
ãĥŁ ãĤŃ
ãĥŁ ãĥ¼ãĥĸ
ãĥŁ ãĥ¼ãĥĲ
ãĥŁ ãĤ«ãĤ¹ãĥ³
ãĥŁ ãĥ¼ãĥĹ
ãĥŁ ãĥ£ãĥ¼
ãĥŁ ãĥ¼ãĥłãĥĮ
ãĥŁ ãĤµãĤ¯
ãĥŁ ãĥ©ãĥªãĥ³
ãĥŁ ãĥ¼ãĥŀãĤ¤
ãĥŁ ãĥīãĥ¼ãĥ³ãĥĥãģµãĤ¡
ãĥ¤ ãĤ®
ãĥ¤ ãĥŁãĥ«ãĥ³
ãĥ¤ ãĥĬãĤ¤
ãĥ¤ ãĤŃãĥłãĥĮ
ãĥ¤ ãĤ¯ãĥĲ
ãĥ¤ ãĤµãĤ¤
ãĥ¤ ãĥ¼ãĤ·ãĤŃ
ãĥ¤ ãĤ·ãĥłãĥĮ
ãĥ¤ ãĥ¼ãĥłãĥĪãĤ¥
ãĥĭ ãĤŃ
ãĥĭ ãĤ«ãĤ¤
ãĥĭ ãĤºãĥ³
ãĤ¹ãĥ³ ãĤ°ãĥ«ãĥ³
ãĤ¸ ãĥª
ãĤ¸ ãĥŁ
ãĤ¸ ãĤ¬ãĥ©
ãĤ¸ ãĥĸãĤ¯
ãĤ¸ ãĥ¼ãĤ¸ãĥ¼
ãĤ¬ ãĤ¶
ãĤ¬ ãĥĥãĤµ
ãĤ¬ ãĥŀãĥģ
ãĤ¬ ãĤºãĥ³
ãĤ¬ ãĤµãĥ©
ãĤ¬ ãĤ¯ãĥłãĥ³
ãĤ¬ ãĥ¼ãĥĸãĥ«
ãĤ¬ ãĥ³ãĥĢãĥ©
ãĤ¬ ãĥ¼ãĥĽãĥ¼
ãĥķ ãĥł
ãĥķ ãĥĨãĤ£
ãĥķ ãĥĬãĤ«
ãĥķ ãĤ·ãĥŀ
ãĥķ ãĤ°ãĥ³
ãĥķ ãĤ«ãĤ·
ãĥķ ãĤ¸ãĥ«
ãĥķ ãĥĢãĥ«
ãĥķ ãĤ¬ãĤ¹ãĥ³
ãĥķ ãĤ·ãĤ¥ãĤ«ãĥ«ãĥ³
ãĥĶ ãĥ«ãĥ³
ãĥĶ ãĥĬãĤ«
ãĥĶ ãĥĬãĤ¤
ãĥĶ ãĥ£
ãĥĶ ãĤ¿ãĥ¼
ãĥĶ ãĤ°ãĥ³
ãĥĶ ãĥ¥ãĥ¼
ãĥĶ ãĥĭãĥģ
ãĥĶ ãĥ¼ãĥ¯ãĥ³
ãĥĶ ãĥĲãĥĬ
ãĥĶ ãĥĬãĤ«ãĥ³
ãĥĶ ãĥ³ãĤ¬ãĤ¹ãĥ³
ãĥĶ ãĥĥãĥĦãĤ¡ãĤ¹ãĥ³
ãĥĸ ãĥ¬
ãĥĸ ãĥįãĥ¼
ãĥĸ ãĥĦãĤ¡ãĥ¼
ãĥĸ ãĥ¼ãĥĸãĥ¼
ãĥĨ ãĥ¼ãĥ³
ãĥĨ ãĥ¼ãĥĮ
ãĥĨ ãĥ¼ãĥķ
ãĥĢ ãĤ¯
ãĥĢ ãĥ¼ãĥĥ
ãĥĢ ãĥĥãĤ¯ãĥ®
ãĥĵ ãĥ¼ãĥ³
ãĥĵ ãĥ§
ãĥĵ ãĤ³ãĥ¼ãĥ³
ãĥĵ ãĥ¼ãĥĲãĤŃ
ãĥĨãĤ£ ãĥŀãĥ¼
ãĥĨãĤ£ ãĥĢãĤ¤
ãĥĨãĤ£ ãĥ¼ãĥĥãĤµ
ãĥĨãĤ£ ãĥ¼ãĥ¨ãĥ¼
ãĥĨãĤ£ ãĥ¼ãĥĳãĥ³
ãĥĨãĤ£ ãĥĥãĥĹ
ãĥĨãĤ£ ãĥ¼ãĥĶãĤµ
ãĥĨãĤ£ ãĥ¼ãĥĶãĤ¯ãĥ³
ãĤ° ãĥ©
ãĤ° ãĤ¶
ãĤ° ãĤº
ãĤ° ãĤµãĥ³
ãĤ° ãĥ³ãĤ°
ãĤ° ãĥ¦ãĥ¼
ãĤ° ãĥªãĥłãĥĮ
ãĤ° ãĤ¶ãĥ©
ãĤ° ãĤµãĥ¼ãĤ¯
ãĤ¶ ãĤ¦
ãĤ¶ ãĥŁ
ãĤ¶ ãĥ¼ãĥ©
ãĤ¶ ãĤ³
ãĤ¶ ãĥ©ãĤ¹ãĥ³
ãĥ¼ãĥ³ ãĤ°
ãĤ¡ ãĤ¤
ãĥīãĤ¥ ãĥ¼ãĥ«
ãĥīãĤ¥ ãĥ¼ãĤŃ
ãĥ¼ãĤ· ãĥ³
ãĥ¼ãĤ· ãĤ§ãĥ¼
ãĥ¼ãĤ· ãĥ³ãĤ«
ãĥ¦ ãĥĸ
ãĥ¦ ãĥ¼ãĥ«ãĥ³
ãĥ¦ ãĤ«ãĥ©
ãĥ¦ ãĥĸãĥ³
ãĥ¦ ãĥ©ãĤ·
ãĥ¦ ãĥĢãĥ³
ãĥ¦ ãĥĮãĥ³
ãĥ¦ ãĥ³ãĥŀ
ãĥ¦ ãĥīãĤ¥ãĥ³
ãĥ¦ ãĥªãĥ¼
ãĥ¦ ãĥ¬ãĥ¼ãĥĮ
ãĥ¦ ãĥ¼ãĥľ
ãĥ¦ ãĤ¬ãĥķ
ãĤ¯ãĥ³ ãĥĢ
ãĥłãĥĮ ãĤ¦ãĥłãĤ¤
ãĥłãĥĮ ãĤ¦ãĥ¢
ãĥĦ ãĥª
ãĥĹ ãĤµãĥ³
ãĥĹ ãĤ·ãĥĮ
ãĤ® ãĥģ
ãĤ® ãĥ§ãĥ¼
ãĤ·ãĤŃ ãĥĹãĤ¹
ãĤ·ãĤŃ ãĥīãĤ¥ãĥ«
ãĤ·ãĤŃ ãĤ«ãĥ¼ãĤ·ãĤŃ
ãĥ¼ãĥĮ ãĥłãĥĮ
ãĥ¼ãĥŀ ãĤŃ
ãĤº ãĥłãĥ³
ãĤº ãĥ¼ãĥłãĥĮ
ãģµ ãĤ¡ãĤ¤
ãĤµãĥ³ ãĥĲ
ãĤµãĥ³ ãĤ·ãĤŃ
ãĤµãĥ³ ãĥĲãĥ³
ãĤµãĥ³ ãĤ°ãĥ³
ãĤµãĥ³ ãĥĢãĥ³
ãĤµãĥ³ ãĤ¸ãĥ£
ãĤ³ ãĥ¼ãĥª
ãĥĹãĤ¹ ãĤ¤
ãĥĹãĤ¹ ãĥĥãĤ¯
ãĥĹãĤ¹ ãĥĳãĥ¼
ãĥĹãĤ¹ ãĥĨãĤ£ãĥ¼
ãĥĹãĤ¹ ãĥĥãģµãĤ¡ãĤ¤
ãĥĹãĤ¹ ãĥĸãĤ·
ãĥłãĥ³ ãĤ°ãĥ«
ãĥłãĥ³ ãĥīãĥ¼
ãĤ«ãĤ¤ ãĥĮ
ãĤ«ãĤ¤ ãĤ·ãĥ¼
ãĥ³ãĤ¬ ãĥĬ
ãĥ³ãĤ¬ ãĥĬãĥ¼
ãĤ½ ãĥ¼ãĥĭ
ãĤ½ ãĥ¼ãĥĹ
ãĤ½ ãĥ¼ãĥĶãĤŃ
ãĤ½ ãĥ¼ãĥķãĥ³
ãĤ½ ãĥĥãĤ³
ãĤ½ ãĥ¼ãĥĢãĥ³
ãĥĥãģµãĤ¡ ãĤ¬
ãĥĳãĥĬ ãĥīãĤ¥ãĥ«
ãĥĳãĥ³ ãĥŀãĤ¤
ãĥķãĥģ ãĥŀãĥģ
ãĥķãĥģ ãĤ¸ãĥ«
ãĥŀãĤ¤ ãĥĬãĤ¹ãĥ³
ãĥŀãĤ¤ ãĤ¸ãĥ©
ãĥŀãĤ¤ ãĤºãĥĭ
ãĥĬãĤ« ãĤ¹ãĥ³
ãĥĬãĤ« ãĥ¼ãĥ©
ãĥĬãĤ« ãĥĸãĥĭ
ãĥĬãĤ« ãĥ¯ãĥª
ãĥ¼ãĥĬ ãĤ«
ãĥ¼ãĥĬ ãĥŁ
ãĥ¼ãĥĬ ãĤ¹ãĥ³
ãĥĲãĤ¿ ãĥĮãĤ·ãĥ¼ãĥłãĥĮ
ãĥ¨ ãĥ¼ãĤ·
ãĥ¨ ãĥ¼ãĤ¸
ãĥ¨ ãĥ¼ãĥŁ
ãĥ¨ ãĤ¤ãĤ·
ãĤ¹ãĤ¯ ãĥŁ
ãĤ¹ãĤ¯ ãĥĸ
ãĤ¹ãĤ¯ ãĥªãĥ«ãĥ³
ãĤ¹ãĤ¯ ãĥŀãĥ«ãĥ³
ãĥĥãĤµ ãĤ¹ãĥ³
ãĥĥãĤµ ãĥªãĥ«ãĥ³
ãĥĥãĤµ ãĥ©ãĥ¼
ãĤ± ãĥ¼ãĥĢ
ãĤ± ãĥ¼ãĥĨãĤ£
ãĥŁãĥ¼ ãĤ«
ãĥŁãĥ¼ ãĤ¶
ãĥŁãĥ¼ ãĤ¶ãĥ³
ãĤ«ãĤ¿ ãĤŃ
ãĤ«ãĤ¿ ãĥ¼ãĥ³
ãĤ«ãĤ¿ ãĥĳãĥ³
ãĤ«ãĤ¿ ãĥķãĥģ
ãĤ«ãĤ¿ ãĥĭãĥ¼
ãĤ«ãĤ¿ ãĥĶãĤµ
ãĤ«ãĤ¿ ãĤ½ãĥ¼ãĥĶãĤŃ
ãĤ«ãĥ© ãĥĮ
ãĤ«ãĥ© ãĥ¼ãĤ·
ãĤ«ãĥ¼ ãĤµãĥªãĥ³
ãĤ·ãĥ³ ãĥĪãĤ¥
ãĤ·ãĥ³ ãĤ¯ãĥ³
ãĤ·ãĥ³ ãĤ±ãĥ¼
ãĥĶãĤŃ ãĤ¦ãĤ·
ãĤ´ ãĥ³
ãĤ´ ãĤ¶
ãĤ´ ãĥ¼ãĥ©
ãĤ´ ãĥ¼ãĥ«ãĥ³
ãĥ¼ãĥĥ ãĥĳ
ãĥ¼ãĥĥ ãĤµãĥ¼
ãĤ«ãĥ³ ãĤ·
ãĤ«ãĥ³ ãĥĮ
ãĤ«ãĥ³ ãĥĨãĤ£ãĥ¼
ãĤ«ãĥ³ ãĤ¹ãĥ«
ãĥĩ ãĥ³
ãĥĪãĤ¥ãĥª ãĥ«ãĥ³
ãĥ¼ãĤŃ ãĥ¼
ãĥ³ãĤ° ãĥŁ
ãĥ¼ãĥķ ãĥĭ
ãĥ¼ãĥķ ãĤ¯ãĥ³
ãĥĲãĤ« ãĤ¦ãĥ³
ãĥĬãĤ¤ ãĥ©
ãĤŃãĥł ãĤŃ
ãĤŃãĥł ãĤ·ãĥ«
ãĤŃãĥł ãĥķãĤ¯
ãĥ¼ãĥ¤ ãĥĸãĥª
ãĥ¤ãĥŀ ãĥ³ãĤ´
ãĤ¦ãĥĸ ãĥĲãĤ¿
ãĤ¦ãĥĸ ãĤ¤ãĤŃ
ãĤ¾ ãĥ¼ãĥ³
ãĤ¾ ãĥ¼ãĥĸ
ãĥ³ãĥĢ ãĥ³
ãĥĩãĤ£ ãĥ«
ãĥĩãĤ£ ãĤ¯
ãĥŀãĥ¼ ãĤ¶
ãĥ¯ ãĤŃ
ãĤŃãĥ³ ãĤº
ãĤŃãĥ³ ãĤŃãĥ³
ãĤŃãĥ³ ãĤ³ãĥ¼
ãĥĥãĤ¯ ãĥª
ãĥĥãĤ¯ ãĥŀãĤ¹ãĥ³
ãĥĭãĥ³ ãĥĪãĤ¥
ãĥĭãĥ³ ãĥĪãĤ¥ãĥ¼
ãĥĭãĥ³ ãĤ¸ãĥ§ãĥ¼
ãĥĭãĥ³ ãĥĸãĥĦãĤ¡ãĥ¼
ãĤ«ãĤ¸ ãĥŀ
ãĤ«ãĤ¸ ãĥ©
ãĤ«ãĤ¸ ãĥīãĤ¥ãĥ«
ãĥ¼ãĥĳ ãĤ«
ãĥ¼ãĥĳ ãĥ¤ãĥ¼
ãĥłãĥĭ ãĥ¼
ãĥłãĥĭ ãĥĮ
ãĥłãĥĭ ãĤ¤ãĤ¸
ãĤ¢ãĤ¬ ãĤ¸ãĥ³
ãĤ¢ãĤ¬ ãĤ¸ãĥ«
ãĤ¢ãĤ¬ ãĥŀãĥŁ
ãĤª ãĥ¼ãĥĸ
ãĤª ãĥ¼ãĥĬãĥ«
ãĥ¼ãĥĸ ãĥ«ãĥ³
ãĥı ãĥŀ
ãĥı ãĥ³ãĤ¿
ãĥ¼ãĥĲ ãĥ«
ãĥ¼ãĥĲ ãĤ¯ãĥ³
ãĥĳãĥ¼ ãĤ¿ãĥĪãĤ¥ãĥ³
ãĤ¦ãĤ¤ ãĤ«
ãĥľ ãĤ·
ãĥľ ãĥ³ãĥĨãĤ£
ãĥłãĥģ ãĥĮãĥ¼ãĥª
ãĤ·ãĥ¼ ãĤ¾
ãĤ·ãĥ¼ ãĤ«ãĤ¤ãĤ·ãĥ¼
ãĥĥãĥĦãĤ¡ ãĥłãĥ³
ãĥŁãĤ¸ ãĤ¿ãĥ¼
ãĥŁãĤ¸ ãĥ©ãĤ·
ãĥŁãĤ¸ ãĥ©ãĤµãĥ³
ãĥ¤ãĥ³ ãĥĲãĥ«
ãĥĥãĤ« ãĥ«
ãĥĥãĤ« ãĥª
ãĥĥãĤ« ãĤ¹ãĥ³
ãĥĥãĤ« ãĤ¦ãĥ³
ãĤµãĥ¼ ãĤ«ãĤµ
ãĤ·ãĤ¥ãĤ« ãĥŁ
ãĤ·ãĤ¥ãĤ« ãĥĥãĥĨãĤ£
ãĥĳãĤ¿ ãĥ©ãĤ·
ãĥĳãĤ¿ ãĥĥãĤ¯ãĥ³
ãĥĳãĤ¿ ãĥĥãĤŃãĥ«ãĥ³
ãĤ¤ãĤ· ãĥĪãĥ¼
ãĥĥãĤ¹ ãĥŁãĥ¼
ãĥĥãĤ¹ ãĥĥãģµãĤ¡ãĤ¤
ãĤ¢ãĥ© ãĤ«ãĥ¼
ãĤ¢ãĥ© ãĤ¹ãĤ¤
ãĥķãĤ¿ ãĥ¼ãĥ«
ãĥķãĤ¿ ãĥŀãĤ¿
ãĤ¢ãĤ¤ ãĥ«
ãĤ¢ãĤ¤ ãĤ¯
ãĤ¢ãĤ¤ ãĥ¤ãĥ¼
ãĤ¢ãĤ¤ ãĥŀãĥģ
ãĤ¢ãĤ¤ ãĤºãĥŁ
ãĤ¢ãĤ¤ ãĤ·ãĥ¼ãĤ«ãĤ¤ãĤ·ãĥ¼
ãĤ¯ãĤ¤ ãĥĢãĥ¼
ãĥ¼ãĥĭ ãĥ³ãĤ¬ãĤ¤
ãĤ·ãĥŀ ãĥĥãģµãĤ¡
ãĤ¦ãĥ¤ ãĥ¼ãĥª
ãĤ¦ãĥ¤ ãĥŀãĤ¤
ãĥĻ ãĥ¼ãĤ·
ãĥĻ ãĥ¼ãĤ¹ãĥ³
ãĥĻ ãĥ¼ãĥ«ãĥ³
ãĤ«ãĤŃ ãĥĥãĥĦãĤ¡ãĥ¼ãĤ¹ãĥ³
ãĤ«ãĤŃ ãĥŀãĤ«ãĥ«
ãĤ«ãĤŃ ãĤ¸ãĤ¯
ãĤ¤ãĤŃ ãĤ·
ãĤ¤ãĤŃ ãĥĸãĥ«
ãĤ¯ãĥ« ãĥĵ
ãĤ¯ãĥ« ãĥĲãĤ¹ãĥ³
ãĥ¼ãĥĢ ãĥ¼
ãĤ·ãĥ© ãĥªãĥ³
ãĤ·ãĥ© ãĥķãĤ¯
ãĤ·ãĥ© ãĤ¬ãĥ¼
ãĤ¿ãĥ³ ãĥĸãĥ¼
ãĤ¿ãĥ³ ãĤ«ãĥ¼ãĥŀ
ãĥĳãĤ¤ ãĥ¤ãĤŃ
ãĥĨãĤ£ãĥ³ ãĤŃ
ãĥĨãĤ£ãĥ³ ãĤ¾ãĥ¼
ãĥĥãģµãĤ¡ãĤ¤ ãĥĢãĥŀ
ãĥĥãģµãĤ¡ãĤ¤ ãĥĥãĤ¯ãĥ«
ãĤ¦ãĥł ãĤ¤ãĥ³
ãĤ¦ãĥł ãĤ·ãĥ«
ãĤ¢ãĥ³ ãĤ¿
ãĤ¢ãĥ³ ãĤ«ãĥ¼
ãĥĶãĥ¼ ãĤ«ãĥ¼
ãĤ·ãĥĵ ãĥª
ãĤ·ãĥĵ ãĥķãĥģ
ãĤ·ãĥĵ ãĥĮãĤ·
ãĥĲãĥ© ãĥĵ
ãĤ¹ãĥĸ ãĤ·
ãĤ¹ãĥĸ ãĥ«ãĥ³
ãĤ¦ãĥģ ãĥŀãĥ¼ãĤ·
ãĥ¼ãĥģ ãĥ³
ãĤ¤ãĥ³ ãĥĪãĤ¥ãĥŀ
ãĤ¿ãĤ« ãĥ¼ãĤ·
ãĤ¿ãĤ« ãĥĢãĤ¤
ãĥŁãĥ³ ãĤ¿ãĥŀ
ãĥ¼ãĥĪãĤ¥ ãĤ·
ãĥŃ ãĥ¼ãĥķãĤ¯
ãĥĪãĤ¥ãĥ« ãĥĥãĤµãĤ¦ãĥ³
ãĥĪãĤ¥ãĥ« ãĥĥãĤµãĤ¤ãĥ«ãĥ³
ãĤ¦ãĤ¿ ãĤ·
ãĤ¦ãĤ¿ ãĤ¤
ãĤ¬ãĤ¤ ãĤ¹ãĥ³
ãĤ«ãĤµ ãĥ©
ãĤ«ãĤµ ãĥĭãĥ«ãĥ³
ãĥŀãĥģ ãĥª
ãĥŀãĥģ ãĥ£
ãĤ·ãĥ« ãĤ·
ãĤ·ãĤ¿ ãĤ¯
ãĤ·ãĤ¿ ãĥ©
ãĤ·ãĤ¿ ãĥ«ãĥ³
ãĥį ãĥ¼ãĥ³
ãĤµãĤŃ ãĥĮ
ãĤµãĤŃ ãĥ³ãĥĢ
ãĤ°ãĥ« ãĥĥãĤ«
ãĥķãĤ¯ ãĤ¸
ãĥķãĤ¯ ãĥłãĥ³
ãĤ¤ãĥģ ãĥ³
ãĤ¤ãĥģ ãĤ§ãĥ¼ãĥ©
ãĤ¤ãĤº ãĥĽãĥ¼ãĤ·
ãĤ«ãĤ· ãĤ«ãĤŃ
ãĥ¼ãĥĨãĤ£ ãĥ³
ãĤ¢ãĥĲ ãĤµ
ãĤ¢ãĥĲ ãĥĨãĤ£
ãĤ¢ãĥĲ ãĥ¬
ãĤ¿ãĤ¤ ãĤ¯
ãĤ¢ãĥŀ ãĥŁãĤ¸
ãĤ¢ãĥŀ ãĥĢãĥ«
ãĥĴ ãĤ¸ãĤ¬ãĥ©
ãĤ¢ãĤ¿ ãĥ©
ãĤ½ãĥ¼ ãĤ®ãĥª
ãĤŃãĤ· ãĥķãĥģ
ãĤŃãĤ· ãĤ°ãĥĪãĤ¥
ãĥĬãĤŃ ãĥĭãĥĵ
ãĤ¢ãĤ· ãĥĦãĤ¡
ãĤ¬ãĥ¼ ãĤ¬
ãĤ¬ãĥ³ ãĤ¯
ãĤ¬ãĥ³ ãĥī
ãĤ¬ãĥ³ ãĥŀãĥª
ãĤ¬ãĥ³ ãĥĳãĥ©
ãĤ¬ãĥ³ ãĤºãĥ¼
ãĤ«ãĥĬ ãĤµ
ãĤ«ãĥĬ ãĥŁ
ãĤ«ãĥĬ ãĤ·ãĤŃ
ãĤ«ãĤ¯ ãĤ·
ãĤ«ãĤ¯ ãĥłãĥ³
ãĤ¯ãĥ¼ ãĤµ
ãĤ¯ãĥ¼ ãĤµãĥ³
ãĥ¢ ãĥ¼ãĥ«ãĥ³
ãĥ¢ ãĥ¼ãĥ¢ãĥ¼
ãĥŀãĥ¼ãĥ« ãĥŀãĥ¼ãĥ«
ãĤ¿ãĥŀ ãĤ·ãĥĮ
ãĤ´ãĥ¼ ãĤ«ãĤ¸
ãĤ´ãĥ¼ ãĤµãĥ©
ãĥĿ ãĥ¼ãĥª
ãĤ¤ãĤ¸ ãĥĸãĥ³
ãĤ¤ãĤ¸ ãĥ³ãĤ°ãĥªãĤµãĥ³
ãĥĽ ãĥ¼ãĥĮ
ãĥĽ ãĥ¼ãĥŀ
ãĤ·ãĥŁ ãĤ¹ãĤ¯ãĥ³
ãĤ·ãĤ¸ ãĤŃ
ãĤ¿ãĤŃ ãĥīãĤ¥ãĥ³
ãĤ¯ãĥĮ ãĥĨãĤ£ãĥ¼
ãĥĢãĥ³ ãĥĨãĤ£
ãĥŀãĤ¿ ãĤ·ãĤŃ
ãĥĬãĥ¼ãĥ³ ãĤ¯ãĥĪãĤ¥
ãĤ«ãĥŀ ãĤµãĥ¼
ãĤ«ãĥŀ ãĥĸãĤ¯
ãĤ¯ãĥĲ ãĤ·
ãĤ¤ãĥª ãĥķãĥĭ
ãĤ¶ãĥ³ ãĥĦãĤ¡ãĥ³ãĤ·
ãĤµãĥ© ãĥ¼ãĥŀ
ãĤµãĥ© ãĤ¦ãĥ³
ãĤµãĥ© ãĤ«ãĤµãĥ©
ãĥĳãĥ© ãĤ·ãĤŃãĥ«ãĥ³
ãĤ¦ãĤ¯ ãĥĬãĤ¤
ãĥĲãĥ©ãĤ¤ ãĥłãĥĮ
ãĥ¼ãĥĵ ãĥ³
ãĥĶãĥĢ ãĥŁ
ãĥĶãĥĢ ãĥĨãĤ£
ãĥĮãĤ· ãĤ§ãĥ¼
ãĤ¦ãĤŃ ãĥĭãĥĵ
ãĤ¦ãĥª ãĥĴãĥ£ãĥ¼
ãĥ¼ãĥī ãĥ³ãĤ°
ãĥĮãĥ³ ãĥĦãĤ¡ãĥ¼ãĤ¹ãĥ³
ãĥĶãĥ³ ãĥĪãĥ¼
ãĤ¤ãĥ© ãĥ³
ãĤ¤ãĥ© ãĥĸãĥģ
ãĤ¯ãĥ© ãĤ¯
ãĤ¯ãĥ© ãĤµãĥ¼
ãĤ¯ãĥ© ãĤ¬ãĥ¼
ãĥ¤ãĥĬ ãĥłãĥĮ
ãĤ¹ãĤ¯ãĥª ãĥ¨ãĥ¼
ãĥĪãĤ¥ãĥ© ãĥ¼ãĥŀ
ãĥ¨ãĤ¤ ãĤµãĥ¼
ãĤ¹ãĥ« ãĤ¹ãĥ«
ãĤ°ãĥŀ ãĥ¼ãĥ³
ãĤ·ãĤ« ãĥ¼ãĤ·ãĤ«ãĥ¼ãĤ·
ãĤ¿ãĥĨãĤ£ ãĥĵãĥª
ãĤ¦ãĤµ ãĥ¼ãĥª
ãĤ¦ãĤµ ãĤ¦ãĥ³
ãĤ¦ãĤµ ãĥ¼ãĥªãĥ³
ãĥłãĥ« ãĤ¯
ãĥĥãĤŃ ãĥ©ãĥ¼
ãĥĳãĥĬãĤ· ãĤ±ãĥ¼
ãĥĻãĥ¼ ãĤ«ãĥĻãĥ¼
ãĤ¤ãĥĦãĤ¡ ãĥ¼ãĥ³
ãĥĮãĥŁ ãĥīãĤ¥ãĤ·
ãĥ¦ãĤ¯ ãĥłãĥĭ
ãĥ¼ãĥĥãģµ ãĥ³
ãĥļ ãĥ¼ãĥ©
ãĥļ ãĥ¼ãĥĸãĤ¯
ãĤ¢ãĥ¼ ãĤµ
ãĥķãĥ¼ ãĤ¿ãĤ¤
ãĥ¼ãĥªãĥ³ ãĥ¼ãĥŀ
ãĤ«ãĥ¼ãĤ· ãĥĹãĤ¹
ãĤ¯ãĥŀ ãĥĥãģµãĤ¡
ãĤ¦ãĤ¹ ãĥŀãĤ·
ãĤ¦ãĥĨãĤ£ ãĥĹãĤ¹
ãĥŀãĥ© ãĤ¯ãĥ³
ãĥĮãĥŁãĥ¼ ãĤ¹
ãĤ¢ãĤ« ãĥıãĥģ
ãĤ¢ãĥĦãĤ¡ ãĤ¹ãĥ³
ãĤ¢ãĥģ ãĥ¼ãĤ¢ãĥģ
ãĤ¢ãĤ¸ ãĥŀãĥ¼
ãĥŁãĥ¼ãĥĮ ãĥĥãĤ¹
ãĤ°ãĥ® ãĥ¼ãĥĨãĥ¼
ãĥ³ãĥŀ ãĥ¼ãĥ³
ãĥ³ãĥŀ ãĥĨãĥ¼
ãĤ¦ãĥ© ãĥ³ãĤ¿
ãĤµãĥĭ ãĥ¤ãĥ³
ãĥ¼ãĥĥãģµãĤ¡ ãĥ¼ãĤ¹ãĥ³
ãĤ·ãĥĨãĤ£ ãĤ¬ãĥ©
ãĤ·ãĥĨãĤ£ ãĤ«ãĥ¼ãĤ·
ãĥŀãĥ« ãĤ±ãĥ¼ãĥĨãĤ£
ãĤ¦ãĥ¼ ãĤ¢ãĥŁ
ãĤ¦ãĥ¼ ãĤµãĥª
ãĤ¿ãĥ© ãĥ¼ãĥĮ
ãĥķãĥĬ ãĥĲãĥ«
ãĥĸãĥ© ãĥ¼ãĥª
ãĤ³ãĥ¼ãĥ«ãĥ³ ãĤ±ãĥ³
ãĥ¼ãĥīãĤ¥ ãĤ¯
ãĤ·ãĤ¶ ãĤ¦ãĤ·ãĥĪãĤ¥
ãĥĳãĥĨãĤ£ ãĥ¯ãĤ¶
ãĥķãĤ¤ ãĤ«ãĤ¶
ãĤ®ãĥ¼ ãĤ®ãĥ¼ãĤ·
ãĤ¦ãĥ³ãĥĮ ãĤ¯ãĤ¸
ãĥľãĥ¼ ãĤ¹ãĥ¼
ãĤ¤ãĥĥ ãĤ·ãĥ³
ãĤ¤ãĥĥ ãĤ¿ãĥ³
ãĤ¤ãĥĥ ãĤ±ãĥ³
ãĤ¤ãĥĥ ãĥĿãĥ¼
ãĤ¦ãĥĵ ãĥĬãĥ¼
ãĥ¤ãĥĵ ãĥ«ãĥ³
ãĤ°ãĤ¤ ãĥķ
ãĥĳãĥĬãĤ·ãĤŃ ãĥĮãĥĭãĥ³ãĤ¬ãĤ¤
ãĤµãĤ¦ ãĥ«ãĥ³
ãĤ¸ãĥ© ãĥŀ
ãĥķãĥĪãĤ¥ ãĥĥãĥĦãĥ³
ãĥĸãĥĥ ãĥĪãĤ¥ãĥ«
ãĤ«ãĥ¼ãĥ© ãĤŃ
ãĤŃãĥĬãĤ¤ ãĥłãĥģ
ãĥİãĥ¼ãĤ· ãĥłãĥĮ
ãĤ¦ãĤ¬ãĥ³ ãĥĦ
ãĥĪãĤ¥ãĥīãĤ¥ ãĥŀãĥ«ãĥ³
ãĤ·ãĥĢ ãĥŁ
ãĤ·ãĥĢ ãĥŁãĥĮ
ãĤ«ãĥŀãĤ¤ ãĥ«ãĥ³
ãĤ¢ãĥª ãĥ¨ãĥ¼
ãĥĲãĤ¯ ãĥ¨ãĥ¼
ãĥ³ãĤ°ãĥ³ ãĤ¸ãĥŀ
ãĤ¬ãĥŀãĤ¸ ãĥĮ
ãĤ¨ ãĥ³
ãĥ¼ãĥĩãĤ£ ãĥĹãĤ¹
ãĤ·ãĤº ãĥŀãĥ«ãĥ³
ãĤ¯ãĥĢ ãĤ·
ãĤ¯ãĥĢ ãĤ¹ãĥ³
ãĤ¯ãĥĨãĤ£ ãĥłãĥĭ
ãĤ¯ãĥ©ãĤ· ãĥłãĥĮ
ãĥŁãĥ¼ãĥĬ ãĥ©ãĤ¤
ãĥīãĤ¥ãĥª ãĤ«
ãĤ½ãĥ¼ãĤŃ ãĥĸãĥĭ
ãĥ³ãĥ¼ãĥŀ ãĥĮãĥĥãģµãĤ¡
ãĥŁãĥ¼ãĥŀ ãĥ¼ãĥ«
ãĥŁãĥĦãĤ¡ ãĥ¼ãĥ«
ãĤ·ãĥĩãĤ£ ãĥ«ãĥ³
ãĥĬãĤ«ãĥ³ ãĥĨãĥ¼
ãĥıãĥ© ãĤ´ãĥ¼
ãĤ¤ãĥ³ãĤ¿ ãĥĮ
ãĥĽãĥ¼ ãĤ¬ãĥ¼ãĥĽãĥ¼
ãĤ«ãĥĸ ãĥĥãĥģ
ãĤ¤ãĥĬ ãĥłãĥĮ
ãĥŀãĤ¸ ãĥŁ
ãĥŀãĤ¸ ãĥłãĥĮ
ãĤ¢ãĥĢ ãĥĬãĤ·
ãĥŁãĥ³ãĤ° ãĥ«
ãĥķãĥ© ãĥĥãĤ¯ãĥ³
ãĤ¿ãĤ«ãĥĵ ãĥ¼ãĥĮ
ãĥ¼ãĥĽ ãĥ¼ãĤ¹ãĥ³
ãĤ«ãĤ« ãĥªãĥ³
ãĤŃãĥ§ ãĥ³ãĤ®ãĥ³
ãĤ¹ãĥ¼ãĥŀ ãĥ³
ãĤ¯ãĤ¬ãĥĭ ãĥĶãĥ¥ãĥ¼ãĥ«
ãĤ¿ãĥĸ ãĤ¤
ãĥĪãĤ¥ãĤº ãĥłãĥ³
ãĤ¸ãĥ§ ãĥ¼ãĥłãĥģ
ãĥĸãĤ¶ ãĤµ
ãĥīãĤ¥ãĥ¼ãĥł ãĥĪãĤ¥ãĥ³
ãĥ¦ãĥģ ãĥ«
ãĥ¼ãĥĥãģµãĤ¡ãĤ¤ ãĥłãĥĮ
ãĥĳãĤ¶ ãĤŃãĥ«ãĥ³
ãĤµãĥ¼ãĥĮ ãĥŁ
ãĤ¢ãĤº ãĤ«ãĥ¼
ãĤ¸ãĥ¼ãĥŀ ãĥŁ
ãĥıãĤ¤ ãĤ«ãĥ©ãĥ¼
ãĥĳãĥ¼ãĤ· ãĥĮ
ãĥĶãĥ§ ãĥ¼ãĤ·
ãĥĵãĥĢãĥ¼ ãĤ«ãĤ¹ãĥ³
ãĥĿãĥ¼ãĥĿ ãĥ¼
ãĥĿãĥ¼ãĥĿ ãĥ¼ãĤ·
ãĤ¯ãĥ®ãĥ³ ãĥĭãĥ³
ãĤ«ãĤµãĥ³ ãĥĳãĥ¼
ãĤ¤ãĥĢ ãĥķãĥĭ
ãĤ¤ãĥĢ ãĥªãĥ¼
ãĤŃãĥĥãĥĪãĤ¥ ãĥ¼
ãĤ¢ãĥ¼ãĥĳ ãĥ¼ãĥ¬ãĥ¼
ãĥŁãĥ¼ãĥĢ ãĥ³ãĤ°
ãĥĨãĤ£ãĥ© ãĥĨãĥ¼
ãĤ¯ãĥ³ãĤ¾ ãĥ¼ãĥ³
ãĥĶãĤµãĤ· ãĤ¤ãĥ¼
ãĤ«ãĥ¼ãĥĢ ãĥ«
ãĥĲãĤµãĥ³ ãĥĬãĥ«
ãĥĶãĤ¶ ãĥķãĥģ
ãĥĨãĤ£ãĥ¼ãĥĥ ãĤ·
ãĤ¶ãĥŀãĥ³ ãĥīãĤ¥ãĥ«ãĥ³
ãĤºãĥ³ãĤ° ãĥĭãĥģ
ãĤ·ãĤ§ãĥ³ ãĤ¹ãĥ«
ãĤ¤ãĥ¼ãĥĳ ãĤ¤
ãĤŃãĥ£ãĥ¼ãĥ³ ãĤ®
ãĤ¹ãĥ¼ãĥĶ ãĤµãĥ¼ãĥ«
ãĤ¿ãĤ¿ãĤ« ãĤ¦ãĥ³
ãĥłãĥİãĥ¼ ãĤ¢ãĥ©ãĥĮ
ãĤ¬ãĥĲ ãĥ¼ãĥķ
ãĥĢãĥĥãĤ« ãĥĨãĤ£
ãĥĵãĥªãĥ³ ãĥĬãĥ©ãĥĮ
ãĤ®ãĥ£ãĥ³ ãĥĨãĤ£
ãĥĹãĤ¹ãĤ±ãĥ³ ãĥĬãĥ¼
ãĥĿãĥ¼ãĥĦãĤ¡ ãĥ¼
ãĥŁãĥ¼ãĥķãĥ© ãĥĥãĤ«ãĤ¹ãĥ³
ãĥŀãĥĥãĤ·ãĥ³ ãĤ°
ãĥŁãĥ£ãĥ¼ ãĤ¦
ãĥĨãĥ¼ãĥķ ãĤ¡
ãĥĵãĤ³ãĥ¼ãĥ³ ãĥĥãģµãĤ¡
ãĤ°ãĥ³ãĤ° ãĥ«
ãĥ¦ãĥ¼ãĥľ ãĥ³
ãĥķãĥģãĥŀãĥģ ãĥ«
ãĥıãĥ³ãĤ¿ ãĤ°ãĥ®ãĥ¼ãĥĨãĥ¼
ãĥĳãĤ¤ãĥ¤ãĤŃ ãĤ¬ãĥŀ
ãĥŃãĥ¼ãĥķãĤ¯ ãĥŃãĥ¼ãĤ·
ãĤ¢ãĥģãĥ¼ãĤ¢ãĥģ ãĥ¼ãĤ·
¸ ł
â ¸ł
ã Ģ
ãĥ »
ãĥ¼ ãĤ¦ãĤ¤
ãĥ¼ ãĤµãĥ¼
ãĥ¼ ãĤ¿ãĥŀ
ãĥ¼ ãĤ¤ãĥ¼
ãĥ³ ãĥ¼
ãĥ³ ãĤ¯ãĥ³
ãĥ³ ãĥĲãĤ¿
ãĥ³ ãĤºãĥ³
ãĥ³ ãĥĪãĥ¼
ãĥ³ ãĤ¸ãĥ«ãĥ³
ãĥ³ ãĥĻãĥ¼
ãĥ³ ãĤ«ãĤ¦ãĥ³
ãĥ³ ãĥĦãĤ¡ãĥ³
ãĥ³ ãĥĳãĥ¼ãĥĮ
ãĥ³ ãĥĻãĥ¼ãĥ«ãĥ³
ãĥ¼ãĥ ļ
ãĤ· ãĥ¼ãĥ«ãĥ³
ãĤ· ãĥĹãĤ¹
ãĤ· ãĥ¼ãĤŃ
ãĤ· ãĥ©ãĤ¹ãĥ³
ãĤ· ãĥ¼ãĥ¤
ãĤ· ãĥ¼ãĥĸ
ãĤ· ãĥ¼ãĥĲ
ãĤ· ãĤ«ãĤµ
ãĤ· ãĤ°ãĥ³
ãĤ· ãĥ¼ãĥĨãĤ£
ãĤ· ãĥ¼ãĥĹ
ãĤ· ãĥĪãĤ¥ãĥ«ãĥ³
ãĤ· ãĤºãĥ³
ãĤ· ãĤ«ãĤ¯
ãĤ· ãĤ´ãĥ¼
ãĤ· ãĥĢãĤŃ
ãĤ· ãĥ¼ãĥ¨
ãĤ· ãĥĻãĥ¼
ãĤ· ãĤ²
ãĤ· ãĤ®ãĥª
ãĤ· ãĤºãĥŁ
ãĤ· ãĥİãĥ¼
ãĤ· ãĥĸãĤ¯
ãĤ· ãĤ¿ãĥ³ãĥĨãĤ£ãĥ³
ãĤ· ãĥ¼ãĥĲãĤ¤
ãĤ· ãĥ¼ãĥĥãģµãĤ¡ãĤ¤
ãĤ· ãĥ¼ãĤŃãĤ¹ãĥ³
ãĤ· ãĥĥãĤ«ãĤ¯
ãĤ· ãĤ¬ãĥ¼ãĤ·
ãĤ· ãĥ¼ãĥĢãĥĭ
ãĤ· ãĥĪãĥ¼ãĥ³
ãĤ· ãĥ¼ãĥķãĥģ
ãĤ· ãĥ¢ãĥ¼ãĥ«ãĥ³
ãĤ« ãĥĥ
ãĤ« ãĥ¤
ãĤ« ãĥĬãĥ¼
ãĤ« ãĥ¼ãĥĸ
ãĤ« ãĥľ
ãĤ« ãĥĥãĥĦãĤ¡
ãĤ« ãĤ«ãĤ¹ãĥ³
ãĤ« ãĥ¼ãĥ¬
ãĤ« ãĥ¼ãĥĨãĤ£
ãĤ« ãĥ¼ãĥ©ãĤ¹ãĥ³
ãĤ« ãĥ¬ãĥ¼
ãĤ« ãĥĨãĤ£ãĥ«ãĥ³
ãĤ« ãĥĢãĥ³
ãĤ« ãĥĢãĥ«
ãĤ« ãĥĥãĥĪãĤ¥
ãĤ« ãĥĮãĤ·
ãĤ« ãĥĥãĥĨãĤ£
ãĤ« ãĥĲãĥ¼
ãĤ« ãĥ¼ãĥªãĥ³
ãĤ« ãĥĮãĥ¼
ãĤ« ãĥ¼ãĥĸãĥ«
ãĤ« ãĥĢãĤ«
ãĤ« ãĥŃãĥ¼
ãĤ« ãĥ¼ãĥĬãĥ¼ãĥ³
ãĤ« ãĥĮãĤ«
ãĤ« ãĤ±ãĥ¼ãĤ·
ãĤ« ãĥ¼ãĥĲãĤ¤
ãĤ« ãĥŀãĥ³ãĤ¿
ãĤ« ãĥŃãĥ¼ãĤ·
ãĤ¤ ãĥ¤
ãĤ¤ ãĤµãĥ³
ãĤ¤ ãĥ¤ãĥ¼
ãĤ¤ ãĤ¹ãĤ¯
ãĤ¤ ãĥ©ãĤ¤
ãĤ¤ ãĤ¹ãĤ¯ãĥ³
ãĤ¤ ãĤ¾
ãĤ¤ ãĤŃãĥ³
ãĤ¤ ãĤŃãĥ«ãĥ³
ãĤ¤ ãĥ¼ãĤ¸
ãĤ¤ ãĥ¼ãĥĲ
ãĤ¤ ãĥªãĥłãĥĮ
ãĤ¤ ãĤ³ãĥ¼
ãĤ¤ ãĥŃ
ãĤ¤ ãĥ¼ãĥĶ
ãĤ¤ ãĤ§ãĥ¼
ãĤ¤ ãĥĥãĥģãĥ³
ãĤ¤ ãĥŀãĤ·
ãĤ¤ ãĤ¿ãĥ©
ãĤ¤ ãĥĲãĥģ
ãĤ¤ ãĥİãĥ¼
ãĤ¤ ãĥĵãĥ«ãĥ³
ãĤ¤ ãĥķãĥĬãĥ¼
ãĤ¤ ãĥ¼ãĥ©ãĥªãĥ³
ãĤ¤ ãĥ¼ãĥŃ
ãĤ¤ ãĥĳãĥ©ãĥĥãĥĦãĤ¡
ãĤ¤ ãĥ¼ãĥĪãĤ¥ãĤ·
ãĥ« ãĥĬ
ãĥ« ãĥ¦ãĥ¼
ãĥ« ãĤ¶ãĥ¼ãĥĨãĥ¼
ãĥ« ãĤ¯ãĥ³ãĤ¬ãĥģ
ãĤŃ ãĥŁ
ãĤŃ ãĤ¬
ãĤŃ ãĥ¼ãĥ«ãĥ³
ãĤŃ ãĥ¯
ãĤŃ ãĤµãĥ¼
ãĤŃ ãĤ«ãĤ¶
ãĤŃ ãĤ¬ãĤ¤
ãĤŃ ãĤ¶ãĥ³
ãĤŃ ãĥ¼ãĥ¦
ãĤŃ ãĥĸãĥ«
ãĤŃ ãĥ©ãĥªãĥ³
ãĤŃ ãĥĦãĤ¡ãĥ³
ãĤŃ ãĥ¼ãĥľ
ãĤŃ ãĥ©ãĤ¦ãĥ³
ãĤŃ ãĥ¼ãĤ·ãĤŃãĥ«ãĥ³
ãĤŃ ãĥ¢ãĥ¼
ãĤŃ ãĥ³ãĥĢãĥ³
ãĤŃ ãĥįãĥ¼ãĥ³
ãĤ¹ ãĥłãĥĮ
ãĤ¹ ãĥĬãĤ«
ãĤ¹ ãĥ¼ãĥł
ãĤ¹ ãĥ¼ãĤŃ
ãĤ¹ ãĥĬãĤ¤
ãĤ¹ ãĤ¤ãĥ«ãĥ³
ãĤ¹ ãĥªãĥ«ãĥ³
