{"<s>":0,"<pad>":1,"</s>":2,"<unk>":3,"<mask>":4,"!":5,"\"":6,"#":7,"$":8,"%":9,"&":10,"'":11,"(":12,")":13,"*":14,"+":15,",":16,"-":17,".":18,"/":19,"0":20,"1":21,"2":22,"3":23,"4":24,"5":25,"6":26,"7":27,"8":28,"9":29,":":30,";":31,"<":32,"=":33,">":34,"?":35,"@":36,"A":37,"B":38,"C":39,"D":40,"E":41,"F":42,"G":43,"H":44,"I":45,"J":46,"K":47,"L":48,"M":49,"N":50,"O":51,"P":52,"Q":53,"R":54,"S":55,"T":56,"U":57,"V":58,"W":59,"X":60,"Y":61,"Z":62,"[":63,"\\":64,"]":65,"^":66,"_":67,"`":68,"a":69,"b":70,"c":71,"d":72,"e":73,"f":74,"g":75,"h":76,"i":77,"j":78,"k":79,"l":80,"m":81,"n":82,"o":83,"p":84,"q":85,"r":86,"s":87,"t":88,"u":89,"v":90,"w":91,"x":92,"y":93,"z":94,"{":95,"|":96,"}":97,"~":98,"¡":99,"¢":100,"£":101,"¤":102,"¥":103,"¦":104,"§":105,"¨":106,"©":107,"ª":108,"«":109,"¬":110,"®":111,"¯":112,"°":113,"±":114,"²":115,"³":116,"´":117,"µ":118,"¶":119,"·":120,"¸":121,"¹":122,"º":123,"»":124,"¼":125,"½":126,"¾":127,"¿":128,"À":129,"Á":130,"Â":131,"Ã":132,"Ä":133,"Å":134,"Æ":135,"Ç":136,"È":137,"É":138,"Ê":139,"Ë":140,"Ì":141,"Í":142,"Î":143,"Ï":144,"Ð":145,"Ñ":146,"Ò":147,"Ó":148,"Ô":149,"Õ":150,"Ö":151,"×":152,"Ø":153,"Ù":154,"Ú":155,"Û":156,"Ü":157,"Ý":158,"Þ":159,"ß":160,"à":161,"á":162,"â":163,"ã":164,"ä":165,"å":166,"æ":167,"ç":168,"è":169,"é":170,"ê":171,"ë":172,"ì":173,"í":174,"î":175,"ï":176,"ð":177,"ñ":178,"ò":179,"ó":180,"ô":181,"õ":182,"ö":183,"÷":184,"ø":185,"ù":186,"ú":187,"û":188,"ü":189,"ý":190,"þ":191,"ÿ":192,"Ā":193,"ā":194,"Ă":195,"ă":196,"Ą":197,"ą":198,"Ć":199,"ć":200,"Ĉ":201,"ĉ":202,"Ċ":203,"ċ":204,"Č":205,"č":206,"Ď":207,"ď":208,"Đ":209,"đ":210,"Ē":211,"ē":212,"Ĕ":213,"ĕ":214,"Ė":215,"ė":216,"Ę":217,"ę":218,"Ě":219,"ě":220,"Ĝ":221,"ĝ":222,"Ğ":223,"ğ":224,"Ġ":225,"ġ":226,"Ģ":227,"ģ":228,"Ĥ":229,"ĥ":230,"Ħ":231,"ħ":232,"Ĩ":233,"ĩ":234,"Ī":235,"ī":236,"Ĭ":237,"ĭ":238,"Į":239,"į":240,"İ":241,"ı":242,"Ĳ":243,"ĳ":244,"Ĵ":245,"ĵ":246,"Ķ":247,"ķ":248,"ĸ":249,"Ĺ":250,"ĺ":251,"Ļ":252,"ļ":253,"Ľ":254,"ľ":255,"Ŀ":256,"ŀ":257,"Ł":258,"ł":259,"Ń":260,"ãĥ":261,"ãĤ":262,"čĊ":263,"ãĥ¼":264,"ãĥ³":265,"ãĥ¼ãĥ":266,"ãĤ·":267,"ãĤ«":268,"ãĤ¤":269,"ãĥ«":270,"ãĤŃ":271,"ãĤ¹":272,"ãĥĬ":273,"ãĤ¯":274,"ãĤ¥":275,"ãĥŀ":276,"ãĤ¿":277,"ãĥĮ":278,"ãĥĳ":279,"ãĤ¦":280,"ãĤµ":281,"ãĥł":282,"ãĥ©":283,"ãĥĪ":284,"ãĥĥ":285,"ãĤ¢":286,"ãĥª":287,"ãĥĪãĤ¥":288,"ãĥ«ãĥ³":289,"ãĥģ":290,"ãĥĲ":291,"ãĥŁ":292,"ãĥ¤":293,"ãĥĭ":294,"ãĤ¹ãĥ³":295,"ãĤ¸":296,"ãĤ¬":297,"ãĥķ":298,"ãĤ£":299,"ãĥĶ":300,"ãĥĸ":301,"ãĥĨ":302,"ãĥĢ":303,"ãĥĵ":304,"ãĥĨãĤ£":305,"ãĤ°":306,"ãĤ¶":307,"ãĥī":308,"ãĥ¼ãĥ³":309,"ãĥ¼ãĥ«":310,"ãĤ¡":311,"ãĥīãĤ¥":312,"ãĥ¼ãĤ·":313,"ãĥ¦":314,"ãĤ¯ãĥ³":315,"ãĥłãĥĮ":316,"ãĥĦ":317,"ãĥĹ":318,"ãĤ®":319,"ãĥ¼ãĥ©":320,"ãĤ·ãĤŃ":321,"ãĥ¼ãĥĮ":322,"ãĥ¼ãĥŀ":323,"ãĥ¼ãĥª":324,"ãĤº":325,"ãģ":326,"ãģµ":327,"ãĥ¼ãĤ¹ãĥ³":328,"ãĤµãĥ³":329,"ãĥĦãĤ¡":330,"ãĤ³":331,"ãĥ¼ãĥ«ãĥ³":332,"ãĥĥãģµ":333,"ãĥĹãĤ¹":334,"ãĥłãĥ³":335,"ãĤ«ãĤ¤":336,"ãĥ³ãĤ¬":337,"ãĤ¦ãĥ³":338,"ãĤ½":339,"ãĥĥãģµãĤ¡":340,"ãĥĳãĥĬ":341,"ãĥĳãĥ³":342,"ãĥķãĥģ":343,"ãĥŀãĤ¤":344,"ãĥĬãĤ«":345,"ãĥ¼ãĥĬ":346,"ãĥ¤ãĥ¼":347,"ãĥĲãĤ¿":348,"ãĥ¼ãĥł":349,"ãĥ¨":350,"ãĤ¹ãĤ¯":351,"ãĥĬãĥŀ":352,"ãĥĥãĤµ":353,"ãĤ±":354,"ãĥŁãĥ¼":355,"ãĥĬãĥ¼":356,"ãĤ«ãĤ¿":357,"ãĤ·ãĤ¥":358,"ãĤ«ãĥ©":359,"ãĤ«ãĥ¼":360,"ãĥĸãĥ³":361,"ãĥŁãĥ«ãĥ³":362,"ãĤ·ãĥ³":363,"ãĥĶãĤŃ":364,"ãĤ´":365,"ãĥ©ãĤ¤":366,"ãĥ¼ãĥĥ":367,"ãĤ«ãĥ³":368,"ãĥĩ":369,"ãĥĪãĤ¥ãĥª":370,"ãĥ¼ãĤŃ":371,"ãĥ³ãĤ°":372,"ãĥ¼ãĥķ":373,"ãĥ©ãĤ¹ãĥ³":374,"ãĥĪãĤ¥ãĥ³":375,"ãĥĲãĤ«":376,"ãĥĬãĤ¤":377,"ãĤŃãĥł":378,"ãĥİ":379,"ãĥ¼ãĥ¤":380,"ãĥ¤ãĥŀ":381,"ãĤ¹ãĤ¯ãĥ³":382,"ãĤ¦ãĥĸ":383,"ãĤ¾":384,"ãĥ³ãĥĢ":385,"ãĥĩãĤ£":386,"ãĥŀãĥ¼":387,"ãĥªãĥ³":388,"ãĥ¯":389,"ãĤŃãĥ³":390,"ãĤŃãĥ«ãĥ³":391,"ãĥ¥":392,"ãĥĥãĤ¯":393,"ãĥĭãĥ³":394,"ãĥ¼ãĤ¸":395,"ãĤ«ãĤ¸":396,"ãĥ£":397,"ãĥ¼ãĥĳ":398,"ãĥĲãĥ³":399,"ãĤ¦ãĤ·":400,"ãĥłãĥĭ":401,"ãĤ¢ãĤ¬":402,"ãĥ§":403,"ãĤª":404,"ãĤ¤ãĥ«ãĥ³":405,"ãĥŀãĥª":406,"ãĥ¼ãĥĸ":407,"ãĥ¬":408,"ãĥı":409,"ãĤ§":410,"ãĥ¼ãĥĲ":411,"ãĥĳãĥ¼":412,"ãĤ¦ãĤ¤":413,"ãĥľ":414,"ãĥłãĥģ":415,"ãĥ¼ãĥĨ":416,"ãĤ·ãĥ¼":417,"ãĥĥãĥĦãĤ¡":418,"ãĥªãĥ«ãĥ³":419,"ãĥŁãĤ¸":420,"ãĥ¤ãĥ³":421,"ãĥĥãĤ«":422,"ãĤµãĥ¼":423,"ãĤ¸ãĥ³":424,"ãĤ·ãĤ¥ãĤ«":425,"ãĥ¼ãĥŁ":426,"ãĥĳãĤ¿":427,"ãĤ¤ãĤ·":428,"ãĥĬãĥ³":429,"ãĥĥãĤ¹":430,"ãĤ¢ãĥ©":431,"ãĥ¦ãĥ¼":432,"ãĥķãĤ¿":433,"ãĥĥãĥģ":434,"ãĥªãĥłãĥĮ":435,"ãĤ¿ãĥ¼":436,"ãĤ¢ãĤ¤":437,"ãĥŁãĥģ":438,"ãĤ¯ãĤ¤":439,"ãĤ«ãĤ¹ãĥ³":440,"ãĥ¼ãĥĭ":441,"ãĤ«ãĤ¶":442,"ãĤ·ãĥŀ":443,"ãĤ¦ãĥ¤":444,"ãĥĭãĥ¼":445,"ãĤ³ãĥ¼":446,"ãĥ¼ãĥĪ":447,"ãĥĳãĥ¤":448,"ãĥĬãĤ¬":449,"ãĥĻ":450,"ãĤ«ãĤŃ":451,"ãĤ¤ãĤŃ":452,"ãĤ¯ãĥ«":453,"ãĥīãĤ¥ãĥ«":454,"ãĥ¨ãĥ¼":455,"ãĥ¼ãĥĢ":456,"ãĤ·ãĥ©":457,"ãĤ¿ãĥ³":458,"ãĥĳãĤ¤":459,"ãĥĨãĤ£ãĥ³":460,"ãĥĨãĤ£ãĥ¼":461,"ãĥĥãģµãĤ¡ãĤ¤":462,"ãĥŀãĥ«ãĥ³":463,"ãĤ¦ãĥł":464,"ãĤŃãĥ¼":465,"ãĤ¢ãĥ³":466,"ãĥĶãĥ¼":467,"ãĥ¡":468,"ãĥĳãĥĢ":469,"ãĤ·ãĥĵ":470,"ãĥĲãĥ©":471,"ãĤ¹ãĥĸ":472,"ãĤ¦ãĥģ":473,"ãĥ¼ãĥģ":474,"ãĤ¤ãĥ³":475,"ãĤ¿ãĤ«":476,"ãĥĭãĥĵ":477,"ãĥĪãĤ¥ãĤ·":478,"ãĤ°ãĥĪãĤ¥":479,"ãĥ®":480,"ãĥŁãĥ³":481,"ãĥ¼ãĥĪãĤ¥":482,"ãĥŃ":483,"ãĥĬãĤ·":484,"ãĥĪãĤ¥ãĥ«":485,"ãĥĶãĤµ":486,"ãĤ®ãĥ«ãĥ³":487,"ãĥĬãĥŀãĥ³ãĥĢ":488,"ãĤ¦ãĤ¿":489,"ãĤ¬ãĤ¤":490,"ãĥ¼ãĥĶ":491,"ãĤ«ãĤµ":492,"ãĥŀãĥģ":493,"ãĤ·ãĥ«":494,"ãĤ·ãĤ¿":495,"ãĥį":496,"ãĤµãĤŃ":497,"ãĤ°ãĥ«":498,"ãĥ©ãĤ·":499,"ãĥĵãĥ¼":500,"ãĥĢãĤ¤":501,"ãĤ·ãĤŃãĥ«ãĥ³":502,"ãĥķãĤ¯":503,"ãĤ°ãĥ³":504,"ãĤ±ãĥ¼":505,"ãĤ¤ãĥģ":506,"ãĤ¤ãĤº":507,"ãĤ¢ãĤµ":508,"ãĥķãĥ³":509,"ãĥĬãĥ«":510,"ãĥĸãĤ·":511,"ãĤ«ãĤ·":512,"ãĥ¼ãĥ¬":513,"ãĥĮãĥģ":514,"ãĥĳãĥģ":515,"ãĥ¼ãĥĨãĤ£":516,"ãĥŀãĤŃ":517,"ãĥ©ãĥ¼":518,"ãĤ¢ãĥĲ":519,"ãĤ¿ãĤ¤":520,"ãĤ¢ãĥŀ":521,"ãĤ¢ãĤ¦":522,"ãĥĲãĥ«":523,"ãĥĴ":524,"ãĤ¢ãĤ¿":525,"ãĥĲãĥª":526,"ãĤ½ãĥ¼":527,"ãĤ¹ãĥ¼":528,"ãĥ¼ãĥ©ãĤ¹ãĥ³":529,"ãĤŃãĤ·":530,"ãĥĬãĤŃ":531,"ãĥĬãĥ©":532,"ãĤ¢ãĥŁ":533,"ãĥ³ãĤ¬ãĤ¤":534,"ãĥ¬ãĥ¼":535,"ãĥ¼ãĥĹ":536,"ãĤ¢ãĤ·":537,"ãĥĪãĤ¥ãĥ«ãĥ³":538,"ãĤºãĥ³":539,"ãĤ«ãĥ«ãĥ³":540,"ãĥŀãĥ³":541,"ãĤ¬ãĥ¼":542,"ãĤ¬ãĥ³":543,"ãĥ£ãĥ¼":544,"ãĤ«ãĥĬ":545,"ãĤ«ãĤ¯":546,"ãĤ¯ãĥ¼":547,"ãĥ¼ãĥłãĥĮ":548,"ãĥ¢":549,"ãĥŀãĥ¼ãĥ«":550,"ãĤ¿ãĥŀ":551,"ãĥĳãĤ¸":552,"ãĥłãĥĪãĤ¥":553,"ãĥĲãĤ¹ãĥ³":554,"ãĥĨãĤ£ãĥ«ãĥ³":555,"ãĤ´ãĥ¼":556,"ãĤ¾ãĥ¼":557,"ãĥ¥ãĥ¼":558,"ãĥ§ãĥ¼":559,"ãĥĿ":560,"ãĤ¤ãĤ¸":561,"ãĥĲãĤ¤":562,"ãĥĽ":563,"ãĤ·ãĥŁ":564,"ãĤ·ãĤ¸":565,"ãĤ¿ãĤŃ":566,"ãĤ¶ãĥ¼":567,"ãĤ©":568,"ãĤ¤ãĥ¼":569,"ãĤ¯ãĥĮ":570,"ãĥĪãĤ¥ãĥł":571,"ãĤ¸ãĥ«":572,"ãĤ·ãĤ¥ãĤ«ãĤ¤":573,"ãĥĢãĥ³":574,"ãĥīãĤ¥ãĥ¼":575,"ãĤ·ãĥģ":576,"ãĤ¯ãĥĪãĤ¥":577,"ãĥŀãĤ¿":578,"ãĤ¬ãĥ©":579,"ãĤ«ãĥ«":580,"ãĤŃãĥłãĥĮ":581,"ãĥĬãĥ¼ãĥ³":582,"ãĥĭãĥģ":583,"ãĥĸãĥª":584,"ãĥĢãĥ«":585,"ãĤ¶ãĥ©":586,"ãĥ¼ãĥ¯":587,"ãĤ«ãĥŀ":588,"ãĤ¤ãĥ«":589,"ãĤ¯ãĥĲ":590,"ãĥĳãĥ«":591,"ãĥĳãĥ«ãĥ³":592,"ãĥ³ãĥ¼ãĥĬ":593,"ãĤ¤ãĥª":594,"ãĥĪãĥ¼":595,"ãĥĵãĤŃ":596,"ãĤ¶ãĥ³":597,"ãĤ§ãĥ¼":598,"ãĤµãĥ©":599,"ãĥĥãĤ¿":600,"ãĥĦãĤ©":601,"ãĥĳãĥ©":602,"ãĥĳãĥĭ":603,"ãĤ¦ãĤ¯":604,"ãĤµãĤ¤":605,"ãĥĥãĥĪãĤ¥":606,"ãĥĲãĥ©ãĤ¤":607,"ãĤºãĥ¼":608,"ãĥĥãĥĦãĤ¡ãĥ¼ãĤ¹ãĥ³":609,"ãĥ¡ãĥ¼":610,"ãĥ¼ãĥ¬ãĥ¼":611,"ãĥ¼ãĥĵ":612,"ãĥĥãĤµãĥ³":613,"ãĥĶãĥĢ":614,"ãĥĵãĥ³":615,"ãĥ¼ãĥĨãĥ¼":616,"ãĥĮãĤ·":617,"ãĥĳãĥª":618,"ãĥĪãĤ¥ãĤŃ":619,"ãĤ¦ãĤŃ":620,"ãĤ¦ãĥª":621,"ãĤ¢ãĥĪãĤ¥":622,"ãĥĢãĥ©":623,"ãĥ¼ãĥī":624,"ãĤ«ãĥª":625,"ãĤ«ãĥŁ":626,"ãĥĮãĥ³":627,"ãĥĶãĥ³":628,"ãĥĢãĤŃ":629,"ãĥ¼ãĤ·ãĤŃ":630,"ãĤ·ãĥĪãĤ¥":631,"ãĤ¤ãĥ©":632,"ãĥĬãĥ«ãĥ³":633,"ãĥĬãĥĵ":634,"ãĤ¸ãĥ¼":635,"ãĥĨãĥ¼":636,"ãĤ·ãĥĬ":637,"ãĤ¯ãĤ·":638,"ãĤ¯ãĥ©":639,"ãĥ¤ãĥĬ":640,"ãĤ¬ãĥŀ":641,"ãĥķãĤŃ":642,"ãĥķãĥģãĥ«":643,"ãĤ¹ãĤ¯ãĥª":644,"ãĤ¹ãĥĸãĥ«":645,"ãĥ¼ãĥ¯ãĥ³":646,"ãĤ·ãĥĭ":647,"ãĥĥãĥĨãĤ£":648,"ãĥĪãĤ¥ãĥ©":649,"ãĥ¼ãĥłãĥĨãĤ£":650,"ãĥ¨ãĤ¤":651,"ãĤ¦ãĥłãĤ¤":652,"ãĤ¹ãĥ«":653,"ãĤ¯ãĤ¸":654,"ãĤ¢ãĤŃ":655,"ãĥĪãĤ¥ãĤ¯":656,"ãĥķãĤ«":657,"ãĤ°ãĥŀ":658,"ãĤ·ãĤ«":659,"ãĥĬãĥª":660,"ãĤ¿ãĤ¿":661,"ãĤ¿ãĥĨãĤ£":662,"ãĥĮãĥĵ":663,"ãĤ¦ãĤµ":664,"ãĥłãĥ©":665,"ãĥĪãĤ¥ãĤ¸":666,"ãĥĦãĥ³":667,"ãĤ«ãĤ¤ãĤ¹ãĥ³":668,"ãĤ¤ãĤ«":669,"ãĤŃãĤ¹ãĥ³":670,"ãĥłãĥ«":671,"ãĥĪãĤ¥ãĥĵ":672,"ãĥĭãĥ³ãĤ¬ãĤ¤":673,"ãĥķãĤ¯ãĥ³":674,"ãĥĸãĥ¼":675,"ãĥ³ãĤ®":676,"ãĥ¼ãĥ¦":677,"ãĥ¼ãĥ¨":678,"ãĥªãĤµãĥ³":679,"ãĥĢãĥ¼":680,"ãĥĨãĤ£ãĥĢ":681,"ãĤ¶ãĤ¹ãĥ³":682,"ãĥĳãĥ³ãĤ¿":683,"ãĥĮãĥ¼ãĤ·":684,"ãĥłãĤ·":685,"ãĥĥãĤŃ":686,"ãĥĲãĥĬ":687,"ãĥĲãĥ¼ãĤŃ":688,"ãĤ¸ãĥ«ãĥ³":689,"ãĤ¬ãĥ«ãĥ³":690,"ãĥķãĥĭ":691,"ãĥĵãĥª":692,"ãĤ¶ãĥ¼ãĥĨãĥ¼":693,"ãĤ«ãĤ¤ãĥ«ãĥ³":694,"ãĥĳãĥĬãĤ·":695,"ãĥĻãĥ¼":696,"ãĤ¤ãĥĦãĤ¡":697,"ãĥŀãĥ¼ãĤ·":698,"ãĥĮãĥŁ":699,"ãĥĮãĥ¼ãĥ«":700,"ãĥĶãĥ«":701,"ãĥ¦ãĤ¯":702,"ãĥ³ãĤ¬ãĥģ":703,"ãĥ¼ãĥłãĥ³":704,"ãĥ¼ãĥĥãģµ":705,"ãĥļ":706,"ãĤ«ãĥĭ":707,"ãĥĬãĥĬ":708,"ãĥĬãĥĢ":709,"ãĥĬãĥ¼ãĥŀ":710,"ãĥłãĥĨãĤ£":711,"ãĤ¢ãĥ¼":712,"ãĥĲãĥ¼":713,"ãĥķãĥ¼":714,"ãĥķãĥ«":715,"ãĥ¼ãĥªãĥ³":716,"ãĤ³ãĥ¼ãĥŀ":717,"ãĤ²":718,"ãĤ«ãĥĵ":719,"ãĤ«ãĥ¼ãĤ·":720,"ãĥĬãĤ¹ãĥ³":721,"ãĤ¯ãĥŀ":722,"ãĤ¯ãĥłãĥ³":723,"ãĥĮãĥ¼":724,"ãĥĮãĥ¼ãĥĮ":725,"ãĤ¦ãĤ¹":726,"ãĤ¦ãĥĨãĤ£":727,"ãĤµãĥĵ":728,"ãĥĥãĤ¹ãĥ³":729,"ãĥĥãĤ¯ãĥ³":730,"ãĥĥãĤ³ãĥ¼":731,"ãĤ¢ãĥĨãĤ£":732,"ãĤ¢ãĤ®":733,"ãĥīãĤ¥ãĤ·":734,"ãĥĳãĥ³ãĥĮ":735,"ãĤ±ãĥ³":736,"ãĥ¼ãĥ¤ãĥ¼":737,"ãĥĳãĤ¿ãĥ©":738,"ãĤ«ãĥĸãĥ³":739,"ãĥŀãĥ©":740,"ãĤ¿ãĥĵ":741,"ãĥĮãĥŁãĥ¼":742,"ãĥĳãĤ«":743,"ãĥĳãĥŀ":744,"ãĤ¦ãĥĮ":745,"ãĤ¢ãĤ«":746,"ãĤ¢ãĤ¶":747,"ãĤ¢ãĥĦãĤ¡":748,"ãĥīãĥ¼":749,"ãĥ¯ãĤ¶":750,"ãĤ·ãĥĮ":751,"ãĤ«ãĤ¦":752,"ãĥĬãĥ¼ãĥĮ":753,"ãĤ¯ãĥģ":754,"ãĥĳãĤ·":755,"ãĤ¢ãĥģ":756,"ãĤ¢ãĤ¸":757,"ãĥĲãĤŃ":758,"ãĥŁãĥ¼ãĥĮ":759,"ãĥĸãĥ«":760,"ãĥĸãĥĭ":761,"ãĤ°ãĥ®":762,"ãĥĲãĤ«ãĥª":763,"ãĥĥãĥģãĥ³":764,"ãĥ³ãĥŀ":765,"ãĤ·ãĤ§":766,"ãĤ«ãĥĦ":767,"ãĤ¤ãĥŁ":768,"ãĤ¯ãĤµ":769,"ãĥŀãĥŁ":770,"ãĥŀãĤ¹ãĥ³":771,"ãĥŀãĥ¼ãĤ¹ãĥ³":772,"ãĤ¿ãĥģ":773,"ãĤ¦ãĥ©":774,"ãĤµãĥĭ":775,"ãĥĥãĥĪ":776,"ãĥ¤ãĥ¼ãĥ©":777,"ãĥīãĤ¥ãĥ³":778,"ãĥ¼ãĥłãĥģ":779,"ãĥĦãĤ©ãĥ¼":780,"ãĥ¼ãĥĥãģµãĤ¡":781,"ãĤ·ãĥĨãĤ£":782,"ãĤ«ãĤ«ãĥ«ãĥ³":783,"ãĥŀãĥ«":784,"ãĥĳãĤ®":785,"ãĤ¦ãĥ¼":786,"ãĤµãĤ¹ãĥ³":787,"ãĤ¢ãĥ¼ãĤ¹ãĥ³":788,"ãĤ¬ãĥª":789,"ãĤ¶ãĤ¤":790,"ãĥĹãĥ¼":791,"ãĤ¹ãĤ¯ãĥ©ãĤ¤":792,"ãĥ¼ãĥĥãĤµ":793,"ãĤ¯ãĥª":794,"ãĤ¯ãĥĵ":795,"ãĥŀãĤ·":796,"ãĤ¿ãĥ©":797,"ãĤ¿ãĥĭ":798,"ãĤ¸ãĥĬ":799,"ãĤ¸ãĥĸãĥ³":800,"ãĥķãĥĬ":801,"ãĥĶãĥ©":802,"ãĥĸãĥ©":803,"ãĥīãĤ¥ãĥł":804,"ãĥ¼ãĥªãĥłãĥĮ":805,"ãĤ³ãĥ¼ãĥ«ãĥ³":806,"ãĥ¼ãĥīãĤ¥":807,"ãĤ·ãĤ¶":808,"ãĥĳãĥĨãĤ£":809,"ãĤ¦ãĥĪãĤ¥":810,"ãĥĪãĥ³":811,"ãĥĪãĤ¥ãĥŀ":812,"ãĥĲãĥ«ãĥ³":813,"ãĤ¬ãĥĭ":814,"ãĥķãĤ¤":815,"ãĥĹãĥ¼ãĥ«":816,"ãĤ®ãĥ¼":817,"ãĥ¼ãĥªãĥ«ãĥ³":818,"ãĤ³ãĥ¼ãĤ·":819,"ãĤ¦ãĥ³ãĥĮ":820,"ãĤ½ãĥ¼ãĤ¸":821,"ãĥ¼ãĥĬãĥ¼ãĥĮ":822,"ãĥ¨ãĥ¼ãĥ³":823,"ãĥĥãĤ¯ãĥłãĥ³":824,"ãĤ·ãĤ°ãĥĪãĤ¥":825,"ãĤŃãĥ¼ãĥĮ":826,"ãĥŀãĥĬãĥŀ":827,"ãĥĮãĥĥãģµãĤ¡":828,"ãĤµãĤ¯":829,"ãĤ¢ãĥ¤":830,"ãĥĲãĤµ":831,"ãĥ¤ãĥīãĤ¥":832,"ãĤ®ãĥ³":833,"ãĥĦãĤ¡ãĤ¹ãĥ³":834,"ãĥľãĥ¼":835,"ãĤ·ãĥ¼ãĤ·":836,"ãĤ«ãĤ¦ãĥ³":837,"ãĤ¤ãĥĥ":838,"ãĥĮãĥ¼ãĥª":839,"ãĤ¦ãĥĵ":840,"ãĤµãĤ«":841,"ãĤµãĥª":842,"ãĥłãĤ¤":843,"ãĥĲãĥģ":844,"ãĥ¤ãĤŃ":845,"ãĥ¤ãĥĵ":846,"ãĥĭãĥ¼ãĥĲ":847,"ãĤ°ãĤ¤":848,"ãĤºãĥ¼ãĥ¯ãĥ³":849,"ãĤ³ãĥ¼ãĥ³":850,"ãĤ³ãĥ¼ãĤ¹ãĥ³":851,"ãĥ¼ãĥĬãĥ¼":852,"ãĥ³ãĤ°ãĥ®":853,"ãĥ¼ãĥĸãĥ«":854,"ãĤ¢ãĤµãĥĵ":855,"ãĥ¼ãĥĹãĤ¹":856,"ãĥĬãĥģ":857,"ãĥĬãĤ¯ãĥ³":858,"ãĥĮãĤŃ":859,"ãĥĳãĥĦãĤ¡":860,"ãĥ©ãĥªãĥ³":861,"ãĥªãĥ¼":862,"ãĥĪãĤ¥ãĥ¼":863,"ãĤ¸ãĥŀ":864,"ãĤ¬ãĤ¹ãĥ³":865,"ãĥ¦ãĥĮ":866,"ãĤ®ãĥª":867,"ãĥ¼ãĥ©ãĥ¼":868,"ãĤ·ãĤŃãĥ³":869,"ãĤºãĥŁ":870,"ãĥĳãĥĬãĤ·ãĤŃ":871,"ãĥĬãĤ«ãĥ©":872,"ãĥĥãĤµãĥ¼":873,"ãĤ«ãĤ¿ãĥģ":874,"ãĥİãĥ¼":875,"ãĥİãĥ¼ãĥ³":876,"ãĥĥãĤ¯ãĥĬãĥ¼":877,"ãĥĳãĤ¿ãĤŃ":878,"ãĤŃãĤ¶":879,"ãĥŀãĥ¼ãĥ«ãĥ³":880,"ãĥĮãĤ¤":881,"ãĤµãĤ¦":882,"ãĤ¢ãĥ¼ãĤ·":883,"ãĥĭãĤ·":884,"ãĤ¸ãĥ©":885,"ãĥķãĥĪãĤ¥":886,"ãĥĸãĥĥ":887,"ãĤ°ãĥªãĤµãĥ³":888,"ãĤ¶ãĤŃ":889,"ãĥ¼ãĥ©ãĥ³":890,"ãĥ¼ãĥŀãĤ¤":891,"ãĤ³ãĥ¼ãĥ©":892,"ãĤ«ãĥ©ãĥ¼":893,"ãĥ¯ãĥ³":894,"ãĤ¦ãĤ·ãĥĮ":895,"ãĤªãĥ¼":896,"ãĥŃãĥ¼ãĥ³":897,"ãĤŃãĥª":898,"ãĤ¯ãĥĸ":899,"ãĤ¿ãĥ«ãĥ³":900,"ãĤ¿ãĥłãĥĮ":901,"ãĤ¿ãĥ³ãĤ¬":902,"ãĤµãĥ¼ãĥ©":903,"ãĥĥãĤ±":904,"ãĥĭãĤ¬ãĤ¤":905,"ãĤ¬ãĤµ":906,"ãĥķãĥĢ":907,"ãĥķãĤ¯ãĥ«":908,"ãĥĢãĤ«":909,"ãĥĵãĤ¶":910,"ãĥīãĤ¥ãĤ¯":911,"ãĥĹãĤ¹ãĥŀ":912,"ãĥ¼ãĥĥãĥĨãĤ£":913,"ãĥŀãĥ¼ãĤ¹":914,"ãĥĹãĥ¼ãĥ«ãĤ¦ãĤ¿":915,"ãĤ·ãĥĲãĥ«":916,"ãĤ«ãĥ¼ãĥ©":917,"ãĤ¹ãĥĵ":918,"ãĤ¹ãĥ¼ãĥ«ãĥ³":919,"ãĤ¹ãĥ¼ãĥĸ":920,"ãĥĬãĥŁ":921,"ãĤ¯ãĥ¼ãĥ³":922,"ãĤ¿ãĥ«":923,"ãĤ¿ãĤ¯":924,"ãĤ¿ãĥĪãĤ¥ãĥ³":925,"ãĥĮãĥīãĤ¥":926,"ãĤ¦ãĥĩãĤ£":927,"ãĥģãĥ³":928,"ãĥĲãĥĥ":929,"ãĥĲãĤ¯ãĥ³":930,"ãĤ¬ãĤŃ":931,"ãĥĶãĤ¯ãĥ³":932,"ãĥĸãĥ«ãĥ³":933,"ãĥīãĥ¼ãĥ³":934,"ãĤ«ãĤ¤ãĥ¤ãĥ³":935,"ãĤ½ãĥĥãĤ³ãĥ¼":936,"ãĥİãĥ¼ãĤ¹ãĥ³":937,"ãĥ¤ãĥŀãĥĪãĤ¥":938,"ãĥĥãĥĦãĤ¡ãĥ¼ãĥ³":939,"ãĥŃãĥ¼":940,"ãĥ³ãĤ°ãĥ®ãĥģ":941,"ãĥĥãĤµãĥ¼ãĤ¯":942,"ãĤ·ãĥłãĥ³":943,"ãĤŃãĥĬãĤ¤":944,"ãĤ¹ãĥĲ":945,"ãĤ¯ãĥ®":946,"ãĥĳãĤ¯":947,"ãĤ¦ãĥ©ãĤ¹ãĥ³":948,"ãĤ¦ãĥĪãĤ¥ãĥ³":949,"ãĥ¤ãĥ©":950,"ãĤ¸ãĥ¥":951,"ãĥĶãĥ¼ãĥĮ":952,"ãĥĶãĥ¥":953,"ãĥĸãĤ¯":954,"ãĥĢãĥŀ":955,"ãĥĵãĥ«ãĥ³":956,"ãĥĹãĤ·":957,"ãĥĹãĥĭ":958,"ãĥĦãĤ¡ãĥ³":959,"ãĥİãĥ¼ãĤ·":960,"ãĥİãĥ¼ãĥª":961,"ãĤ¾ãĥ¼ãĤ¸":962,"ãĥ¬ãĥ¼ãĥĮ":963,"ãĥĳãĥ¤ãĥ¼ãĥ³":964,"ãĥįãĥ¼":965,"ãĥĬãĥ©ãĥ¼ãĤ·":966,"ãĤ·ãĥŁãĥ«ãĥ³":967,"ãĤ«ãĤ¯ãĥ³":968,"ãĤ«ãĥĬãĤ¤":969,"ãĤ¹ãĤ¤":970,"ãĥĬãĥ¼ãĤ·":971,"ãĤ¯ãĤ¯ãĥ«":972,"ãĤ¦ãĤ¬ãĥ³":973,"ãĤµãĥ¼ãĥ«ãĥ³":974,"ãĥĪãĥ¼ãĥķ":975,"ãĥĪãĤ¥ãĥīãĤ¥":976,"ãĥĪãĤ¥ãĥŁãĥ«ãĥ³":977,"ãĤ¬ãĤ¿":978,"ãĥķãĤ«ãĤ¹ãĥ³":979,"ãĥĸãĤ«ãĥ©":980,"ãĥĸãĥīãĤ¥ãĥ«":981,"ãĥĦãĤ¡ãĥ¼":982,"ãĤ³ãĥ³":983,"ãĤ«ãĤ¤ãĤ·":984,"ãĤ±ãĥ¼ãĥª":985,"ãĥ¼ãĥķãĤŃ":986,"ãĥĥãĤ¯ãĥ«":987,"ãĥ£ãĥ³":988,"ãĥĬãĥ³ãĤ«":989,"ãĥĲãĥ©ãĥ¼":990,"ãĤ¢ãĤ¿ãĥ«":991,"ãĥ³ãĤ¿":992,"ãĤ·ãĥ«ãĥ³":993,"ãĤ·ãĥĢ":994,"ãĤ¤ãĤ¿":995,"ãĥĬãĥ¼ãĥª":996,"ãĥĬãĤ¦ãĥ³":997,"ãĥŀãĥ¼ãĥª":998,"ãĥĮãĥ¼ãĥ³":999,"ãĥĮãĤ«ãĥ¼":1000,"ãĥĮãĥ¼ãĥĨãĤ£":1001,"ãĤµãĤ¿":1002,"ãĥ©ãĥĮ":1003,"ãĤ¢ãĥĸ":1004,"ãĤ¢ãĥ³ãĤ¬":1005,"ãĥ¤ãĤ¯":1006,"ãĥ¤ãĥ¼ãĥĮ":1007,"ãĤ¬ãĥĥ":1008,"ãĥĶãĥ¼ãĥģ":1009,"ãĥĢãĥĨãĤ£":1010,"ãĥĨãĤ£ãĥ¼ãĥĮ":1011,"ãĤ¶ãĥŀ":1012,"ãĥīãĤ¥ãĥ¼ãĥłãĥĨãĤ£":1013,"ãĥ¼ãĤ·ãĤ¥":1014,"ãĥĹãĥª":1015,"ãĥĹãĥĪãĤ¥ãĤŃ":1016,"ãĤ½ãĥ¼ãĥ³":1017,"ãĤ·ãĤ¥ãĤ«ãĥ©":1018,"ãĤ§ãĥ¼ãĥŀ":1019,"ãĥĲãĥ©ãĥķãĤ¿":1020,"ãĥĬãĥ©ãĥĮ":1021,"ãĥ¼ãĥ¨ãĥ¼":1022,"ãĥĶãĥ¥ãĥ¼ãĥ«":1023,"ãĥ³ãĤ«":1024,"ãĥ¼ãĥĦ":1025,"ãĥ¼ãĥĩ":1026,"ãĤ·ãĥłãĥĮ":1027,"ãĤ·ãĤ±ãĥ¼":1028,"ãĤ«ãĥ³ãĤ¬":1029,"ãĤ«ãĥŀãĤ¤":1030,"ãĤ¤ãĤµ":1031,"ãĤ¹ãĥĩãĤ£":1032,"ãĥĬãĥ©ãĤ¤":1033,"ãĤ¯ãĥ«ãĥ³":1034,"ãĤ¢ãĥª":1035,"ãĤ¢ãĤ¦ãĥ³":1036,"ãĥĪãĤ¥ãĥĬãĥ«":1037,"ãĥģãĥ§":1038,"ãĥĲãĤ·":1039,"ãĥĲãĤ¯":1040,"ãĥŁãĥ¼ãĥĳ":1041,"ãĥ¤ãĥª":1042,"ãĤ¸ãĥ¥ãĥ¼":1043,"ãĤ¸ãĥ§ãĥ¼":1044,"ãĥķãĥĵ":1045,"ãĥķãĥ¼ãĥ³":1046,"ãĥķãĥīãĤ¥":1047,"ãĥĶãĥ¼ãĥŀ":1048,"ãĤ°ãĤ·":1049,"ãĥ¦ãĥĢ":1050,"ãĤ®ãĤµãĥ³":1051,"ãĤ½ãĥ³ãĤ¬ãĥģ":1052,"ãĥĳãĥ³ãĥĦãĤ¡ãĤ¹ãĥ³":1053,"ãĥ¼ãĥĬãĥ¼ãĥ³":1054,"ãĥĥãĤµãĤ¤":1055,"ãĥŁãĥ¼ãĤ¹":1056,"ãĤ·ãĤ¥ãĤ«ãĥ³":1057,"ãĥ³ãĤ°ãĥ³":1058,"ãĥ¯ãĥª":1059,"ãĤªãĥ¼ãĥĮ":1060,"ãĥĬãĥ³ãĤ®":1061,"ãĥįãĥ¼ãĥ©":1062,"ãĤ¬ãĥŀãĤ¸":1063,"ãĤ«ãĥĦãĥĮ":1064,"ãĤ¨":1065,"ãĥ³ãĤ¸":1066,"ãĤ·ãĤ®":1067,"ãĤ«ãĥ¼ãĥŀ":1068,"ãĤ«ãĤŃãĥ«ãĥ³":1069,"ãĤ«ãĥ³ãĤ¬ãĤ¤":1070,"ãĥŀãĥĢ":1071,"ãĥŀãĥīãĤ¥":1072,"ãĥŀãĤ¯ãĥ³":1073,"ãĥĮãĥłãĥĮ":1074,"ãĤµãĥĲ":1075,"ãĤµãĥªãĥ³":1076,"ãĥłãĥª":1077,"ãĥłãĤ«ãĤ·":1078,"ãĥĥãĤ·":1079,"ãĤ¢ãĥ¼ãĥ«ãĥ³":1080,"ãĤ¢ãĥ©ãĤ¤":1081,"ãĤ¢ãĤ®ãĥ«ãĥ³":1082,"ãĥĪãĤ¥ãĥ¼ãĥ«":1083,"ãĥ¤ãĥłãĥ³":1084,"ãĥĭãĥ¼ãĥĮ":1085,"ãĤ¬ãĥ¼ãĥ©":1086,"ãĤ¬ãĥ©ãĤ¹ãĥ³":1087,"ãĥĶãĥģ":1088,"ãĥĶãĥĥãĤŃ":1089,"ãĥĢãĥª":1090,"ãĤ°ãĥ¼":1091,"ãĤ¶ãĤ·":1092,"ãĥ¦ãĥ¼ãĤ·":1093,"ãĤ½ãĥ¼ãĤ·":1094,"ãĤ±ãĥ¼ãĥ©":1095,"ãĥ³ãĤ°ãĥªãĤµãĥ³":1096,"ãĥĪãĤ¥ãĥ³ãĤ¯ãĤ¤":1097,"ãĥ¼ãĥŁãĥ¼":1098,"ãĤ¿ãĥ³ãĥĨãĤ£ãĥ³":1099,"ãĥĴãĥ£ãĥ¼":1100,"ãĥĿãĥ¼ãĤŃ":1101,"ãĥĶãĥĢãĥª":1102,"ãĥ¼ãĥĩãĤ£":1103,"ãĥ¼ãĥĿ":1104,"ãĤ·ãĥª":1105,"ãĤ·ãĤº":1106,"ãĤ«ãĥĲ":1107,"ãĤ«ãĥ¼ãĥ«ãĥ³":1108,"ãĤ«ãĥ¼ãĥĭ":1109,"ãĤ¹ãĤ³ãĥ¼":1110,"ãĥĬãĤ¦":1111,"ãĥĬãĥ¼ãĥ«":1112,"ãĤ¯ãĥŁ":1113,"ãĤ¯ãĥĢ":1114,"ãĤ¯ãĥĨãĤ£":1115,"ãĤ¯ãĥ©ãĤ·":1116,"ãĥĮãĤ¯ãĥ³":1117,"ãĥĮãĥĳãĥ¼":1118,"ãĥĮãĥĥãĤ¹":1119,"ãĥĳãĥ¼ãĥķ":1120,"ãĤ¦ãĤ«":1121,"ãĤ¦ãĥ¼ãĥ«":1122,"ãĤµãĥ¼ãĥ«":1123,"ãĥłãĥĪãĤ¥ãĥ³":1124,"ãĥĥãĥĳ":1125,"ãĥĥãĤŃãĥ«ãĥ³":1126,"ãĥĪãĤ¥ãĥĮ":1127,"ãĥĪãĤ¥ãĥłãĥ³":1128,"ãĥģãĥ£ãĥ¼":1129,"ãĥŁãĥĬ":1130,"ãĥŁãĥ¼ãĥĬ":1131,"ãĥ¤ãĥķ":1132,"ãĥ¤ãĥ¼ãĥŀ":1133,"ãĥ¤ãĥĥãĤµãĥ³":1134,"ãĥĭãĥ¤ãĥ³":1135,"ãĤ¬ãĥªãĥ«ãĥ³":1136,"ãĥķãĤŃãĥ«ãĥ³":1137,"ãĥĶãĤ·":1138,"ãĥĶãĥĭ":1139,"ãĥĶãĥĥãĥģãĥ³":1140,"ãĥĸãĥĪãĤ¥":1141,"ãĥĢãĥģ":1142,"ãĤ¶ãĥª":1143,"ãĥīãĤ¥ãĤŃ":1144,"ãĥīãĤ¥ãĥª":1145,"ãĥ¦ãĤ¤":1146,"ãĥ¦ãĥ«":1147,"ãĥ¼ãĥ©ãĤ·":1148,"ãĥĦãĤ¡ãĥ¼ãĤ¹ãĥ³":1149,"ãĤ½ãĥ¼ãĤŃ":1150,"ãĤ½ãĥ¼ãĥŁ":1151,"ãĥĥãĤµãĥ¼ãĥ³":1152,"ãĥĥãĤµãĥ¼ãĥ«ãĥ³":1153,"ãĤ·ãĥ³ãĤ¿":1154,"ãĥ¼ãĥĥãĤµãĥ³":1155,"ãĥ£ãĥ¼ãĥ³":1156,"ãĥ¼ãĥĳãĥ³":1157,"ãĥľãĥ¼ãĥ³":1158,"ãĥĥãĤ«ãĥ«ãĥ³":1159,"ãĥĥãĤ«ãĥ¼ãĤ¹ãĥ³":1160,"ãĤ·ãĤ¥ãĤ«ãĤ¦ãĥ³":1161,"ãĥ¼ãĥĢãĤ¤":1162,"ãĥ¼ãĥĶãĤŃ":1163,"ãĤ¦ãĤ¯ãĥª":1164,"ãĥĭãĥ¼ãĥĲãĥ³":1165,"ãĥĺ":1166,"ãĥ³ãĥ¼ãĥŀ":1167,"ãĤ·ãĥ¼ãĥłãĥĮ":1168,"ãĤ·ãĥĨãĤ£ãĥ«ãĥ³":1169,"ãĤ«ãĥ¤ãĥ¼":1170,"ãĤ¤ãĤ¬":1171,"ãĥĬãĥĦãĤ¡":1172,"ãĥĬãĥĻ":1173,"ãĥĬãĥ¼ãĥĨãĤ£":1174,"ãĥĬãĥ¼ãĥłãĥĨãĤ£":1175,"ãĥĮãĤ«":1176,"ãĥĮãĤ·ãĥ¼":1177,"ãĥĳãĥĪãĤ¥":1178,"ãĥĳãĥĪãĤ¥ãĥŀ":1179,"ãĤ¦ãĥŀ":1180,"ãĤ¦ãĤ¯ãĥ³":1181,"ãĤ¦ãĤº":1182,"ãĤµãĥ¼ãĥª":1183,"ãĤµãĤ¦ãĥ³":1184,"ãĥĪãĥ¼ãĤ¹ãĥ³":1185,"ãĤ¢ãĥĬ":1186,"ãĤ¢ãĥ¼ãĥ©ãĤ¹ãĥ³":1187,"ãĥĪãĤ¥ãĥ³ãĤ¬":1188,"ãĥģãĥ¥":1189,"ãĥĲãĤ·ãĤŃ":1190,"ãĥĲãĤ¶ãĥ©":1191,"ãĥŁãĥ¼ãĥŀ":1192,"ãĥŁãĥĦãĤ¡":1193,"ãĥŁãĥ¼ãĥĪãĤ¥":1194,"ãĥ¤ãĥĥ":1195,"ãĥĭãĥ¼ãĤ·":1196,"ãĥĭãĥ¼ãĥ©":1197,"ãĥĭãĥ¼ãĥ«ãĥ³":1198,"ãĥĭãĥĥãģµãĤ¡":1199,"ãĥĭãĥ³ãĤ°ãĥ®ãĥģ":1200,"ãĤ¬ãĥĲãĥ©":1201,"ãĥĶãĤ¿":1202,"ãĥĶãĥ¼ãĥª":1203,"ãĥĵãĥģ":1204,"ãĤ°ãĥ«ãĥ³":1205,"ãĤ°ãĤ¸":1206,"ãĥīãĥ³":1207,"ãĥīãĤ¥ãĥ¼ãĥĮ":1208,"ãĥīãĤ¥ãĥ¼ãĥ¤":1209,"ãĥ¼ãĥ©ãĥ¼ãĥ³":1210,"ãĥĥãģµãĥ³":1211,"ãĥĳãĥ³ãĤ·":1212,"ãĥĳãĥ³ãĥĸãĥ³":1213,"ãĥĲãĤ¿ãĥĮ":1214,"ãĥĬãĥŀãĤ¸":1215,"ãĤ«ãĥ¼ãĤŃ":1216,"ãĤ·ãĥ³ãĤ«":1217,"ãĥĬãĤ¤ãĥ«ãĥ³":1218,"ãĥ¼ãĤ¸ãĥ«":1219,"ãĥıãĥģ":1220,"ãĤ·ãĤ¥ãĤ«ãĥĬãĤ¤":1221,"ãĤ¢ãĥ©ãĤŃ":1222,"ãĥķãĤ¿ãĤ¤":1223,"ãĤ¦ãĥ¤ãĤŃ":1224,"ãĤ«ãĤŃãĥłãĥĮ":1225,"ãĤ¦ãĤ¿ãĤ¹ãĥ³":1226,"ãĥ¼ãĥĶãĥ¼":1227,"ãĥķãĤ¯ãĥĵ":1228,"ãĤ«ãĤ¯ãĥģ":1229,"ãĤ¿ãĥŀãĤ·":1230,"ãĥĳãĤ¿ãĥ©ãĤŃ":1231,"ãĤ°ãĥ®ãĥ³":1232,"ãĥĥãĥĪãĥ¼ãĤ¹ãĥ³":1233,"ãĥłãĤ¤ãĤµãĥ³":1234,"ãĤ·ãĥ¼ãĥĮ":1235,"ãĤ·ãĥĪãĤ¥ãĥ³":1236,"ãĤ·ãĥĩãĤ£":1237,"ãĤ«ãĥłãĥ³":1238,"ãĤ¤ãĥĦ":1239,"ãĤ¹ãĥ©":1240,"ãĤ¹ãĥª":1241,"ãĤ¹ãĥ¼ãĥĮ":1242,"ãĤ¯ãĥĭ":1243,"ãĤ¯ãĤµãĤ¤":1244,"ãĥŀãĥ¼ãĥĵ":1245,"ãĤ¿ãĥľ":1246,"ãĤ¿ãĥĨãĤ£ãĥ«ãĥ³":1247,"ãĥĮãĤ¹":1248,"ãĥĮãĤ®":1249,"ãĥĮãĥ¼ãĥ«ãĥ³":1250,"ãĥĮãĥ¦ãĥ¼":1251,"ãĥĮãĥĸãĤ·":1252,"ãĥĳãĤ¦ãĥ³":1253,"ãĥĳãĤ¸ãĥ³":1254,"ãĤ¦ãĥĥ":1255,"ãĤ¦ãĥ¼ãĥ³":1256,"ãĤµãĥĲãĥ³":1257,"ãĤµãĤ®ãĥ«ãĥ³":1258,"ãĥłãĤ¹":1259,"ãĥłãĤ¿":1260,"ãĥłãĤ¤ãĥ«ãĥ³":1261,"ãĥ©ãĥ¼ãĥ³":1262,"ãĥĥãĥĹ":1263,"ãĥĥãĥĦãĥ³":1264,"ãĥĪãĤ¥ãĤ¤":1265,"ãĥĭãĥĲãĥ«":1266,"ãĥķãĤ¸":1267,"ãĥĢãĥ«ãĥ³":1268,"ãĥĨãĤ£ãĥ¼ãĥķ":1269,"ãĤ°ãĥª":1270,"ãĤ°ãĤ¹ãĤ¯":1271,"ãĤ¶ãĤ¯":1272,"ãĥīãĥ³ãĤ°":1273,"ãĥ¼ãĤ·ãĥłãĥĮ":1274,"ãĥ¦ãĥį":1275,"ãĤ¯ãĥ³ãĤŃ":1276,"ãĤµãĥ³ãĤ·ãĥ³":1277,"ãĥ³ãĤ¬ãĥ¼ãĥª":1278,"ãĤ½ãĥ¼ãĥ©ãĥ³":1279,"ãĥĳãĥĬãĥª":1280,"ãĥĬãĤ«ãĥ³":1281,"ãĥ¼ãĥłãĥĪãĤ¥":1282,"ãĥ¼ãĥłãĥĭ":1283,"ãĤ¹ãĤ¯ãĥ«ãĥ³":1284,"ãĥĥãĤµãĥª":1285,"ãĤ±ãĥ¼ãĥĮ":1286,"ãĥĬãĥ¼ãĤ«":1287,"ãĥ¼ãĥĥãĤ¿":1288,"ãĤ«ãĥ³ãĥĨãĤ£":1289,"ãĥİãĥ¼ãĥ«":1290,"ãĥĩãĤ£ãĥŀãĥª":1291,"ãĤ¦ãĤ·ãĥĪãĤ¥":1292,"ãĥıãĥ¼":1293,"ãĥıãĥ©":1294,"ãĤ¸ãĥ³ãĥĸãĥ³":1295,"ãĤ¤ãĥ³ãĤ¿":1296,"ãĥ¼ãĥĪãĤ¥ãĥª":1297,"ãĤ·ãĤ¿ãĥķ":1298,"ãĥĿãĥ¼":1299,"ãĥĽãĥ¼":1300,"ãĤ«ãĥ«ãĤ¤":1301,"ãĥĥãĤ¿ãĥ«":1302,"ãĥĶãĥ©ãĤ¯":1303,"ãĥĸãĥĥãĤ¿ãĥ¼":1304,"ãĥ¼ãĥĦãĤ¡":1305,"ãĥ¼ãĥĻ":1306,"ãĥ¼ãĥľ":1307,"ãĤ·ãĥĲ":1308,"ãĤ·ãĤ§ãĥ¼":1309,"ãĤ«ãĥĸ":1310,"ãĤ«ãĥ¼ãĥ«":1311,"ãĤ«ãĥŀãĥģ":1312,"ãĤ¤ãĥĬ":1313,"ãĤ¤ãĥĪãĤ¥":1314,"ãĤ¤ãĥĵ":1315,"ãĤ¹ãĥ¼ãĥª":1316,"ãĤ¹ãĤ³":1317,"ãĥĬãĤ°":1318,"ãĤ¯ãĥ©ãĤ¹ãĥ³":1319,"ãĤ¯ãĤ¯ãĥģ":1320,"ãĥŀãĥŀ":1321,"ãĥŀãĥ¤":1322,"ãĥŀãĤ¸":1323,"ãĥŀãĤ«ãĥ«":1324,"ãĤ¿ãĥĬ":1325,"ãĥĮãĥĳãĥĬ":1326,"ãĥĮãĥ¤ãĥ¼":1327,"ãĥĮãĤ«ãĤ¿":1328,"ãĥĮãĥ¼ãĥ¤":1329,"ãĥĮãĤ¯ãĥ¼":1330,"ãĥĮãĥĲãĤ¹ãĥ³":1331,"ãĥĮãĥĭãĥ³ãĤ¬ãĤ¤":1332,"ãĥĳãĥ¼ãĤ¹ãĥ³":1333,"ãĥĳãĤ®ãĥ«ãĥ³":1334,"ãĤ¦ãĤŃãĥ«ãĥ³":1335,"ãĤµãĤ·":1336,"ãĤµãĥ¼ãĥ³":1337,"ãĥłãĥ¼":1338,"ãĥłãĥ©ãĤ·":1339,"ãĥĥãĥĦãĤ©":1340,"ãĤ¢ãĥĢ":1341,"ãĤ¢ãĥ¼ãĥ©":1342,"ãĤ¢ãĥ¼ãĥĮ":1343,"ãĤ¢ãĤŃãĥ«ãĥ³":1344,"ãĥģãĤ¬ãĤ¤":1345,"ãĥŁãĤº":1346,"ãĥŁãĥ¼ãĥł":1347,"ãĥŁãĥ³ãĤ°":1348,"ãĥŁãĥ¼ãĥķ":1349,"ãĥ¤ãĤ¤":1350,"ãĥ¤ãĤ·ãĤŃ":1351,"ãĥĭãĤ¸":1352,"ãĥĭãĥ¼ãĥĸ":1353,"ãĥĭãĥ¼ãĥĸãĥ«":1354,"ãĤ¬ãĥ¼ãĥª":1355,"ãĤ¬ãĤ¦ãĥ³":1356,"ãĤ¬ãĥ¤ãĥ¼":1357,"ãĥķãĥ©":1358,"ãĥķãĥĬãĥ¼":1359,"ãĥĶãĤ¸":1360,"ãĥĶãĥ¼ãĥ«":1361,"ãĥĶãĤµãĥ³":1362,"ãĥĶãĥ¼ãĥ¤":1363,"ãĥĶãĤ¸ãĥ«":1364,"ãĥĸãĥģ":1365,"ãĥĵãĤ¶ãĥ¼":1366,"ãĤ°ãĥģ":1367,"ãĤ°ãĥĥãģµãĤ¡":1368,"ãĤ¶ãĥ©ãĤ·":1369,"ãĥīãĤ¥ãĥ«ãĥ³":1370,"ãĥ¼ãĤ·ãĥ¼":1371,"ãĥ¦ãĥª":1372,"ãĥ¦ãĥ¼ãĤ¹ãĥ³":1373,"ãĥ¦ãĥĥãĤ«":1374,"ãĥĹãĤ¹ãĥ³":1375,"ãĤ³ãĤ¤":1376,"ãĥĹãĤ¹ãĥ«":1377,"ãĤ½ãĥ¼ãĥ«ãĥ³":1378,"ãĥ¤ãĥ¼ãĤµ":1379,"ãĥ¨ãĥ¼ãĥ«ãĥ³":1380,"ãĤ±ãĥ¼ãĤ·":1381,"ãĤ«ãĤ¿ãĥŁ":1382,"ãĤ´ãĥ¼ãĥĢ":1383,"ãĥ©ãĤ¤ãĥ«ãĥ³":1384,"ãĥ¼ãĥĥãĤ¹ãĥ³":1385,"ãĥĭãĥ³ãĤŃ":1386,"ãĥĭãĥ³ãĤºãĥ¼":1387,"ãĥ¼ãĥĲãĥ³":1388,"ãĥĥãĥĦãĤ¡ãĥ¼":1389,"ãĤ·ãĤ¥ãĤ«ãĥªãĥ³":1390,"ãĥ¼ãĥŁãĥģ":1391,"ãĤ«ãĤ¶ãĥª":1392,"ãĥ¨ãĥ¼ãĤ¾ãĥ¼":1393,"ãĤ¦ãĥłãĥĨãĤ£":1394,"ãĥ¡ãĥ¼ãĥŀ":1395,"ãĤ¿ãĤ«ãĥĵ":1396,"ãĥŃãĥ¼ãĥŀ":1397,"ãĤ«ãĤµãĥłãĥ³":1398,"ãĤ¤ãĥģãĥĲãĥ³":1399,"ãĥĴãĥ¼ãĥ¤":1400,"ãĤŃãĤ·ãĥ«ãĥ³":1401,"ãĥĳãĤ¸ãĥŁ":1402,"ãĥĪãĤ¥ãĥłãĥ¬ãĥ¼ãĥĮ":1403,"ãĥĳãĥ³ãĤ¿ãĥª":1404,"ãĤ«ãĤ¦ãĥ¯ãĥ³":1405,"ãĥĳãĥĦãĤ¡ãĥ©":1406,"ãĥĥãĤ±ãĥ¼ãĥ«ãĥ³":1407,"ãĥ¦ãĥįãĥ³":1408,"ãĥ³ãĥĭ":1409,"ãĥ¼ãĥ¡":1410,"ãĥ¼ãĥ¢":1411,"ãĥ¼ãĥĽ":1412,"ãĤ·ãĥł":1413,"ãĤ«ãĤ«":1414,"ãĤ«ãĥŃãĥ¼ãĥ³":1415,"ãĤ¤ãĥ¼ãĥª":1416,"ãĤŃãĤ¸":1417,"ãĤŃãĥ§":1418,"ãĤ¹ãĥŁ":1419,"ãĤ¹ãĥ¼ãĥŀ":1420,"ãĥĬãĥ¼ãĥ©":1421,"ãĥĬãĥ¼ãĥĳ":1422,"ãĤ¯ãĥĥãĥģ":1423,"ãĤ¯ãĥŀãĥ«ãĥ³":1424,"ãĤ¯ãĥĵãĥ³":1425,"ãĤ¯ãĥłãĥ«":1426,"ãĤ¯ãĤ¬ãĥĭ":1427,"ãĥŀãĥ¼ãĥ³":1428,"ãĤ¿ãĥĸ":1429,"ãĤ¿ãĥ¼ãĥ«ãĥ³":1430,"ãĤ¿ãĥĲãĤ¯":1431,"ãĥĮãĤ«ãĤ¹ãĥ³":1432,"ãĥĮãĥŁãĥ³":1433,"ãĥĳãĤ¯ãĥ³":1434,"ãĥĳãĤ«ãĥ©":1435,"ãĥĳãĥ©ãĤ¤":1436,"ãĥĳãĥ©ãĤ¹ãĥ³":1437,"ãĤ¦ãĥŁ":1438,"ãĤ¦ãĥľ":1439,"ãĤµãĥŁ":1440,"ãĥ©ãĤ¯":1441,"ãĥ©ãĤ¦ãĥ³":1442,"ãĥĥãĤ«ãĥ¼":1443,"ãĤ¢ãĥ¼ãĥ«":1444,"ãĥĪãĤ¥ãĤº":1445,"ãĥģãĥª":1446,"ãĥĲãĤ¦ãĥ³":1447,"ãĥŁãĤ·":1448,"ãĥ¤ãĥĦ":1449,"ãĥ¤ãĥĸãĥª":1450,"ãĥ¤ãĥĭãĥ¤ãĥ³":1451,"ãĥĭãĤ¯":1452,"ãĤ¸ãĥ§":1453,"ãĤ¬ãĥģ":1454,"ãĥķãĤ·":1455,"ãĥķãĥŁ":1456,"ãĥķãĤ¡":1457,"ãĥĸãĤ¶":1458,"ãĥĸãĤ¬ãĥª":1459,"ãĥĵãĤ¹ãĥ³":1460,"ãĥĨãĤ£ãĥĲ":1461,"ãĥĨãĤ£ãĥ¼ãĥŀ":1462,"ãĥĨãĤ£ãĥ¼ãĥ¤":1463,"ãĥīãĤ¥ãĥ¼ãĥł":1464,"ãĥ¼ãĤ·ãĤŃãĥ«ãĥ³":1465,"ãĥ¦ãĥ³":1466,"ãĥ¦ãĥģ":1467,"ãĥ¦ãĥłãĥ³":1468,"ãĥĹãĥªãĥłãĥĮ":1469,"ãĥ¼ãĥ©ãĥªãĥ³":1470,"ãĥ¼ãĥŀãĤ¹ãĥ³":1471,"ãĥ³ãĤ¬ãĤµ":1472,"ãĥ³ãĤ¬ãĥĭ":1473,"ãĤ½ãĥ¼ãĥª":1474,"ãĥĳãĥĬãĤ¹ãĥ³":1475,"ãĥŀãĤ¤ãĥĮ":1476,"ãĥ¼ãĥłãĤ¤":1477,"ãĥĥãĤµãĥ¼ãĥ©":1478,"ãĥĥãĤµãĤ¦ãĥ³":1479,"ãĤ±ãĥ¼ãĥ«ãĥ³":1480,"ãĥ¼ãĥĥãĤ¹":1481,"ãĥĩãĥ¼":1482,"ãĥĩãĥ¼ãĤ¸":1483,"ãĥ³ãĤ°ãĤ¤":1484,"ãĤ¦ãĥĸãĤ¤":1485,"ãĥĥãĤ¯ãĥ®":1486,"ãĤ«ãĤ¸ãĥĮ":1487,"ãĤªãĥ³ãĤ®":1488,"ãĥ¼ãĥĲãĤ¤":1489,"ãĥľãĥ¼ãĥ«":1490,"ãĤµãĥ¼ãĤ®":1491,"ãĤ¢ãĥ©ãĥĮ":1492,"ãĥ¼ãĥĭãĥģ":1493,"ãĤ·ãĥŀãĥ«ãĥ³":1494,"ãĥĥãģµãĤ¡ãĤ¤ãĥłãĥĮ":1495,"ãĥ¡ãĥ¼ãĥĮ":1496,"ãĤ·ãĤ¿ãĥĢãĥ«":1497,"ãĥķãĤ¯ãĥª":1498,"ãĤ¢ãĤ¿ãĥ«ãĥ³":1499,"ãĥŀãĥ³ãĤ¿":1500,"ãĥ¢ãĥ¼":1501,"ãĤ·ãĥĪãĤ¥ãĥĥãĥģ":1502,"ãĥ¼ãĥ¦ãĥ¼":1503,"ãĥ¼ãĥ¨ãĥ¼ãĥ³":1504,"ãĥ¼ãĥĥãģµãĤ¡ãĤ¤":1505,"ãĥ¼ãĥĻãĥ¼":1506,"ãĥ³ãĥĨãĤ£":1507,"ãĥ³ãĥŀãĥ¼":1508,"ãĥ³ãĥ¼ãĥĭ":1509,"ãĥ³ãĤ¶ãĤ¹ãĥ³":1510,"ãĥ¼ãĥį":1511,"ãĥ¼ãĥı":1512,"ãĥ¼ãĥŃ":1513,"ãĤ·ãĥĥ":1514,"ãĤ·ãĤ®ãĥ«ãĥ³":1515,"ãĤ«ãĥĨãĤ£":1516,"ãĤ«ãĥ¼ãĥ³":1517,"ãĤ«ãĥīãĤ¥":1518,"ãĤ«ãĥ¼ãĥª":1519,"ãĤŃãĤ¯":1520,"ãĤŃãĤ¿":1521,"ãĤŃãĥģ":1522,"ãĤŃãĥ¼ãĥĳ":1523,"ãĤ¹ãĥĢãĥĨãĤ£":1524,"ãĥĬãĥ©ãĤ¹ãĥ³":1525,"ãĥĬãĥĢãĥ©":1526,"ãĥĬãĥ¼ãĥĥãĤ¹":1527,"ãĥŀãĥ¼ãĥ©":1528,"ãĥŀãĤµãĥ³":1529,"ãĥŀãĥ¼ãĤŃ":1530,"ãĤ¿ãĤ¯ãĥĮ":1531,"ãĥĮãĥ«":1532,"ãĥĮãĥª":1533,"ãĥĮãĥ¼ãĤ¹ãĥ³":1534,"ãĥĮãĤ¦ãĥ¤":1535,"ãĥĮãĥĬãĥ«":1536,"ãĥĮãĤ«ãĥ«":1537,"ãĥĮãĥ¨ãĤ¤":1538,"ãĥĳãĤ¶":1539,"ãĥĳãĥ¼ãĥ©":1540,"ãĥĳãĥ¤ãĥŀ":1541,"ãĥĳãĤ·ãĤ«":1542,"ãĤ¦ãĥ«":1543,"ãĤ¦ãĥ¼ãĤŃ":1544,"ãĤµãĥ«":1545,"ãĤµãĤ®":1546,"ãĤµãĥ¼ãĥĮ":1547,"ãĤµãĤ¯ãĥ©":1548,"ãĥĥãĥĪãĥ¼":1549,"ãĥĥãĤ«ãĤ¤ãĤ¹ãĥ³":1550,"ãĤ¢ãĥ«":1551,"ãĤ¢ãĤ¯":1552,"ãĤ¢ãĤº":1553,"ãĤ¢ãĤ¤ãĥ«ãĥ³":1554,"ãĤ¢ãĤ°ãĥ³":1555,"ãĥĪãĤ¥ãĤ«":1556,"ãĥĪãĤ¥ãĥĥ":1557,"ãĥĪãĤ¥ãĤ¬":1558,"ãĥĪãĤ¥ãĥ¼ãĥĬ":1559,"ãĥĪãĤ¥ãĥĲãĤ¹ãĥ³":1560,"ãĥģãĥ£":1561,"ãĥĲãĤ¶":1562,"ãĥĲãĥ¼ãĥ³":1563,"ãĥŁãĥ«":1564,"ãĥŁãĥ¼ãĥ¤":1565,"ãĥŁãĥīãĤ¥ãĥł":1566,"ãĥ¤ãĤ·":1567,"ãĥ¤ãĥŁ":1568,"ãĥ¤ãĤ¹ãĥ³":1569,"ãĥ¤ãĥĸ":1570,"ãĥ¤ãĥ¼ãĥ³":1571,"ãĤ¸ãĥ¼ãĥŀ":1572,"ãĤ¬ãĤ¤ãĥ«ãĥ³":1573,"ãĥĶãĥ³ãĤ°":1574,"ãĥĶãĥĥãĤ«":1575,"ãĥĶãĥ¼ãĥĢ":1576,"ãĥĶãĥ¼ãĥĹ":1577,"ãĥĶãĥĵãĤ¶":1578,"ãĥĢãĤ·":1579,"ãĥĢãĥĭ":1580,"ãĥĢãĥ¼ãĥª":1581,"ãĥĢãĥ¼ãĥģ":1582,"ãĥĨãĤ£ãĥŀ":1583,"ãĥĨãĤ£ãĥ¼ãĥĬ":1584,"ãĤ¶ãĥ¼ãĥ³":1585,"ãĥīãĤ¥ãĥŁ":1586,"ãĥīãĤ¥ãĥ¼ãĥĬ":1587,"ãĥīãĤ¥ãĥ¼ãĥķ":1588,"ãĥīãĤ¥ãĥ¼ãĥĳ":1589,"ãĥ¦ãĥł":1590,"ãĥ¦ãĥŁ":1591,"ãĥ¦ãĥ¼ãĥ³":1592,"ãĤ·ãĤŃãĥłãĥĮ":1593,"ãĤºãĤ¯":1594,"ãĥ³ãĤ¬ãĥ³":1595,"ãĥĥãģµãĤ¡ãĥ¼ãĤ¹ãĥ³":1596,"ãĥĳãĥĬãĤ¤ãĤŃ":1597,"ãĥĳãĥ³ãĤ¯ãĥ³":1598,"ãĥĬãĤ«ãĥĲ":1599,"ãĥ¼ãĥĬãĥ«":1600,"ãĥ¼ãĥĬãĥª":1601,"ãĤ¹ãĤ¯ãĥªãĥłãĥĮ":1602,"ãĤ±ãĥ¼ãĥ³":1603,"ãĤ±ãĥ¼ãĥŀ":1604,"ãĥĬãĥ¼ãĤ¤":1605,"ãĤ«ãĥ©ãĥ¼ãĥ³":1606,"ãĤ´ãĥ¼ãĤ·":1607,"ãĥĪãĤ¥ãĥªãĥł":1608,"ãĥ¼ãĤŃãĥ³":1609,"ãĥ³ãĤ°ãĥĪãĤ¥":1610,"ãĥĪãĤ¥ãĥ³ãĥĨãĤ£":1611,"ãĥĲãĤ«ãĤ¹ãĥ³":1612,"ãĥĲãĤ«ãĥ¼ãĥ³":1613,"ãĤŃãĥłãĤ·":1614,"ãĥİãĥ³":1615,"ãĥİãĥ¼ãĥ«ãĥ³":1616,"ãĥ¼ãĥ¤ãĤ¯":1617,"ãĤ¾ãĥ¼ãĥ«":1618,"ãĥĭãĥ³ãĤº":1619,"ãĥ¼ãĥĸãĥĭ":1620,"ãĥıãĤ¤":1621,"ãĥ¼ãĥĲãĥ¼":1622,"ãĥ¼ãĥĲãĤŃ":1623,"ãĥĥãĥĦãĤ¡ãĥ¼ãĥ«ãĥ³":1624,"ãĤ·ãĤ¥ãĤ«ãĥ«ãĥ³":1625,"ãĥ¼ãĥŁãĤ¸":1626,"ãĥ¼ãĥŁãĥīãĤ¥ãĥł":1627,"ãĥĬãĥ³ãĥĦãĤ¡":1628,"ãĤ·ãĥ©ãĤ·":1629,"ãĥĨãĤ£ãĥ³ãĥĮ":1630,"ãĤ¢ãĥ³ãĥŀ":1631,"ãĥ¼ãĥĶãĤµ":1632,"ãĥįãĥ¼ãĤ·":1633,"ãĤ¢ãĤ¿ãĥª":1634,"ãĥ¢ãĥ¼ãĤŃ":1635,"ãĥĪãĤ¥ãĥłãĥĨãĤ£":1636,"ãĤ¯ãĥĪãĤ¥ãĥĲ":1637,"ãĤ¬ãĥ©ãĤµ":1638,"ãĥĵãĤŃãĥīãĤ¥ãĥł":1639,"ãĥĮãĤ·ãĥĪãĤ¥ãĥ«":1640,"ãĤ¿ãĤ¿ãĥŁ":1641,"ãĥķãĥ«ãĥŀãĤ¤":1642,"ãĤ²ãĥ¼":1643,"ãĤ«ãĥĵãĥłãĥĮ":1644,"ãĤ°ãĥ®ãĥ¼":1645,"ãĥķãĥĪãĤ¥ãĥĥãĥģ":1646,"ãĥ¤ãĥ©ãĥĵ":1647,"ãĤ¤ãĤ¿ãĥ³ãĥĢ":1648,"ãĥ³ãĤ´":1649,"ãĥ³ãĥĳãĥ¼":1650,"ãĥ¼ãĥİ":1651,"ãĤ·ãĥ¼ãĥĳ":1652,"ãĤ·ãĥ¥ãĥ¼":1653,"ãĤ«ãĥ¼ãĤ¹ãĥ³":1654,"ãĤ«ãĥĦãĤ¡":1655,"ãĤ«ãĥ¼ãĥŁ":1656,"ãĤ¤ãĥªãĥ«ãĥ³":1657,"ãĤŃãĥ¥":1658,"ãĥĬãĥĨãĤ£":1659,"ãĥĬãĤ·ãĤŃ":1660,"ãĥĬãĥ¼ãĥ«ãĥ³":1661,"ãĥĬãĥĩãĤ£":1662,"ãĥĬãĥ¼ãĥĭ":1663,"ãĤ¯ãĥŁãĥ«ãĥ³":1664,"ãĤ¯ãĥĲãĥª":1665,"ãĥŀãĥĭ":1666,"ãĥŀãĥĥãģµãĤ¡":1667,"ãĤ¿ãĤ¦":1668,"ãĤ¿ãĥķ":1669,"ãĤ¿ãĥ¼ãĥ³":1670,"ãĤ¿ãĥłãĥ³":1671,"ãĤ¿ãĥªãĥ«ãĥ³":1672,"ãĤ¿ãĥĲãĥ«":1673,"ãĥĮãĥĹãĤ¹":1674,"ãĥĮãĥ³ãĤ¬":1675,"ãĥĮãĤŃãĥ«ãĥ³":1676,"ãĥĳãĥĸ":1677,"ãĥĳãĥ¼ãĤ·":1678,"ãĥĳãĤ«ãĤ¹ãĥ³":1679,"ãĥĳãĤ°ãĥ³":1680,"ãĤ¦ãĤ¹ãĥ³":1681,"ãĤ¦ãĥªãĥ«ãĥ³":1682,"ãĤ¦ãĥĢãĥ©":1683,"ãĤ¦ãĥĦãĤ¡ãĤ¹ãĥ³":1684,"ãĤµãĤ¸":1685,"ãĤµãĥĢ":1686,"ãĥłãĤ¯":1687,"ãĥłãĥł":1688,"ãĥłãĥ¼ãĥ³":1689,"ãĥłãĥ¨ãĥ¼":1690,"ãĥ©ãĤµ":1691,"ãĥĥãĥĦ":1692,"ãĥĥãĤ·ãĥ³":1693,"ãĤ¢ãĥŀãĤ¤":1694,"ãĤ¢ãĤ·ãĤ¥ãĤ«ãĤ¤":1695,"ãĤ¢ãĥĢãĥ³":1696,"ãĤ¢ãĥ¯ãĥª":1697,"ãĥĪãĤ¥ãĥ¼ãĥ³":1698,"ãĥĪãĤ¥ãĥ¼ãĤ·":1699,"ãĥĪãĤ¥ãĥŀãĥ«ãĥ³":1700,"ãĥģãĤ¸":1701,"ãĥģãĥ§ãĥ¼":1702,"ãĥĲãĤ¦":1703,"ãĥŁãĥ¼ãĥĶ":1704,"ãĤ¬ãĥĬãĤ·":1705,"ãĥĶãĥ©ãĤ¤":1706,"ãĥĶãĥ§":1707,"ãĥĶãĥ¼ãĥ©ãĤ¹ãĥ³":1708,"ãĥĶãĥ£ãĥ¼":1709,"ãĥĶãĤ«ãĥª":1710,"ãĥĶãĥ£ãĥ¼ãĥ³":1711,"ãĥĸãĤ¹ãĤ¯":1712,"ãĥĢãĥ¼ãĥ©":1713,"ãĥĢãĥ¼ãĤŃ":1714,"ãĥĵãĥ§ãĥ¼":1715,"ãĥĵãĥĢãĥ¼":1716,"ãĥĨãĤ£ãĤ¸":1717,"ãĤ¶ãĥ¼ãĥª":1718,"ãĥīãĥ¼ãĥª":1719,"ãĥīãĥ¼ãĥ¬ãĥ¼":1720,"ãĥīãĤ¥ãĥ¼ãĤ·":1721,"ãĥ¦ãĥĬ":1722,"ãĥ¦ãĥ¼ãĥ«":1723,"ãĥ¦ãĥ¼ãĥģ":1724,"ãĥĹãĥ©":1725,"ãĤ®ãĥ©":1726,"ãĤ®ãĥ¥":1727,"ãĤ·ãĤŃãĥ«":1728,"ãĤ·ãĤŃãĥ©ãĥªãĥ³":1729,"ãĥ¼ãĥŀãĥ¼ãĥ«":1730,"ãĤºãĥĭ":1731,"ãĤ³ãĥ¼ãĤ¸":1732,"ãĥĥãģµãĤ£":1733,"ãĤ«ãĤ¤ãĤ·ãĥ³":1734,"ãĥ³ãĤ¬ãĤ¿":1735,"ãĥĥãģµãĤ¡ãĥĨãĤ£":1736,"ãĥĳãĥĬãĥĢãĥ«":1737,"ãĥĳãĥ³ãĥģ":1738,"ãĥĳãĥ³ãĥĦãĥ³":1739,"ãĥĳãĥ³ãĤ¯ãĥ«ãĥ³":1740,"ãĥĲãĤ¿ãĤ·":1741,"ãĥ¨ãĥ¼ãĥĭ":1742,"ãĥĬãĥŀãĥ«ãĥ³":1743,"ãĥĬãĥŀãĤ·ãĤŃ":1744,"ãĥĥãĤµãĥ«ãĥ³":1745,"ãĥĥãĤµãĤ¤ãĥ«ãĥ³":1746,"ãĥĥãĤµãĥªãĥłãĥĮ":1747,"ãĤ«ãĤ¿ãĥĬ":1748,"ãĤ«ãĤ¿ãĥłãĥ³":1749,"ãĥ¼ãĥķãĥ³":1750,"ãĥ¼ãĥķãĥĢ":1751,"ãĥİãĥ¼ãĥ©":1752,"ãĥ¼ãĥ¤ãĥ³":1753,"ãĥ³ãĥĢãĤ¤":1754,"ãĥĩãĤ£ãĥĹãĤ¹":1755,"ãĥĥãĤ¯ãĥ«ãĥ³":1756,"ãĥ¼ãĤ¸ãĥ¼":1757,"ãĤ¢ãĤ¬ãĥ«ãĥ³":1758,"ãĤªãĥ³":1759,"ãĥŀãĥªãĥ«ãĥ³":1760,"ãĥ¼ãĥĸãĥ¼":1761,"ãĥ¼ãĥĸãĥ³":1762,"ãĥ¼ãĥĸãĤ·":1763,"ãĥ¼ãĥĸãĤ¯":1764,"ãĥıãĥ³":1765,"ãĥıãĤ®":1766,"ãĤ§ãĥ¼ãĥ³":1767,"ãĥ¼ãĥĲãĤ¿":1768,"ãĤ·ãĤ¥ãĤ«ãĤ¹ãĥ³":1769,"ãĤ¢ãĥ©ãĥ¼ãĥ³":1770,"ãĤ¢ãĤ¤ãĥ¤":1771,"ãĥ¼ãĥĭãĥ³":1772,"ãĥĬãĤ¬ãĤ¹ãĥ³":1773,"ãĤ¿ãĥ³ãĥĩãĤ£":1774,"ãĥĳãĤ¤ãĥ«":1775,"ãĤ¢ãĥ³ãĥĬãĥ¼ãĥŀ":1776,"ãĥĶãĥ¼ãĤº":1777,"ãĥĪãĤ¥ãĤ·ãĥĮ":1778,"ãĥ¼ãĥĶãĤ¯ãĥ³":1779,"ãĤ·ãĤ¿ãĥ¼ãĥŀ":1780,"ãĤ°ãĥ«ãĤ°ãĥ«":1781,"ãĥķãĥ³ãĥĦãĤ¡":1782,"ãĤŃãĤ·ãĥłãĥĮ":1783,"ãĤ´ãĥ¼ãĤµãĥ³":1784,"ãĥĿãĥ¼ãĥĿ":1785,"ãĥĽãĥ¼ãĥ«":1786,"ãĤ¯ãĥĲãĥ¼ãĥ³":1787,"ãĤµãĥ©ãĥ¼ãĥ³":1788,"ãĤ¦ãĤ¯ãĥ«ãĥ³":1789,"ãĥ¼ãĥīãĥ¼":1790,"ãĤ¢ãĤŃãĥĬãĤ¤":1791,"ãĥļãĥ¼":1792,"ãĤ¿ãĥ©ãĥ¼ãĤ·":1793,"ãĥ¼ãĥīãĤ¥ãĥ¼":1794,"ãĥīãĥ¼ãĥ³ãĤ°":1795,"ãĤ¯ãĥ®ãĥ³":1796,"ãĤ¨ãĥ¼":1797,"ãĥĪãĤ¥ãĥ³ãĤ¯ãĤ¤ãĥĪãĤ¥ãĥ³ãĤ¯ãĤ¤":1798,"ãĥĺãĥ¼":1799,"ãĤ°ãĥĥãģµãĤ¡ãĥ³":1800,"ãĤ´ãĥ¼ãĥĢãĥ¼":1801,"ãĥ³ãĤ«ãĤ¤":1802,"ãĤ·ãĥĻ":1803,"ãĤ·ãĥ¼ãĥĪãĤ¥":1804,"ãĤ«ãĥģ":1805,"ãĤ«ãĤ°":1806,"ãĤ«ãĤµãĥ³":1807,"ãĤ«ãĤ«ãĥ¼":1808,"ãĤ«ãĥŁãĥ«ãĥ³":1809,"ãĤ«ãĥªãĥ³":1810,"ãĤ¤ãĥĢ":1811,"ãĤ¤ãĤ½":1812,"ãĤ¤ãĤ¯ãĤµ":1813,"ãĥ«ãĥ¼":1814,"ãĥ«ãĥŀ":1815,"ãĤŃãĥ«":1816,"ãĤŃãĥłãĥ³":1817,"ãĤŃãĥ¢":1818,"ãĤŃãĥ¥ãĥ¼":1819,"ãĤŃãĥ§ãĥ¼":1820,"ãĤŃãĥĥãĥĪãĤ¥":1821,"ãĤ¹ãĥł":1822,"ãĤ¹ãĥ¼ãĥ³":1823,"ãĤ¹ãĥ¼ãĥ¯ãĥ³":1824,"ãĥĬãĥĲ":1825,"ãĥĬãĥłãĥĮ":1826,"ãĥĬãĥŀãĤ¤":1827,"ãĥĬãĥŁãĥ«ãĥ³":1828,"ãĥĬãĤ·ãĤ¥ãĤ«":1829,"ãĥĬãĥ¼ãĥªãĥłãĥĮ":1830,"ãĥĬãĥ¼ãĥĦãĤ¡":1831,"ãĤ¯ãĥł":1832,"ãĤ¯ãĤ·ãĤŃ":1833,"ãĤ¯ãĥŀãĥ¼":1834,"ãĤ¯ãĥĲãĥ³":1835,"ãĥŀãĥ¦":1836,"ãĥŀãĥ³ãĤ°":1837,"ãĥŀãĥ©ãĤ¹ãĥ³":1838,"ãĤ¿ãĥĸãĥ«":1839,"ãĤ¿ãĥ¦ãĥ«":1840,"ãĥĮãĥŀ":1841,"ãĥĮãĥĸãĥ³":1842,"ãĥĮãĤ«ãĥ³":1843,"ãĥĮãĥĻ":1844,"ãĥĮãĤ¹ãĥ¼":1845,"ãĥĳãĤŃ":1846,"ãĥĳãĥªãĥ³":1847,"ãĥĳãĤ·ãĤ¥ãĤ«":1848,"ãĥĳãĥ¼ãĥ¬":1849,"ãĥĳãĥ¼ãĥĹ":1850,"ãĥĳãĥ¼ãĥłãĥĮ":1851,"ãĥĳãĤ¬ãĥĭ":1852,"ãĥĳãĥĲãĤ¯ãĥ³":1853,"ãĥĳãĤ´ãĥ¼ãĤµãĥ³":1854,"ãĤ¦ãĥ¯":1855,"ãĤµãĥłãĥ³":1856,"ãĤµãĥŁãĥ«ãĥ³":1857,"ãĤµãĤ«ãĤµ":1858,"ãĤµãĤ«ãĥĬ":1859,"ãĥłãĥŁ":1860,"ãĥ©ãĤµãĥ³":1861,"ãĥĪãĥ¼ãĥ«ãĥ³":1862,"ãĥĪãĥ¼ãĥĪãĤ¥":1863,"ãĥĥãĤ³":1864,"ãĥĥãĤ½ãĥ¼ãĥ³":1865,"ãĤ¢ãĥīãĤ¥":1866,"ãĤ¢ãĥ¼ãĥª":1867,"ãĤ¢ãĥ¼ãĥĳ":1868,"ãĤ¢ãĥŀãĥª":1869,"ãĤ¢ãĤ«ãĤ¹ãĥ³":1870,"ãĥªãĤ¯ãĥĥãĥģ":1871,"ãĥĪãĤ¥ãĥ¼ãĥĮ":1872,"ãĥĪãĤ¥ãĥ¼ãĤ¹ãĥ³":1873,"ãĥĪãĤ¥ãĥ©ãĤ¹ãĥ³":1874,"ãĥĲãĥĭ":1875,"ãĥŁãĥĮ":1876,"ãĥŁãĥª":1877,"ãĥŁãĥ¥":1878,"ãĥŁãĥ¼ãĥĢ":1879,"ãĥŁãĥ¼ãĥĥãĤµ":1880,"ãĥ¤ãĥ¼ãĤ·":1881,"ãĥ¤ãĤ¯ãĥ³":1882,"ãĥ¤ãĥĬãĤ«":1883,"ãĥ¤ãĤ´":1884,"ãĥĭãĥ«ãĥ³":1885,"ãĥĭãĥĸ":1886,"ãĥĭãĥ¼ãĥª":1887,"ãĥĭãĥ³ãĤ¬":1888,"ãĥĭãĥ³ãĤ°":1889,"ãĥĭãĥ¼ãĥ¤":1890,"ãĥĭãĥķãĤ¿":1891,"ãĥĭãĥ¼ãĥ¬":1892,"ãĥĭãĥĥãĤ¿":1893,"ãĥĭãĥ¼ãĥłãĥĪãĤ¥":1894,"ãĤ¸ãĤ¯":1895,"ãĤ¬ãĥ«":1896,"ãĤ¬ãĥ¤":1897,"ãĤ¬ãĥķ":1898,"ãĤ¬ãĤ¯ãĥ³":1899,"ãĤ¬ãĤŃãĥ«ãĥ³":1900,"ãĤ¬ãĤ¤ãĤ·":1901,"ãĥķãĥ¦":1902,"ãĥķãĥłãĥ³":1903,"ãĥķãĥĩãĤ£":1904,"ãĥķãĤºãĥ³":1905,"ãĥĶãĤ¹":1906,"ãĥĶãĥ¼ãĥł":1907,"ãĥĶãĤ«ãĥ©":1908,"ãĥĶãĤ«ãĤ¤ãĥ«ãĥ³":1909,"ãĥĶãĥ¼ãĥĥãĤµ":1910,"ãĥĶãĤ«ãĤ¦ãĥ³":1911,"ãĥĸãĤ¤":1912,"ãĥĨãĥ¼ãĥĬ":1913,"ãĥĢãĥ©ãĤ¹ãĥ³":1914,"ãĥĢãĥªãĥłãĥĮ":1915,"ãĥĵãĥ©":1916,"ãĥĵãĥ¼ãĥĵ":1917,"ãĥĵãĥĢãĥ©":1918,"ãĥĨãĤ£ãĥ«":1919,"ãĥĨãĤ£ãĥ©":1920,"ãĥĨãĤ£ãĥ¼ãĤ·":1921,"ãĥĨãĤ£ãĥ¼ãĥĳ":1922,"ãĤ°ãĤ¯":1923,"ãĤ¶ãĥ«ãĥ³":1924,"ãĥ¼ãĥ³ãĤ®ãĤµãĥ³":1925,"ãĥ¼ãĥ«ãĥ¯":1926,"ãĥīãĤ¥ãĤŃãĥ«ãĥ³":1927,"ãĥīãĤ¥ãĤ¯ãĥ«":1928,"ãĥīãĤ¥ãĥĥãĥĪãĤ¥":1929,"ãĥīãĤ¥ãĥ¼ãĥĵ":1930,"ãĥīãĤ¥ãĥ©ãĥ¼ãĥ³":1931,"ãĥ¦ãĤ·ãĤŃ":1932,"ãĥ¦ãĥĬãĤ«":1933,"ãĥ¦ãĥ¼ãĥĬãĥ¼":1934,"ãĤ¯ãĥ³ãĤ¾":1935,"ãĤ¯ãĥ³ãĤ¾ãĥ¼":1936,"ãĥ¼ãĥ©ãĤµãĥ³":1937,"ãĤºãĥ¼ãĤ·":1938,"ãĤµãĥ³ãĥŁãĥ³":1939,"ãĤ«ãĤ¤ãĥª":1940,"ãĥ³ãĤ¬ãĥ¼":1941,"ãĥ³ãĤ¬ãĤ¹ãĥ³":1942,"ãĤ½ãĥ¼ãĥĮ":1943,"ãĥĥãģµãĤ¡ãĤ¹ãĥ³":1944,"ãĥĳãĥĬãĥĮ":1945,"ãĥĳãĥĬãĥķãĤ¯ãĥ³":1946,"ãĥĳãĥĬãĥ³ãĤ®":1947,"ãĥĳãĥ³ãĥĳãĥ³":1948,"ãĥĳãĥ³ãĤ¸ãĥ§ãĥ¼":1949,"ãĥķãĥģãĥĮ":1950,"ãĥŀãĤ¤ãĤ·":1951,"ãĥŀãĤ¤ãĥ¤ãĥ³":1952,"ãĥ¼ãĥĬãĥ«ãĥ³":1953,"ãĥ¼ãĥĬãĥĵ":1954,"ãĥĲãĤ¿ãĤ³ãĥ¼ãĥ«ãĥ³":1955,"ãĥ¨ãĥ¼ãĥĥãĤ¿":1956,"ãĤ¹ãĤ¯ãĥ«":1957,"ãĤ¹ãĤ¯ãĥłãĥ³":1958,"ãĥĬãĥŀãĤ·":1959,"ãĥĬãĥŀãĥª":1960,"ãĤ«ãĤ¿ãĥŁãĥ«ãĥ³":1961,"ãĤ·ãĥ³ãĤ¶":1962,"ãĤ´ãĤ¤":1963,"ãĤ´ãĥ¼ãĥª":1964,"ãĤ´ãĥ¼ãĥ©ãĥ¼":1965,"ãĥĪãĤ¥ãĥªãĤ·ãĥ©":1966,"ãĥ¼ãĤŃãĤ¹ãĥ³":1967,"ãĥĲãĤ«ãĥ¤ãĥ³":1968,"ãĤŃãĥłãĥģ":1969,"ãĤ¾ãĥ¼ãĥİ":1970,"ãĥĥãĤ¯ãĥŁãĥ«ãĥ³":1971,"ãĤ¢ãĤ¬ãĥª":1972,"ãĤªãĤ·ãĤŃ":1973,"ãĤªãĥ¼ãĤ¹ãĥ³":1974,"ãĤªãĥ¼ãĥ«ãĥ¯":1975,"ãĤ§ãĥ¼ãĥ©":1976,"ãĥľãĥ¼ãĤ·":1977,"ãĥĥãĥĦãĤ¡ãĤ¹ãĥ³":1978,"ãĥĥãĤ«ãĤ¯":1979,"ãĤµãĥ¼ãĤ¯":1980,"ãĥĳãĤ¿ãĥĥãĤ«ãĥ«ãĥ³":1981,"ãĥ¦ãĥ¼ãĤº":1982,"ãĥ¦ãĥ¼ãĤ¯ãĤ¤":1983,"ãĥķãĤ¿ãĥ¼ãĥģ":1984,"ãĤ¦ãĥ¤ãĤ¶":1985,"ãĥĳãĥ¤ãĥ¼ãĥª":1986,"ãĥĬãĤ¬ãĥŁ":1987,"ãĥĬãĤ¬ãĥ¼ãĥ³":1988,"ãĤ¤ãĤŃãĤ¹ãĥ³":1989,"ãĥ¨ãĥ¼ãĤ«":1990,"ãĤ¿ãĥ³ãĤ«ãĥ¼":1991,"ãĥ¡ãĥ¼ãĥ©":1992,"ãĤ·ãĥĵãĥ«ãĥ³":1993,"ãĤ·ãĥĵãĥķ":1994,"ãĤ¤ãĥ³ãĥĮ":1995,"ãĥŃãĥ¼ãĤ·":1996,"ãĥŃãĥ¼ãĥ«ãĥ³":1997,"ãĥĪãĤ¥ãĥ«ãĥĲãĤ¤":1998,"ãĥĶãĤµãĤ·":1999,"ãĤ«ãĤµãĥĵ":2000,"ãĤ°ãĥ«ãĥŀ":2001,"ãĥĵãĥ¼ãĤµãĥĵ":2002,"ãĥĢãĤ¤ãĤ¯ãĥĭ":2003,"ãĤ¤ãĤºãĥ³":2004,"ãĥĬãĥ©ãĥ¼ãĤ¹ãĥ³":2005,"ãĤ¢ãĥŁãĥĦãĤ¡":2006,"ãĤ´ãĥ¼ãĤµ":2007,"ãĤ¾ãĥ¼ãĤ°":2008,"ãĥĿãĥ¼ãĥ«ãĥ³":2009,"ãĥĿãĥĥãĥģ":2010,"ãĤ¬ãĥ©ãĤ¹":2011,"ãĤ¯ãĥĲãĥ«ãĥ³":2012,"ãĥĳãĥ«ãĥŁ":2013,"ãĥĳãĥ«ãĤ¹ãĥ¼ãĥĸ":2014,"ãĥĥãĤ¿ãĥ©":2015,"ãĥĳãĥ©ãĤ¦ãĥ³":2016,"ãĥĳãĥ©ãĥĥãĥĦãĤ¡":2017,"ãĥ¼ãĥĵãĤŃ":2018,"ãĥĮãĤ·ãĥĪãĤ¥ãĥ³":2019,"ãĤ«ãĥŁãĥĮ":2020,"ãĥĶãĥ³ãĤ®":2021,"ãĤ¤ãĥ©ãĥĵ":2022,"ãĥĬãĥĵãĥĮ":2023,"ãĤ·ãĥĬãĥ¼ãĤ¹ãĥ³":2024,"ãĥĪãĤ¥ãĥ©ãĥĮ":2025,"ãĥĪãĤ¥ãĤ¸ãĥĸãĥĪãĤ¥":2026,"ãĤ¤ãĤ«ãĥ¼ãĥ©":2027,"ãĥ³ãĤ®ãĥ³":2028,"ãĥĬãĥĢãĤ«":2029,"ãĤ¢ãĥ¼ãĤ¯ãĥ³":2030,"ãĤ¯ãĥŀãĥ¼ãĥ³":2031,"ãĥŀãĥ©ãĥĲãĤ¹ãĥ³":2032,"ãĥĥãĥĪãĥ¼ãĥ«ãĥ³":2033,"ãĥ¤ãĥ¼ãĥ©ãĥ¼ãĥ³":2034,"ãĥ¤ãĥ¼ãĥ©ãĤ¯ãĥ³":2035,"ãĥĳãĥĨãĤ£ãĥłãĥĮ":2036,"ãĥĳãĥĨãĤ£ãĥ«ãĥŀ":2037,"ãĥĭãĥ¼ãĥĲãĥ«":2038,"ãĥĳãĥĦãĤ¡ãĥ¼ãĥ³":2039,"ãĤ«ãĤ¿ãĥģãĥĭ":2040,"ãĥİãĥ¼ãĥ³ãĥĨãĤ£ãĥ³":2041,"ãĤŃãĤ¶ãĥ«":2042,"ãĥĸãĥĥãĥĦ":2043,"ãĤ«ãĥ©ãĥ¼ãĤµãĥ³":2044,"ãĥĢãĤ«ãĥ¼ãĥ³":2045,"ãĤ¿ãĥ«ãĤ¬ãĤŃ":2046,"ãĥ£ãĥ³ãĥĹ":2047,"ãĤ«ãĥ³ãĤ¬ãĥ³":2048,"ãĥĬãĤ¦ãĤ¹ãĥ³":2049,"ãĤ½ãĥ¼ãĥŁãĥ³":2050,"ãĥĬãĥĻãĥ¼ãĥ©":2051,"ãĥĬãĥŀãĤ¸ãĥ©ãĤ¹ãĥ³":2052,"ãĥĥãĤµãĥªãĤ«ãĤ¶":2053,"ãĤ¹ãĤ³ãĥ¼ãĥ«":2054,"ãĥĥãĥĦãĤ©ãĥ¼ãĥ«ãĥ³":2055,"ãĥĭãĥ¼ãĥĸãĤ¿ãĥ¼":2056,"ãĤŃãĤ¯ãĥĥãĥĦãĤ¡ãĥ¼ãĥ³":2057,"ãĥ³ãĤ·":2058,"ãĥ³ãĥĸ":2059,"ãĥ³ãĥĹ":2060,"ãĥ³ãĤ¿ãĥ¼":2061,"ãĥ³ãĥĸãĤ·":2062,"ãĥ³ãĤ±ãĥ¼ãĥª":2063,"ãĥ¼ãĥĴ":2064,"ãĤ·ãĥĬãĤ«":2065,"ãĤ·ãĥŀãĥ¼":2066,"ãĤ·ãĥŀãĥª":2067,"ãĤ·ãĥĲãĥ©":2068,"ãĤ·ãĥĪãĤ¥ãĥ«":2069,"ãĤ·ãĥĪãĤ¥ãĥłãĥĨãĤ£":2070,"ãĤ«ãĤ®":2071,"ãĤ«ãĤ·ãĤŃ":2072,"ãĤ«ãĥ¼ãĥĮ":2073,"ãĤ«ãĥ¼ãĥķ":2074,"ãĤ«ãĥŀãĥ¼":2075,"ãĤ«ãĥ¼ãĥĢ":2076,"ãĤ«ãĤ·ãĥ©":2077,"ãĤ«ãĥĪãĥ³":2078,"ãĤ«ãĤ®ãĥ³":2079,"ãĤ¤ãĤ¹":2080,"ãĤ¤ãĥĭ":2081,"ãĤ¤ãĤ¶":2082,"ãĤ¤ãĥ¼ãĥ«":2083,"ãĤ¤ãĥ¼ãĤ·":2084,"ãĤ¤ãĥĬãĤ«":2085,"ãĤ¤ãĤ·ãĤ¥ãĤ«":2086,"ãĤ¤ãĥĥãĤ¹":2087,"ãĤ¤ãĥĥãĥĪãĤ¥":2088,"ãĥ«ãĤ¤":2089,"ãĤŃãĥĢ":2090,"ãĤŃãĥīãĤ¥":2091,"ãĤŃãĥ¼ãĥĢ":2092,"ãĤŃãĤµãĤ¹ãĥ³":2093,"ãĤŃãĤ·ãĤŃãĥ³":2094,"ãĤ¹ãĥĮ":2095,"ãĤ¹ãĥ«ãĥ³":2096,"ãĤ¹ãĤ«ãĥ¼":2097,"ãĤ¹ãĥ¼ãĥģ":2098,"ãĥĬãĥīãĤ¥":2099,"ãĥĬãĥªãĥ«ãĥ³":2100,"ãĥĬãĤµãĥ¼":2101,"ãĥĬãĤ±ãĥ¼":2102,"ãĥĬãĤ¯ãĥ©":2103,"ãĥĬãĥĥãĥģãĥ³":2104,"ãĤ¯ãĥ¼ãĥª":2105,"ãĤ¯ãĥªãĥ«ãĥ³":2106,"ãĤ¯ãĤ¬ãĥ«ãĥ³":2107,"ãĤ¯ãĤ¬ãĥªãĥ«ãĥ³":2108,"ãĤ¯ãĥīãĤ¥ãĤŃ":2109,"ãĥŀãĤ¶":2110,"ãĥŀãĤ®":2111,"ãĥŀãĥªãĥ³":2112,"ãĥŀãĥ¼ãĥĳ":2113,"ãĥŀãĤ¿ãĤ«":2114,"ãĥŀãĥĸãĥ«":2115,"ãĤ¿ãĥª":2116,"ãĤ¿ãĥ¤":2117,"ãĤ¿ãĤ«ãĥ©":2118,"ãĤ¿ãĥŁãĥ«ãĥ³":2119,"ãĤ¿ãĥ¼ãĥģ":2120,"ãĥĮãĤŃãĥ³":2121,"ãĥĮãĤ¦ãĤ¿":2122,"ãĥĮãĤ«ãĤ·":2123,"ãĥĮãĤŃãĥłãĥĮ":2124,"ãĥĮãĥĸãĥª":2125,"ãĥĮãĥĵãĥ³":2126,"ãĥĮãĤºãĥŁ":2127,"ãĥĳãĥĲ":2128,"ãĥĳãĥ¼ãĥ³":2129,"ãĥĳãĥ¼ãĥĮ":2130,"ãĥĳãĥªãĥ«ãĥ³":2131,"ãĥĳãĥ¼ãĥłãĥģ":2132,"ãĤ¦ãĥ¼ãĤ·":2133,"ãĤ¦ãĤµãĥ³":2134,"ãĤ¦ãĥĦãĤ¡":2135,"ãĤ¦ãĥĬãĥ¼":2136,"ãĤ¦ãĤŃãĥ³":2137,"ãĤ¦ãĥ¼ãĥŁ":2138,"ãĤ¦ãĥ©ãĤ·":2139,"ãĤ¦ãĥ¢":2140,"ãĤ¦ãĤµãĤ¤":2141,"ãĤ¦ãĥ¼ãĥłãĥ³":2142,"ãĤ¦ãĤ³ãĥ¼ãĤ¹ãĥ³":2143,"ãĤµãĤ¯ãĥ³":2144,"ãĤµãĥĬãĤ¤":2145,"ãĤµãĥŀãĥ«ãĥ³":2146,"ãĥłãĤµ":2147,"ãĥłãĥ«ãĥ³":2148,"ãĥłãĥĩãĤ£":2149,"ãĥłãĥ¬ãĥ¼":2150,"ãĥĪãĥ¼ãĥ©":2151,"ãĥĥãĥĳãĥ«ãĥ³":2152,"ãĥĥãĤ«ãĤ¤ãĥ«ãĥ³":2153,"ãĥĥãĤ³ãĥ¼ãĤ¹ãĥ³":2154,"ãĤ¢ãĤ¯ãĥ³":2155,"ãĤ¢ãĤ¦ãĤ·":2156,"ãĤ¢ãĥ¢":2157,"ãĥĪãĤ¥ãĤ¯ãĥ³":2158,"ãĥĪãĤ¥ãĥ¼ãĤ¸":2159,"ãĥĲãĤµãĥ³":2160,"ãĥĲãĥ¼ãĥĲãĥ¼":2161,"ãĥŁãĥ¼ãĥ³":2162,"ãĥŁãĥ¼ãĥŁ":2163,"ãĥŁãĥ¼ãĤ·ãĤŃ":2164,"ãĥŁãĥĦãĥ³":2165,"ãĥŁãĥ¼ãĥĥãĤ¹ãĥ³":2166,"ãĥ¤ãĥ«ãĥ³":2167,"ãĥ¤ãĥ¼ãĤ¹ãĥ³":2168,"ãĥ¤ãĥ¼ãĥĥ":2169,"ãĥ¤ãĥ¼ãĥłãĥĨãĤ£":2170,"ãĥ¤ãĥĸãĥ«ãĥ³":2171,"ãĥ¤ãĥĲãĥ¼ãĥ³":2172,"ãĥĭãĥĲãĤ¹ãĥ³":2173,"ãĤ¸ãĤŃ":2174,"ãĤ¸ãĥĥãĥģ":2175,"ãĤ¬ãĥŁ":2176,"ãĤ¬ãĤ¸":2177,"ãĤ¬ãĥ¼ãĤ·":2178,"ãĤ¬ãĥªãĥ³":2179,"ãĤ¬ãĥ¼ãĥĳ":2180,"ãĤ¬ãĤ«ãĥª":2181,"ãĤ¬ãĥķãĥ¼":2182,"ãĤ¬ãĥ³ãĤ¬ãĥ³":2183,"ãĥķãĤ·ãĤŃ":2184,"ãĥķãĤ«ãĥ¼":2185,"ãĥķãĤ¸ãĥ«ãĥ³":2186,"ãĥĶãĤ¶":2187,"ãĥĶãĥĥãĤ¯ãĥ³":2188,"ãĥĸãĥĬãĥ«":2189,"ãĥĸãĤµãĥ¼ãĥ©":2190,"ãĥĢãĥĬ":2191,"ãĥĢãĥ¼ãĤ·":2192,"ãĥĢãĤ¯ãĥ³":2193,"ãĥĢãĥ¤ãĥ¼":2194,"ãĥĢãĥ¼ãĥĥãĤµãĥ³":2195,"ãĥĵãĤ·ãĥ«ãĥ³":2196,"ãĥĨãĤ£ãĥ¼ãĥ³":2197,"ãĥĨãĤ£ãĥ³ãĤ¬":2198,"ãĥĨãĤ£ãĥ¼ãĥĥ":2199,"ãĥĨãĤ£ãĥ¼ãĥĢ":2200,"ãĥĨãĤ£ãĥ¼ãĤ·ãĤ¥":2201,"ãĤ°ãĥł":2202,"ãĤ°ãĥŁ":2203,"ãĤ°ãĤ¹ãĥ³":2204,"ãĤ°ãĥ³ãĤ¬ãĥģ":2205,"ãĤ°ãĥŃãĥ¼ãĥ³":2206,"ãĤ¶ãĤ³ãĥ¼":2207,"ãĤ¶ãĥŀãĥ³":2208,"ãĥ¼ãĥ³ãĥĨãĤ£":2209,"ãĥ¼ãĥ«ãĥ¼":2210,"ãĥīãĤ¥ãĤ¹ãĥ³":2211,"ãĥ¦ãĤ·":2212,"ãĥ¦ãĥ¼ãĥĮ":2213,"ãĥ¦ãĥ¼ãĥª":2214,"ãĥ¦ãĥ©ãĤ¹ãĥ³":2215,"ãĥ¦ãĥĢãĥ«":2216,"ãĥ¦ãĤ¯ãĤ·":2217,"ãĥ¦ãĥ¼ãĥīãĤ¥":2218,"ãĥłãĥĮãĥĥãģµãĤ¡ãĤ¤":2219,"ãĥĦãĥ«ãĥ³":2220,"ãĤ®ãĥ¥ãĥ¼":2221,"ãĤºãĥª":2222,"ãĤºãĥ³ãĤ°":2223,"ãĤºãĥ«ãĤ¤":2224,"ãĤ³ãĥ¼ãĥ¤ãĤ¯":2225,"ãĥĹãĤ¹ãĥĮ":2226,"ãĥ³ãĤ¬ãĥĬãĤ·":2227,"ãĤ¦ãĥ³ãĤŃ":2228,"ãĤ½ãĥ³":2229,"ãĥĥãģµãĤ¡ãĥ¼ãĥŀ":2230,"ãĥĥãģµãĤ¡ãĥ¼ãĥªãĥ³":2231,"ãĥŀãĤ¤ãĥķãĥĬãĥ¼":2232,"ãĥ¼ãĥĬãĤŃ":2233,"ãĥĲãĤ¿ãĥĥãģµãĤ¡":2234,"ãĥ¼ãĥłãĤ¹":2235,"ãĤ¹ãĤ¯ãĥĮ":2236,"ãĤ¹ãĤ¯ãĥĥãĥģ":2237,"ãĥĥãĤµãĥĮ":2238,"ãĤ±ãĥ¼ãĤ¹ãĥ³":2239,"ãĤ·ãĤ¥ãĤ¯ãĥ³":2240,"ãĤ«ãĥ¼ãĤ¸":2241,"ãĥĸãĥ³ãĤ®":2242,"ãĤ·ãĥ³ãĤ®":2243,"ãĤ·ãĥ³ãĤ«ãĤ¤ãĤ·ãĥ³":2244,"ãĥĶãĤŃãĥłãĥĮ":2245,"ãĤ´ãĥ¼ãĥĥãģµãĤ¡":2246,"ãĤ«ãĥ³ãĥĬãĥ¼ãĥ«":2247,"ãĥ¼ãĤŃãĥ«ãĥ³":2248,"ãĥ¼ãĥķãĥ¼":2249,"ãĥĪãĤ¥ãĥ³ãĤ±ãĥ¼ãĥª":2250,"ãĥĲãĤ«ãĤ·":2251,"ãĥ¤ãĥŀãĥ³ãĤ°":2252,"ãĥ³ãĥĢãĥ©":2253,"ãĥ³ãĥĢãĥĨãĤ£":2254,"ãĥĩãĤ£ãĥ¼":2255,"ãĥĩãĤ£ãĥ³":2256,"ãĥ¯ãĥ¼ãĥĲ":2257,"ãĤ«ãĤ¸ãĥŀãĥ¼ãĥ«":2258,"ãĥ¼ãĥĳãĥĬ":2259,"ãĤªãĥ¼ãĤ·":2260,"ãĤªãĥ¼ãĥ«ãĥ³":2261,"ãĤªãĥ¼ãĥĬ":2262,"ãĥ¼ãĥĲãĥª":2263,"ãĤ¦ãĤ¤ãĥĵ":2264,"ãĥľãĥ¼ãĤ¸":2265,"ãĤ·ãĥ¼ãĤ°":2266,"ãĥ¼ãĥŁãĥ«ãĥ³":2267,"ãĥĥãĤ¹ãĥ«":2268,"ãĤ¢ãĤ¤ãĤ·ãĥ³ãĤ«ãĤ¤ãĤ·ãĥ³":2269,"ãĤ¯ãĤ¤ãĥģ":2270,"ãĥ¼ãĥĭãĥ¼":2271,"ãĤ·ãĥŀãĥģ":2272,"ãĥĳãĥ¤ãĤ·":2273,"ãĥĬãĤ¬ãĥ¼":2274,"ãĥĻãĥ¼ãĥŀ":2275,"ãĤ¯ãĥ«ãĥ¼":2276,"ãĥ¼ãĥĢãĥĭ":2277,"ãĥĳãĥĢãĤ«":2278,"ãĥĳãĥĢãĥ©":2279,"ãĥ¼ãĥĪãĤ¥ãĥ«":2280,"ãĥĶãĤµãĤ¤ãĤº":2281,"ãĥ¼ãĥĶãĥ¼ãĥģ":2282,"ãĥŀãĥģãĤ¬ãĤ¤":2283,"ãĥķãĤ¯ãĥ©":2284,"ãĥķãĤ¯ãĥ©ãĤ¹ãĥ³":2285,"ãĤ¤ãĥģãĥķ":2286,"ãĤ¿ãĤ¤ãĥ©":2287,"ãĤ¿ãĤ¤ãĥ¯ãĥ³":2288,"ãĥĬãĥ©ãĤ¦ãĥ³":2289,"ãĤ«ãĥĬãĤ¦ãĥ³":2290,"ãĤ«ãĥĬãĥĳãĤ¤":2291,"ãĥĳãĤ¸ãĥŁãĥ«ãĥ³":2292,"ãĥĽãĥ¼ãĤ·":2293,"ãĥĽãĥ¼ãĤ¹ãĥ³":2294,"ãĥĪãĤ¥ãĥłãĥ«":2295,"ãĤ·ãĤ¥ãĤ«ãĤ¤ãĥ«ãĥ³":2296,"ãĤ¶ãĥ©ãĥ³":2297,"ãĥĵãĤŃãĥ«":2298,"ãĥ¡ãĥ¼ãĤ¯":2299,"ãĥĮãĤ·ãĥ¼ãĥłãĥĮ":2300,"ãĤ¦ãĤŃãĥĬ":2301,"ãĥ¼ãĥīãĥ¼ãĥª":2302,"ãĤ·ãĥĪãĤ¥ãĥŁ":2303,"ãĤ¤ãĥ©ãĤŃ":2304,"ãĤ¬ãĥŀãĥ¼ãĥ©ãĤµãĥ³":2305,"ãĤ¹ãĥĸãĥ«ãĥ¤ãĥ³":2306,"ãĥĪãĤ¥ãĥ©ãĥªãĥ³":2307,"ãĤ¿ãĤ¿ãĥĥãĤ¯ãĥ³":2308,"ãĤ¦ãĤµãĥ¼ãĤ¹ãĥ³":2309,"ãĤ²ãĥ©":2310,"ãĤ²ãĥ¼ãĥ«ãĥ³":2311,"ãĥŀãĥ©ãĤŃ":2312,"ãĤ¢ãĥĦãĤ¡ãĥ³":2313,"ãĤ¯ãĥģãĤµ":2314,"ãĤ°ãĥ®ãĥģ":2315,"ãĤ·ãĤ§ãĥ³":2316,"ãĤ¦ãĥ©ãĤ¶":2317,"ãĤ¦ãĥĪãĤ¥ãĤ¶":2318,"ãĤ¦ãĥ³ãĥĮãĤ·ãĥ«":2319,"ãĥĮãĤŃãĥ«":2320,"ãĥĪãĤ¥ãĥ¼ãĤµ":2321,"ãĤ³ãĥ¼ãĥ©ãĤ·":2322,"ãĥĥãĤ±ãĥ¼ãĥ©ãĤ¹ãĥ³":2323,"ãĤ·ãĥĲãĥ«ãĥĮ":2324,"ãĥĲãĥĥãĥĳãĤ¤":2325,"ãĤ¢ãĥ³ãĤ¬ãĥŀ":2326,"ãĤ¢ãĥ³ãĤ¬ãĥª":2327,"ãĤ¬ãĥĥãĤ³":2328,"ãĤ¬ãĥĥãĥĨãĤ£ãĥ³":2329,"ãĥ¦ãĥ¼ãĤ·ãĥ«ãĥ³":2330,"ãĥ¼ãĥĩãĤ£ãĥŀãĥª":2331,"ãĥĬãĤ¦ãĥ«ãĥ³":2332,"ãĥ¤ãĥĥãĤ³ãĥ³":2333,"ãĤ¿ãĥľãĥ¼ãĥ©ãĥªãĥ³":2334,"ãĥ¼ãĥ¡ãĥ¼":2335,"ãĥ¼ãĥ¢ãĥ¼":2336,"ãĥĳãĤ«ãĥ©ãĤ¦ãĥ³":2337,"ãĥĳãĤ¶ãĤ¯ãĥ³":2338,"ãĥ£ãĥ³ãĥĹãĥ«ãĥ¼":2339,"ãĥĬãĤ¯ãĥ©ãĥ¼ãĥ³":2340,"ãĥ³ãĥīãĤ¥":2341,"ãĥ³ãĥĦãĤ¡":2342,"ãĥ³ãĥĬãĥ©ãĥĮ":2343,"ãĥ³ãĤ¶ãĤ·":2344,"ãĥ³ãĥ¡ãĥ¼ãĥŀ":2345,"ãĤ·ãĥ¼ãĥ©":2346,"ãĤ·ãĥ¼ãĥŀ":2347,"ãĤ·ãĥĬãĤ¤":2348,"ãĤ·ãĥ¥":2349,"ãĤ·ãĥ§":2350,"ãĤ·ãĥĢãĥ«":2351,"ãĤ·ãĥĥãĤŃ":2352,"ãĤ«ãĤ³ãĥ¼":2353,"ãĤ«ãĥ¼ãĥģ":2354,"ãĤ«ãĤ«ãĥ«":2355,"ãĤ«ãĤ¦ãĥª":2356,"ãĤ«ãĥ¼ãĤ·ãĤŃ":2357,"ãĤ«ãĤ®ãĥª":2358,"ãĤ«ãĤ«ãĥ©ãĥ¼":2359,"ãĤ«ãĥ¼ãĥķãĤŃ":2360,"ãĤ¤ãĥŀ":2361,"ãĤ¤ãĤ·ãĤ¥":2362,"ãĤ¤ãĥ¼ãĥĳ":2363,"ãĤ¤ãĤ¸ãĥ³":2364,"ãĤ¤ãĥĲãĤ¤":2365,"ãĤ¤ãĥĪãĤ¥ãĥŀ":2366,"ãĤ¤ãĤ½ãĥ¼ãĤ·":2367,"ãĤ¤ãĤŃãĥłãĤ·":2368,"ãĥ«ãĥ¼ãĤ·":2369,"ãĤŃãĥ¼ãĥ«":2370,"ãĤŃãĥ¼ãĤ·":2371,"ãĤŃãĥ£":2372,"ãĤŃãĤ·ãĥ«":2373,"ãĤŃãĥ¼ãĥĹ":2374,"ãĤŃãĥ£ãĥ¼ãĥ³":2375,"ãĤŃãĥľãĥ¼ãĤ·":2376,"ãĤ¹ãĥ¼ãĥĶ":2377,"ãĤ¹ãĥ¼ãĤ·ãĤŃ":2378,"ãĥĬãĤµ":2379,"ãĥĬãĥĸ":2380,"ãĥĬãĥ¼ãĤ¹ãĥ³":2381,"ãĥĬãĤµãĥ³":2382,"ãĥĬãĥ¼ãĥ¤":2383,"ãĥĬãĥ¼ãĥĲ":2384,"ãĥĬãĥªãĥłãĥĮ":2385,"ãĥĬãĥ©ãĤ·":2386,"ãĥĬãĥ¼ãĥ©ãĤ¹ãĥ³":2387,"ãĥĬãĥ¼ãĥ¬ãĥ¼":2388,"ãĥĬãĤ¦ãĥª":2389,"ãĥĬãĥ¼ãĤ·ãĤŃ":2390,"ãĥĬãĤµãĤ¹ãĥ³":2391,"ãĥĬãĥĸãĥ©":2392,"ãĥĬãĥ³ãĤ°ãĥ³":2393,"ãĥĬãĥ¼ãĥĿ":2394,"ãĥĬãĥ¼ãĥīãĥ¼ãĥª":2395,"ãĤ¯ãĤ¯":2396,"ãĤ¯ãĤ¹ãĥ³":2397,"ãĤ¯ãĥĸãĥ³":2398,"ãĤ¯ãĤ¯ãĥĮ":2399,"ãĤ¯ãĥĭãĥģ":2400,"ãĤ¯ãĥ¡ãĥ¼ãĥĮ":2401,"ãĥŀãĥ¼ãĥŀ":2402,"ãĥŀãĥ¤ãĥ¼":2403,"ãĥŀãĥĬãĥ¼":2404,"ãĥŀãĤ«ãĤ¹ãĥ³":2405,"ãĥŀãĥ¼ãĥĭ":2406,"ãĥŀãĥ¼ãĥĢ":2407,"ãĥŀãĥ¼ãĥ¬ãĥ¼":2408,"ãĤ¿ãĥĥ":2409,"ãĤ¿ãĥĲ":2410,"ãĤ¿ãĥŁ":2411,"ãĤ¿ãĥĢ":2412,"ãĤ¿ãĥ¼ãĤ·":2413,"ãĤ¿ãĥ¼ãĥĬ":2414,"ãĤ¿ãĥ³ãĤ°":2415,"ãĤ¿ãĤ¹ãĤ¯ãĥ³":2416,"ãĤ¿ãĤ¤ãĥ«ãĥ³":2417,"ãĤ¿ãĤ¿ãĤ«":2418,"ãĤ¿ãĤ·ãĤ«":2419,"ãĤ¿ãĤ¯ãĥŀ":2420,"ãĤ¿ãĥŁãĤ·":2421,"ãĥĮãĤ¯":2422,"ãĥĮãĥĸ":2423,"ãĥĮãĤµãĥ³":2424,"ãĥĮãĥłãĥ³":2425,"ãĥĮãĥĲãĤ¿":2426,"ãĥĮãĥĥãĤµ":2427,"ãĥĮãĤ¹ãĤ¯ãĥ³":2428,"ãĥĮãĥ¼ãĥĨ":2429,"ãĥĮãĥĥãĥĦãĤ¡":2430,"ãĥĮãĥķãĤ¿":2431,"ãĥĮãĤ¯ãĤ¤":2432,"ãĥĮãĤ¢ãĥ³":2433,"ãĥĮãĤ®ãĥ«ãĥ³":2434,"ãĥĮãĤ·ãĤŃãĥ«ãĥ³":2435,"ãĥĮãĤ°ãĥ³":2436,"ãĥĮãĥ¼ãĥ¦":2437,"ãĥĮãĥ¼ãĥ¤ãĥ¼":2438,"ãĥĮãĤ¶ãĤŃ":2439,"ãĥĮãĤ¦ãĥĩãĤ£":2440,"ãĥĮãĥĥãģµãĥ³":2441,"ãĥĮãĥ¼ãĥĶãĥ¼":2442,"ãĥĳãĥ³ãĤ¬":2443,"ãĥĳãĥ¤ãĥ¼":2444,"ãĥĳãĤ´":2445,"ãĥĳãĥ¼ãĥ¤":2446,"ãĥĳãĤ¹ãĤ¯ãĥ³":2447,"ãĥĳãĤ¤ãĥ«ãĥ³":2448,"ãĥĳãĥĥãĥģ":2449,"ãĥĳãĥ¼ãĥĪãĤ¥":2450,"ãĥĳãĤ·ãĥ«":2451,"ãĥĳãĥ©ãĥ¼":2452,"ãĥĳãĤºãĥ³":2453,"ãĥĳãĤ«ãĥ«ãĥ³":2454,"ãĥĳãĥŀãĥ³":2455,"ãĥĳãĥĨãĤ£ãĥ«ãĥ³":2456,"ãĥĳãĥ¼ãĥ¬ãĥ¼":2457,"ãĥĳãĤ¬ãĤ¹ãĥ³":2458,"ãĥĳãĥįãĥ¼":2459,"ãĥĳãĥĥãĥĹ":2460,"ãĤ¦ãĤ¸":2461,"ãĤ¦ãĤ¬":2462,"ãĤ¦ãĤ·ãĤŃ":2463,"ãĤ¦ãĤ«ãĥ¼":2464,"ãĤ¦ãĥĪãĤ¥ãĤ·":2465,"ãĤ¦ãĥĨãĤ£ãĥ«ãĥ³":2466,"ãĤµãĥŀ":2467,"ãĤµãĤ«ãĤ¤":2468,"ãĤµãĤ¤ãĥ«ãĥ³":2469,"ãĤµãĥªãĥ«ãĥ³":2470,"ãĤµãĤ«ãĥª":2471,"ãĤµãĤ¯ãĤ·":2472,"ãĤµãĤ¿ãĤ¿":2473,"ãĤµãĤ¬ãĥª":2474,"ãĥłãĥ¼ãĤ¸":2475,"ãĥłãĥ¬":2476,"ãĥłãĥŁãĥ³":2477,"ãĥłãĤ¿ãĤ¤":2478,"ãĥłãĥīãĤ¥ãĤ·":2479,"ãĥłãĥİãĥ¼":2480,"ãĥłãĤ¹ãĥĵ":2481,"ãĥ©ãĥ¼ãĤ·":2482,"ãĥ©ãĥ¼ãĥŀ":2483,"ãĥ©ãĥ©ãĥĮ":2484,"ãĥ©ãĤ«ãĥĦãĤ¡":2485,"ãĥĪãĥ¼ãĥ³":2486,"ãĥĪãĥ¼ãĥª":2487,"ãĥĪãĥ¼ãĥªãĥłãĥĮ":2488,"ãĥĥãĤ«ãĥ©":2489,"ãĥĥãĥĳãĤ¤":2490,"ãĥĥãĥĨãĤ£ãĥ³":2491,"ãĥĥãĥĿãĥ¼":2492,"ãĤ¢ãĥĪãĤ¥ãĥ³":2493,"ãĤ¢ãĥĥãĤ¯":2494,"ãĤ¢ãĤ¤ãĤ·":2495,"ãĤ¢ãĤ¦ãĤ¿":2496,"ãĤ¢ãĥĨãĤ£ãĥ«ãĥ³":2497,"ãĤ¢ãĤ«ãĥŀ":2498,"ãĤ¢ãĥ³ãĤ°ãĥ³":2499,"ãĤ¢ãĤ·ãĤ¥ãĤ«ãĤ¦ãĥ³":2500,"ãĥªãĥ§":2501,"ãĥªãĥ¥ãĥ¼":2502,"ãĥĪãĤ¥ãĥŁ":2503,"ãĥĪãĤ¥ãĥĭ":2504,"ãĥĪãĤ¥ãĥ¦":2505,"ãĥĪãĤ¥ãĥĸãĥ³":2506,"ãĥĪãĤ¥ãĥĥãĤ«":2507,"ãĥĪãĤ¥ãĤ·ãĥŀ":2508,"ãĥĪãĤ¥ãĤ¯ãĥ«":2509,"ãĥĪãĤ¥ãĥīãĤ¥ãĥ«":2510,"ãĥĪãĤ¥ãĤ·ãĥĵ":2511,"ãĥĪãĤ¥ãĥ¬ãĥ¼":2512,"ãĥĪãĤ¥ãĤºãĥŁ":2513,"ãĥĪãĤ¥ãĥĲãĤ·":2514,"ãĥĪãĤ¥ãĥ¼ãĥĶãĥ¼ãĥģ":2515,"ãĥĲãĤ¹":2516,"ãĥĲãĥĦãĤ¡":2517,"ãĥĲãĤ³":2518,"ãĥĲãĤ«ãĤ¤":2519,"ãĥĲãĥ¤ãĥ¼":2520,"ãĥĲãĥĥãĤ¯":2521,"ãĥĲãĤ¹ãĥĲ":2522,"ãĥĲãĤ±ãĥ¼ãĥ©":2523,"ãĥĲãĤµãĥ¼ãĤ®":2524,"ãĥŁãĤµ":2525,"ãĥŁãĥ¼ãĤ·":2526,"ãĥŁãĤµãĥ³":2527,"ãĥŁãĥ¼ãĤ·ãĤ¥":2528,"ãĥ¤ãĤ«":2529,"ãĥ¤ãĥ«":2530,"ãĥ¤ãĤ«ãĤ¿":2531,"ãĥ¤ãĥĸãĥ³":2532,"ãĥ¤ãĥĬãĥ³":2533,"ãĥ¤ãĤ³ãĥ³":2534,"ãĥ¤ãĥ¼ãĥķãĤŃ":2535,"ãĥĭãĤ«":2536,"ãĥĭãĤ¹":2537,"ãĥĭãĥĸãĥ³":2538,"ãĥĭãĥĥãĤ«":2539,"ãĥĭãĥ¼ãĥĹ":2540,"ãĥĭãĤ·ãĤ§":2541,"ãĥĭãĤ¸ãĥ¥ãĥ¼":2542,"ãĥĭãĥ¼ãĤ¸ãĥ«":2543,"ãĥĭãĤ¬ãĤ¦ãĥ³":2544,"ãĥĭãĥ¼ãĥĵãĤŃ":2545,"ãĤ¸ãĥ¼ãĥĮ":2546,"ãĤ¸ãĥ£":2547,"ãĤ¬ãĤ·":2548,"ãĤ¬ãĥĲ":2549,"ãĤ¬ãĥ¼ãĥ³":2550,"ãĤ¬ãĥªãĥłãĥĮ":2551,"ãĤ¬ãĥ¬ãĥ¼":2552,"ãĥķãĥ¼ãĥĮ":2553,"ãĥķãĤ¯ãĤ¤":2554,"ãĥķãĤ«ãĤ¤ãĥ«ãĥ³":2555,"ãĥķãĤ³ãĥ¼ãĥ³":2556,"ãĥķãĤ³ãĥ¼ãĥ©":2557,"ãĥĶãĥŀ":2558,"ãĥĶãĤ¹ãĥ³":2559,"ãĥĶãĥ¼ãĥ³":2560,"ãĥĶãĥ¼ãĥ«ãĥ³":2561,"ãĥĶãĤ«ãĤ¤":2562,"ãĥĶãĤ½":2563,"ãĥĶãĥ¼ãĤŃ":2564,"ãĥĶãĥ¼ãĤ¸":2565,"ãĥĶãĤ«ãĤ·":2566,"ãĥĶãĥ¼ãĤ·ãĤŃ":2567,"ãĥĶãĥĬãĥ«ãĥ³":2568,"ãĥĶãĥĶãĥ«":2569,"ãĥĶãĥ¼ãĤ·ãĤ¥":2570,"ãĥĶãĤ½ãĥ¼ãĥ³":2571,"ãĥĶãĥ¼ãĥĶãĥ¼":2572,"ãĥĸãĥ¼ãĥĮ":2573,"ãĥĸãĥĮãĥ³":2574,"ãĥĸãĤ¶ãĥŀ":2575,"ãĥĨãĥ³":2576,"ãĥĨãĤ¤":2577,"ãĥĨãĤ¤ãĥ¼":2578,"ãĥĢãĥĥãģµãĤ¡":2579,"ãĥĢãĥĥãĤ«":2580,"ãĥĵãĤ·":2581,"ãĥĵãĥ«":2582,"ãĥĵãĥ¼ãĥ«ãĥ³":2583,"ãĥĵãĥ³ãĤ°":2584,"ãĥĵãĥªãĥ³":2585,"ãĥĵãĤ±ãĥ¼":2586,"ãĤ°ãĥĸ":2587,"ãĤ°ãĥŀãĥ¼":2588,"ãĤ°ãĥŀãĥª":2589,"ãĤ°ãĤ¯ãĥ«":2590,"ãĤ°ãĤ¹ãĤ¤":2591,"ãĤ°ãĥ¼ãĥĳãĥ³":2592,"ãĤ¶ãĤ«":2593,"ãĤ¶ãĥ©ãĤ¤":2594,"ãĤ¶ãĥĥãĥĪãĤ¥":2595,"ãĥīãĥ¼ãĤ·":2596,"ãĥīãĥ¼ãĥķ":2597,"ãĥīãĤ¥ãĥ¼ãĥ³":2598,"ãĥīãĤ¥ãĥ¼ãĥŀ":2599,"ãĥīãĤ¥ãĥŁãĥ³":2600,"ãĥīãĤ¥ãĥ¼ãĥ¦":2601,"ãĥīãĤ¥ãĥ¼ãĥ¦ãĥ¼":2602,"ãĥīãĤ¥ãĥ¼ãĥĸãĥĭ":2603,"ãĥīãĤ¥ãĥŀãĥ³ãĤ°":2604,"ãĥ¼ãĤ·ãĤ«ãĥ¼ãĤ·":2605,"ãĥ¦ãĤ¿":2606,"ãĥ¦ãĥĵ":2607,"ãĥ¦ãĤ¯ãĥ³":2608,"ãĥ¦ãĥ©ãĤ¤":2609,"ãĥ¦ãĥ¼ãĥķ":2610,"ãĥ¦ãĥĩãĤ£":2611,"ãĥ¦ãĥ¼ãĥĨãĤ£":2612,"ãĥ¦ãĤ°ãĥª":2613,"ãĥ¦ãĥķãĤ¡":2614,"ãĤ¯ãĥ³ãĥĦãĤ¡ãĥ¼":2615,"ãĤ¯ãĥ³ãĤ¬ãĥģ":2616,"ãĥĦãĥ«":2617,"ãĥĹãĤµ":2618,"ãĥĹãĥ«ãĥ³":2619,"ãĤ®ãĤ¿":2620,"ãĤ®ãĥ¼ãĤ·":2621,"ãĤ®ãĤ·ãĥŁ":2622,"ãĤ®ãĥ£ãĥ³":2623,"ãĤ·ãĤŃãĥĭ":2624,"ãĥ¼ãĥŀãĥ¼":2625,"ãĥ¼ãĥŀãĥ³":2626,"ãĥ¼ãĥŀãĥ«ãĥ³":2627,"ãĤºãĥ³ãĤ¬ãĥģ":2628,"ãĤµãĥ³ãĤ°":2629,"ãĥĦãĤ¡ãĥ¼ãĥ³":2630,"ãĥĦãĤ¡ãĥ¼ãĥ«ãĥ³":2631,"ãĤ³ãĥ¼ãĥ¬ãĥ¼":2632,"ãĥĥãģµãĤ©":2633,"ãĥĹãĤ¹ãĤ±ãĥ³":2634,"ãĤ«ãĤ¤ãĥ¼":2635,"ãĥ³ãĤ¬ãĤŃ":2636,"ãĥ³ãĤ¬ãĤ¤ãĤ·":2637,"ãĤ½ãĥ¼ãĥ©":2638,"ãĤ½ãĥ¼ãĥĳ":2639,"ãĥĳãĥĬãĤ¤":2640,"ãĥĳãĥĬãĥĸãĥ¼":2641,"ãĥĳãĥĬãĥ¼ãĥªãĥ«ãĥ³":2642,"ãĥĳãĥ³ãĥĭãĥ³":2643,"ãĥĳãĥ³ãĥĵãĥ³":2644,"ãĥĳãĥ³ãĤ·ãĤŃãĥ©ãĥªãĥ³":2645,"ãĥĳãĥ³ãĤ¯ãĥªãĥ«ãĥ³":2646,"ãĥŀãĤ¤ãĥ«":2647,"ãĥŀãĤ¤ãĥĬãĥĵ":2648,"ãĥĬãĤ«ãĥŀ":2649,"ãĥĬãĤ«ãĤ¶":2650,"ãĥĬãĤ«ãĥĬãĤ«":2651,"ãĥĬãĤ«ãĥŁãĥ¼":2652,"ãĥĬãĤ«ãĥĩãĤ£":2653,"ãĥĬãĤ«ãĤ°ãĥ«":2654,"ãĥĬãĤ«ãĥĪãĤ¥ãĥ«ãĥ³":2655,"ãĥĬãĤ«ãĤ¸ãĥ«":2656,"ãĥĬãĤ«ãĥİãĥ¼ãĥª":2657,"ãĥĬãĤ«ãĤ·ãĤ±ãĥ¼":2658,"ãĥĬãĤ«ãĤ°ãĥ¼":2659,"ãĥ¼ãĥĬãĥ¼ãĥ«ãĥ³":2660,"ãĥ¼ãĥĬãĥ©ãĤ¤":2661,"ãĥĲãĤ¿ãĥ«ãĥ³":2662,"ãĥĲãĤ¿ãĥŁãĥģ":2663,"ãĥĲãĤ¿ãĤ¤ãĥª":2664,"ãĥĲãĤ¿ãĥķãĤ¯ãĥ«":2665,"ãĥĲãĤ¿ãĤ«ãĥŃãĥ¼ãĥ³":2666,"ãĥ¼ãĥłãĤ·":2667,"ãĥ¨ãĥ¼ãĥª":2668,"ãĥ¨ãĥ¼ãĥĬ":2669,"ãĥ¨ãĥ¼ãĥģ":2670,"ãĥĬãĥŀãĥ©ãĤ¹ãĥ³":2671,"ãĥĬãĥŀãĥĳãĥ¼":2672,"ãĥĬãĥŀãĤ¶ãĥª":2673,"ãĥĬãĥ¼ãĤµ":2674,"ãĤ«ãĥ©ãĤ¤":2675,"ãĤ«ãĥ©ãĤ¹ãĥ³":2676,"ãĤ«ãĥ©ãĥłãĥ³":2677,"ãĤ«ãĥ©ãĤ¦ãĥ³":2678,"ãĤ·ãĥ³ãĥĢãĤ¤":2679,"ãĤ·ãĥ³ãĤ¸ãĥ«ãĥ³":2680,"ãĥĶãĤŃãĤ¹ãĤ¯ãĥ³":2681,"ãĥĶãĤŃãĤ·ãĤŃãĥ«ãĥ³":2682,"ãĥĶãĤŃãĤ¹ãĥ¼":2683,"ãĥĶãĤŃãĥķãĥģãĥ«":2684,"ãĥĶãĤŃãĥŀãĥ¼ãĤ¹ãĥ³":2685,"ãĥĶãĤŃãĤ¹ãĥ¼ãĥ«ãĥ³":2686,"ãĥĶãĤŃãĤµãĥ¼ãĥ«ãĥ³":2687,"ãĥĶãĤŃãĥłãĤ¿":2688,"ãĥĶãĤŃãĤ¯ãĥŀãĥ«ãĥ³":2689,"ãĥĶãĤŃãĥĥãĥĪãĥ¼ãĥ«ãĥ³":2690,"ãĥĶãĤŃãĥ³ãĥĬãĥ©ãĥĮ":2691,"ãĤ´ãĥ¼ãĥ³":2692,"ãĤ´ãĥ¼ãĥ©ãĥ¼ãĥ³":2693,"ãĥ¼ãĥĥãĤ¿ãĥĵ":2694,"ãĤ«ãĥ³ãĤ¶":2695,"ãĥĪãĤ¥ãĥªãĥĹãĤ¹":2696,"ãĥĪãĤ¥ãĥªãĥŀãĤ¤":2697,"ãĥĪãĤ¥ãĥªãĥŁãĥ¼":2698,"ãĥĪãĤ¥ãĥªãĤ¤ãĥª":2699,"ãĥĪãĤ¥ãĥªãĤ¢ãĥĦãĤ¡":2700,"ãĥĪãĤ¥ãĥªãĥ¼ãĥĪãĤ¥ãĥª":2701,"ãĥĪãĤ¥ãĥªãĤ«ãĤµãĥłãĥ³":2702,"ãĥ¼ãĤŃãĤ·ãĥ«ãĥ³":2703,"ãĥ¼ãĥķãĤ¯":2704,"ãĥ¼ãĥķãĥģ":2705,"ãĥ¼ãĥķãĤ¯ãĥ«":2706,"ãĥĪãĤ¥ãĥ³ãĥĬ":2707,"ãĥĲãĤ«ãĥ«ãĥ³":2708,"ãĥĲãĤ«ãĥ¤":2709,"ãĥĲãĤ«ãĥªãĥ«ãĥ³":2710,"ãĥĲãĤ«ãĤ¸ãĥ©":2711,"ãĥĲãĤ«ãĥ¤ãĤ¹ãĥ³":2712,"ãĥĬãĤ¤ãĥģ":2713,"ãĥĬãĤ¤ãĤ·ãĥŀãĥ¼":2714,"ãĤŃãĥłãĥĭ":2715,"ãĤŃãĥłãĤ¤ãĥĦãĤ¡":2716,"ãĥ¤ãĥŀãĥĮ":2717,"ãĤ¦ãĥĸãĤ¤ãĤ·":2718,"ãĤ¾ãĥ³ãĤ¬ãĥĭ":2719,"ãĥ³ãĥĢãĥ¼":2720,"ãĥĩãĤ£ãĤŃ":2721,"ãĥŀãĥ¼ãĤµ":2722,"ãĥŀãĥ¼ãĤµãĥ¼":2723,"ãĥŀãĥ¼ãĤºãĥ³":2724,"ãĥ¯ãĥ¼":2725,"ãĥ¯ãĥ©":2726,"ãĥ¯ãĥģ":2727,"ãĤŃãĥ³ãĥĮ":2728,"ãĥĥãĤ¯ãĥ©":2729,"ãĥĭãĥ³ãĤ´":2730,"ãĥĭãĥ³ãĤ´ãĥ¼":2731,"ãĥĭãĥ³ãĤ®ãĥ³":2732,"ãĤ«ãĤ¸ãĥŀãĥ¼ãĥ«ãĥ³":2733,"ãĥĲãĥ³ãĥģ":2734,"ãĥĲãĥ³ãĤ¸ãĥ³":2735,"ãĥĲãĥ³ãĤ¹ãĥ«":2736,"ãĥĲãĥ³ãĥīãĥ¼":2737,"ãĥĲãĥ³ãĤ¾ãĥ³ãĤ¬ãĥĭ":2738,"ãĤ¢ãĤ¬ãĥ¤ãĥ¼":2739,"ãĥ§ãĥ¼ãĥĢãĤ¤":2740,"ãĥ§ãĥ¼ãĥ«ãĥ¼":2741,"ãĤªãĥ¼ãĥ³":2742,"ãĥ¼ãĥĸãĤ¤":2743,"ãĥ¬ãĥ¼ãĥ³":2744,"ãĥıãĤ¯ãĤ¸":2745,"ãĥıãĥ¼ãĥı":2746,"ãĥ¼ãĥĲãĥ¼ãĤŃ":2747,"ãĥĳãĥ¼ãĤ«ãĥłãĥ³":2748,"ãĥĳãĥ¼ãĤ«ãĤ¦ãĥ¯ãĥ³":2749,"ãĥĳãĥ¼ãĤ®ãĤ·ãĥŁ":2750,"ãĤ¦ãĤ¤ãĥĮ":2751,"ãĤ¦ãĤ¤ãĥĹãĤ¹":2752,"ãĤ¦ãĤ¤ãĥĢãĥ«":2753,"ãĤ¦ãĤ¤ãĥĬãĥ«ãĥ³":2754,"ãĥľãĥ³":2755,"ãĥľãĥ¼ãĥĢ":2756,"ãĥľãĥ¼ãĥľ":2757,"ãĥ¤ãĥ³ãĥŀ":2758,"ãĥ¤ãĥ³ãĥŀãĥ¼":2759,"ãĥĥãĤ«ãĥ¼ãĥ«ãĥ³":2760,"ãĤ·ãĤ¥ãĤ«ãĥłãĥ³":2761,"ãĥĬãĥ³ãĥĪãĤ¥":2762,"ãĥĬãĥ³ãĥĲ":2763,"ãĥĬãĥ³ãĥĭãĥ³":2764,"ãĥĥãĤ¹ãĥŁ":2765,"ãĤ¢ãĥ©ãĤ·":2766,"ãĥķãĤ¿ãĥĬãĤ«":2767,"ãĤ¢ãĤ¤ãĥĸ":2768,"ãĤ¢ãĤ¤ãĥĦãĤ¡":2769,"ãĤ¢ãĤ¤ãĥĢãĥģ":2770,"ãĤ¯ãĤ¤ãĥ³":2771,"ãĤ«ãĤ¶ãĥ¼":2772,"ãĤ«ãĤ¶ãĥŁ":2773,"ãĤ·ãĥŀãĤ¹ãĥ³":2774,"ãĤ·ãĥŀãĥĬãĤ«":2775,"ãĤ¦ãĥ¤ãĥĵ":2776,"ãĥĭãĥ¼ãĤ¹ãĤ¯ãĥ³":2777,"ãĥĭãĥ¼ãĤ¦ãĥ©ãĤ¹ãĥ³":2778,"ãĥĭãĥ¼ãĤ«ãĤ¿ãĥŁ":2779,"ãĤ³ãĥ¼ãĤ¶ãĥ©":2780,"ãĥ¼ãĥĪãĥ¼":2781,"ãĥĳãĥ¤ãĥ¼ãĥ«":2782,"ãĥĳãĥ¤ãĥķãĥģ":2783,"ãĥĳãĥ¤ãĥ¼ãĥĳ":2784,"ãĥĳãĥ¤ãĤ¹ãĥ¼ãĥª":2785,"ãĥĬãĤ¬ãĤ¢ãĥŁ":2786,"ãĥĬãĤ¬ãĥĵãĥª":2787,"ãĥĬãĤ¬ãĥłãĥĨãĤ£":2788,"ãĥĻãĥ¼ãĥ³":2789,"ãĤ¤ãĤŃãĥ¼":2790,"ãĥīãĤ¥ãĥ«ãĥīãĤ¥ãĥ«":2791,"ãĥ¼ãĥĢãĥ³":2792,"ãĤ·ãĥ©ãĥª":2793,"ãĤ¿ãĥ³ãĤ«":2794,"ãĥĳãĤ¤ãĥŀãĥ«ãĥ³":2795,"ãĥĨãĤ£ãĥ³ãĥŀ":2796,"ãĥĨãĤ£ãĥ³ãĥĹãĥ©":2797,"ãĤ¦ãĥłãĥ¼ãĥ³":2798,"ãĥĶãĥ¼ãĤ¶":2799,"ãĥĶãĥ¼ãĤ«ãĤ¸":2800,"ãĥĶãĥ¼ãĤ«ãĤ¶":2801,"ãĥĳãĥĢãĥ¤ãĥĵ":2802,"ãĤ·ãĥĵãĤ¹ãĤ¯ãĥ³":2803,"ãĥĲãĥ©ãĥªãĥ³":2804,"ãĤ¦ãĥģãĥ«ãĥ³":2805,"ãĤ¿ãĤ«ãĥĩãĤ£":2806,"ãĥĪãĤ¥ãĤ·ãĥĪãĤ¥ãĥª":2807,"ãĥĪãĤ¥ãĤ·ãĥĪãĤ¥ãĥ«ãĥ³":2808,"ãĥ¼ãĥĪãĤ¥ãĥ«ãĥ³":2809,"ãĥĬãĤ·ãĥĮãĤ¦ãĥ¤":2810,"ãĥĪãĤ¥ãĥ«ãĥĮãĤ·ãĥ¼":2811,"ãĥĶãĤµãĤ¤":2812,"ãĥĶãĤµãĤ¹ãĥ³":2813,"ãĥĶãĤµãĥĵ":2814,"ãĥĬãĥŀãĥ³ãĥĢãĤ·ãĤŃ":2815,"ãĥĬãĥŀãĥ³ãĥĢãĤ¹ãĥª":2816,"ãĥĬãĥŀãĥ³ãĥĢãĤ¦ãĥ¼ãĥŁ":2817,"ãĤ«ãĤµãĥªãĥ³":2818,"ãĤ«ãĤµãĥŀãĤµãĥ³":2819,"ãĤ·ãĤ¿ãĥĩãĤ£":2820,"ãĥįãĥ¼ãĤ¹ãĥ³":2821,"ãĤµãĤŃãĥĬãĥª":2822,"ãĥĵãĥ¼ãĤ°":2823,"ãĤ¢ãĤµãĥ¼ãĥ³":2824,"ãĥĬãĥ«ãĤ¹ãĤ³ãĥ¼":2825,"ãĥĮãĥģãĥ¢":2826,"ãĥĮãĥģãĤºãĥ¼":2827,"ãĥĮãĥģãĤ°ãĤ¹ãĤ¤":2828,"ãĥĳãĥģãĥĳãĥģ":2829,"ãĥĳãĥģãĤ¦ãĤ¯":2830,"ãĥĳãĥģãĥ³ãĤ°ãĥ®ãĥģ":2831,"ãĥĳãĥģãĥ³ãĤ¸":2832,"ãĤ¿ãĤ¤ãĥĳãĥ³":2833,"ãĤ¿ãĤ¤ãĤ¬ãĤ¤":2834,"ãĤ¢ãĥŀãĤ¹ãĥ³":2835,"ãĤ¢ãĥŀãĤ·ãĤ§":2836,"ãĤ¢ãĤ¦ãĥª":2837,"ãĤ¢ãĤ¦ãĥĮãĥ³":2838,"ãĥĴãĥ£":2839,"ãĥĲãĥªãĤ«ãĥŁ":2840,"ãĤ¹ãĥ¼ãĤ¿ãĤ¤":2841,"ãĥĬãĤŃãĥĸ":2842,"ãĤ¢ãĤ·ãĥĸ":2843,"ãĥŀãĥ³ãĤ«":2844,"ãĤ¬ãĥ¼ãĤµ":2845,"ãĤ«ãĥĬãĥłãĥĮ":2846,"ãĥĳãĤ¸ãĥª":2847,"ãĥĿãĥ¼ãĥĦãĤ¡":2848,"ãĥĲãĤ¤ãĤ«ãĥ³":2849,"ãĥĽãĥ¼ãĥ©":2850,"ãĤ¶ãĥ¼ãĤ¯":2851,"ãĥĪãĤ¥ãĥłãĤ¹ãĥ³":2852,"ãĥĪãĤ¥ãĥłãĥ¦ãĥĥãĤ«":2853,"ãĥĢãĥ³ãĥĳãĥģ":2854,"ãĤ·ãĥģãĥ³ãĤ¬ãĥģ":2855,"ãĥĬãĥ¼ãĥ³ãĥłãĥĮ":2856,"ãĤ¶ãĥ©ãĥĲãĤ¶ãĥ©":2857,"ãĤ¶ãĥ©ãĤ³ãĥ¼ãĤ¶ãĥ©":2858,"ãĥ¼ãĥ¯ãĤ¶":2859,"ãĤ¯ãĥĲãĤ¬ãĤµ":2860,"ãĥĳãĥ«ãĥĮãĥŁãĥ¼":2861,"ãĤ¶ãĥ³ãĥ¡ãĥ¼":2862,"ãĥĥãĤ¿ãĥ¼ãĥ«ãĥ³":2863,"ãĥĳãĥ©ãĥ³":2864,"ãĥĳãĥĭãĥ«ãĥ³":2865,"ãĥĳãĥĭãĥĥãĤ±ãĥ¼ãĥ«ãĥ³":2866,"ãĤ¦ãĤ¯ãĤ¸":2867,"ãĤµãĤ¤ãĤ¯":2868,"ãĥĥãĥĪãĤ¥ãĥĲãĤ¹ãĥ³":2869,"ãĥĳãĥªãĤ¹":2870,"ãĥĪãĤ¥ãĤŃãĥīãĤ¥ãĤŃ":2871,"ãĤ¦ãĤŃãĥĬãĥ¼":2872,"ãĥĢãĥ©ãĥĢãĥ©":2873,"ãĥĮãĥ³ãĥĨãĤ£":2874,"ãĥĶãĥ³ãĤ½ãĥ¼":2875,"ãĤ¤ãĥ©ãĥĸ":2876,"ãĤ¤ãĥ©ãĤŃãĥłãĥĮ":2877,"ãĤ·ãĥĬãĤ¿":2878,"ãĤ·ãĥĬãĤ¦ãĥ³":2879,"ãĤ¯ãĥ©ãĤ¦ãĥ³":2880,"ãĤ¹ãĤ¯ãĥªãĥĹãĤ¹":2881,"ãĥĪãĤ¥ãĥ©ãĥªãĥ«ãĥ³":2882,"ãĥĪãĤ¥ãĥ©ãĥ³ãĥĳãĥ¼":2883,"ãĤ¹ãĥ«ãĥĲãĥ³":2884,"ãĥĪãĤ¥ãĤ¯ãĤ¿ãĥľãĥ¼ãĥ©ãĥªãĥ³":2885,"ãĥķãĤ«ãĥ¼ãĥ³":2886,"ãĤ·ãĤ«ãĥ¼ãĥ³":2887,"ãĥĮãĥĵãĥ«ãĥ³":2888,"ãĤ¦ãĤµãĤ¤ãĥ«ãĥ³":2889,"ãĥĪãĤ¥ãĥĵãĥĳãĥ«ãĥ³":2890,"ãĥ³ãĤ®ãĤµãĥ³":2891,"ãĥĳãĥ³ãĤ¿ãĥ¼ãĥŀ":2892,"ãĥĮãĥ¼ãĤ·ãĥ«":2893,"ãĥĮãĥ¼ãĤ·ãĤ¿":2894,"ãĥĮãĥ¼ãĤ·ãĤªãĥ¼ãĥ«ãĥ¯":2895,"ãĥĮãĥŁãĥĥãĤ¯ãĥłãĥ³":2896,"ãĥļãĥ¼ãĥª":2897,"ãĥĬãĥĬãĥĨãĤ£":2898,"ãĥĬãĥĬãĤ·ãĤŃ":2899,"ãĥĬãĥĬãĥĥãĥģ":2900,"ãĥķãĥ¼ãĤ«ãĥ©":2901,"ãĥĮãĥ¼ãĥĮãĤ¦ãĥª":2902,"ãĥĮãĥ¼ãĥĮãĥĶãĤ«ãĤ·":2903,"ãĤ¦ãĤ¹ãĥ¼ãĥ³":2904,"ãĤ¦ãĤ¹ãĥŀãĤ¤":2905,"ãĤ¦ãĤ¹ãĥĥãģµãĤ¡ãĤ¤":2906,"ãĥĳãĥ³ãĥĮãĥļãĥ¼":2907,"ãĥĳãĤ¿ãĥ©ãĥ¼ãĥĥãĥĨãĤ£":2908,"ãĥĳãĥŀãĤ¦ãĥª":2909,"ãĤ¢ãĤ«ãĥĲãĤ¿":2910,"ãĥĳãĤ·ãĥĬãĥ¼":2911,"ãĤ·ãĤ§ãĥ¼ãĥŀ":2912,"ãĥĥãĥĪãĥ¼ãĥ³":2913,"ãĥīãĤ¥ãĥ³ãĥģ":2914,"ãĥ¼ãĥłãĥģãĥĬãĥª":2915,"ãĤ¶ãĤ¤ãĤ¯":2916,"ãĤ¿ãĥ©ãĤŃ":2917,"ãĥķãĥĬãĥĸ":2918,"ãĥĳãĥĨãĤ£ãĥłãĥĭ":2919,"ãĥĮãĥ¼ãĥªãĥķãĥģ":2920,"ãĤµãĤ«ãĤ·ãĤŃ":2921,"ãĥĲãĥģãĤ¯ãĥ®":2922,"ãĥĮãĤŃãĥĲãĥĬ":2923,"ãĥİãĥ¼ãĤµãĥ³":2924,"ãĤŃãĤ¶ãĥŁ":2925,"ãĥĮãĤ¤ãĥķãĥģ":2926,"ãĥĭãĤ·ãĥīãĥ¼":2927,"ãĥĭãĤ·ãĤ¯ãĥĵ":2928,"ãĥĵãĤ¶ãĥ¼ãĥª":2929,"ãĥĵãĤ¶ãĥ¼ãĥ«ãĥ³":2930,"ãĥĮãĥīãĤ¥ãĥŀãĤŃ":2931,"ãĥĮãĥīãĤ¥ãĥĲãĥ«ãĥ³":2932,"ãĥĲãĥĥãĤ¶ãĥ©ãĥĲãĤ¶ãĥ©":2933,"ãĥīãĥ¼ãĥ³ãĥĥãģµãĤ¡":2934,"ãĥĦãĤ¡ãĥ³ãĤ·":2935,"ãĥİãĥ¼ãĤ·ãĥ³":2936,"ãĥİãĥ¼ãĥªãĥ¦ãĥ¼":2937,"ãĥĪãĤ¥ãĥīãĤ¥ãĤ¯ãĥ³":2938,"ãĥĪãĤ¥ãĥīãĤ¥ãĥŁãĥ«ãĥ³":2939,"ãĥĮãĥ¼ãĥĨãĤ£ãĥ¼":2940,"ãĤ¢ãĥĸãĤ¸":2941,"ãĤ¢ãĥ³ãĤ¬ãĥ©ãĤ¹ãĥ³":2942,"ãĥĶãĥ¼ãĥģãĤ«ãĤ¤":2943,"ãĥīãĤ¥ãĥ¼ãĥłãĥĨãĤ£ãĥ¨ãĥ¼":2944,"ãĤ¤ãĤµãĥĬãĤŃ":2945,"ãĥĲãĤ·ãĥ£":2946,"ãĤ¸ãĥ¥ãĥ¼ãĤµãĥ³":2947,"ãĥ¼ãĥĬãĥ¼ãĥ³ãĥłãĥĮ":2948,"ãĥĭãĥ¼ãĥĮãĥĳãĥ¼":2949,"ãĥĶãĥģãĥŀãĤ¯ãĥ³":2950,"ãĥ¼ãĥĩãĤ£ãĥ³":2951,"ãĤ«ãĥĲãĥĥãĤµãĥ³":2952,"ãĥĳãĥ¼ãĥķãĤ¤":2953,"ãĥĳãĥ¼ãĥķãĥ¼ãĥ³":2954,"ãĥŁãĥĬãĥĪãĤ¥":2955,"ãĥľãĥ¼ãĥ³ãĤ±ãĥ¼ãĥ«ãĥ³":2956,"ãĥĬãĥĦãĤ¡ãĥ¼ãĥ©":2957,"ãĥĬãĥĦãĤ¡ãĥ©ãĤ«ãĥĦãĤ¡":2958,"ãĥĪãĤ¥ãĥ³ãĤ¬ãĥ¼":2959,"ãĥĲãĤ¶ãĥ©ãĥĲãĤ¶ãĥ©":2960,"ãĥĭãĥ¼ãĤ·ãĤ§ãĥ¼":2961,"ãĥĵãĥģãĥ«":2962,"ãĥīãĥ³ãĥĪãĥ³":2963,"ãĥīãĤ¥ãĥ¼ãĥ¤ãĥ¼ãĥ©ãĥ¼ãĥ³":2964,"ãĥĲãĤ¿ãĥĮãĥłãĤ·":2965,"ãĥĬãĥŀãĤ¸ãĥª":2966,"ãĤ°ãĥ®ãĥ³ãĤ¹":2967,"ãĥĮãĤ¹ãĥĭ":2968,"ãĥŁãĥ³ãĤ°ãĥ©ãĤ¹ãĥ³":2969,"ãĥŁãĥ¼ãĥķãĥ©":2970,"ãĥ¤ãĤ¤ãĥŀ":2971,"ãĥĵãĤ¶ãĥ¼ãĤ¯ãĥ³":2972,"ãĥĳãĤ¸ãĥŁãĥĨãĤ£":2973,"ãĥĳãĥĦãĤ¡ãĥ©ãĥĳãĥĦãĤ¡ãĥ©":2974,"ãĥ¼ãĥĽãĥ¼":2975,"ãĤ«ãĤ«ãĥªãĥłãĥĮ":2976,"ãĤŃãĥ§ãĥ¼ãĥĢãĤ¤":2977,"ãĥĬãĥ¼ãĥĳãĤ¤":2978,"ãĥĳãĤ«ãĥ©ãĤ¤":2979,"ãĥĪãĤ¥ãĤºãĥŁãĥ«ãĥ³":2980,"ãĥĩãĥ¼ãĤ«ãĥ¼":2981,"ãĥ¼ãĥįãĥ¼":2982,"ãĥ¼ãĥŃãĥ¼":2983,"ãĥĬãĥĢãĥ©ãĤ«":2984,"ãĥĮãĥªãĤ«ãĥĸãĥ³":2985,"ãĥĳãĥ¼ãĥ©ãĥĳãĥ¼ãĥ©":2986,"ãĥĳãĥ¤ãĥŀãĥ«ãĥ³":2987,"ãĥĳãĤ·ãĤ«ãĤŃãĥ«ãĥ³":2988,"ãĥĪãĤ¥ãĤ¬ãĥŁãĥ«ãĥ³":2989,"ãĥĲãĤ¶ãĥ¼ãĥ«ãĥ³":2990,"ãĥ¤ãĥĸãĥªãĥłãĥĮ":2991,"ãĥĶãĥĥãĤ«ãĤ«ãĥ«ãĥ³":2992,"ãĥĶãĥ¼ãĥĢãĥŀ":2993,"ãĥĶãĥ¼ãĥĹãĤ·":2994,"ãĥīãĤ¥ãĥ¼ãĥĬãĤ¤":2995,"ãĥīãĤ¥ãĥ¼ãĥĳãĥĢ":2996,"ãĥĪãĤ¥ãĥªãĥłãĤ·ãĤ¥ãĤ«ãĤ¤":2997,"ãĤ¾ãĥ¼ãĥ«ãĤ¾ãĥ¼ãĥ«":2998,"ãĤŃãĥ¥ãĥ¼ãĥĮ":2999,"ãĤ¦ãĥĢãĥ©ãĤŃ":3000,"ãĤµãĥĢãĥŁ":3001,"ãĤ¢ãĥĢãĥ³ãĥĸãĥ©":3002,"ãĥĶãĥ£ãĥ¼ãĤ¯":3003,"ãĥĶãĥ£ãĥ¼ãĥ³ãĤ¬ãĥ«ãĥ³":3004,"ãĥĵãĥĢãĥ¼ãĤ¯ãĥ³":3005,"ãĥĥãģµãĤ£ãĥ«ãĥ³":3006,"ãĥĳãĥ³ãĥģãĥ«ãĥ³":3007,"ãĥ¼ãĥĭãĥ³ãĤº":3008,"ãĤ°ãĥ«ãĤ°ãĥ«ãĥ¼":3009,"ãĥĬãĥŀãĤ¤ãĥ¼":3010,"ãĥĬãĤ·ãĤ¥ãĤ«ãĤµãĥ³":3011,"ãĥĪãĤ¥ãĥ¼ãĥĮãĤ¯ãĥ³":3012,"ãĥŁãĥ¥ãĥ¼ãĥĪãĤ¥":3013,"ãĥĭãĥķãĤ¿ãĥ¼ãĥ³ãĤ®ãĤµãĥ³":3014,"ãĥĭãĥ¼ãĥ¬ãĥ³":3015,"ãĥĵãĥ¼ãĥĵãĥ¼ãĤ·":3016,"ãĥīãĤ¥ãĥ¼ãĥĵãĥĬãĥ¼ãĥ³":3017,"ãĤ¾ãĥ¼ãĥİãĥ¼":3018,"ãĥĮãĥĵãĥ³ãĥĶãĤŃãĥ³ãĥĬãĥ©ãĥĮ":3019,"ãĤ¢ãĥ¢ãĥ¼ãĥª":3020,"ãĤ¤ãĤ·ãĤ¥ãĤ«ãĥ¼":3021,"ãĥĬãĥ©ãĤ·ãĤ±ãĥ¼":3022,"ãĥĳãĥŀãĥ³ãĥĳãĤ¿":3023,"ãĤ¢ãĤ«ãĥŀãĤ¿ãĥ¼":3024,"ãĥĪãĤ¥ãĥĭãĥłãĥĪãĤ¥":3025,"ãĥĪãĤ¥ãĤ·ãĥŀãĥ¼ãĥ«":3026,"ãĥĪãĤ¥ãĥīãĤ¥ãĥ«ãĤ¯ãĥ³":3027,"ãĥĲãĤ¹ãĥĲãĤ¹":3028,"ãĥīãĤ¥ãĥŁãĥ³ãĤ«ãĤ¹ãĥ³":3029,"ãĥ¦ãĥ¼ãĥķãĥ«":3030,"ãĥĪãĤ¥ãĥªãĥ¼ãĥĪãĤ¥ãĥªãĥ¼ãĤ·":3031,"ãĥıãĥ¼ãĥıãĥ¼":3032,"ãĥĬãĥ«ãĤ¹ãĤ³ãĥ¼ãĤ¢ãĥ©ãĥĮ":3033,"ãĤ¢ãĥŀãĤ·ãĤ§ãĥ¼ãĥĮ":3034,"ãĥĬãĥĦãĤ¡ãĥ©ãĤ«ãĥĦãĤ¡ãĥ©":3035,"ĺãĥ¼":3036,"ãĥ¼ãĤ¢ãĥģ":3037,"ãĥ³ãĥŁ":3038,"ãĥ³ãĤ¶":3039,"ãĥ³ãĥ¼ãĥ³":3040,"ãĥ³ãĥŁãĥ¼":3041,"ãĥ³ãĤ«ãĥ¼":3042,"ãĥ³ãĥľ":3043,"ãĥ³ãĤµãĥ¼":3044,"ãĥ³ãĥĪãĥ³":3045,"ãĥ³ãĥĲãĤ¦ãĥ³":3046,"ãĥ³ãĥīãĥ¼ãĥ¬ãĥ¼":3047,"ãĥ¼ãĥĺãĥ¼":3048,"ãĤ·ãĥĸ":3049,"ãĤ·ãĥ¼ãĥª":3050,"ãĤ·ãĤ«ãĤ¤":3051,"ãĤ·ãĥŀãĤ¤":3052,"ãĤ·ãĥ¼ãĥĥ":3053,"ãĤ·ãĤ«ãĤ¹ãĥ³":3054,"ãĤ·ãĥłãĥ«":3055,"ãĤ·ãĥĪãĥ³":3056,"ãĤ·ãĥ¼ãĤ¸ãĥ«":3057,"ãĤ·ãĥ¼ãĥĶãĤ¯ãĥ³":3058,"ãĤ«ãĥĮ":3059,"ãĤ«ãĤ³":3060,"ãĤ«ãĤ·ãĥ³":3061,"ãĤ«ãĤ«ãĥ³":3062,"ãĤ«ãĥĪãĤ¥ãĥ³":3063,"ãĤ«ãĥ¯":3064,"ãĤ«ãĥĭãĥ³":3065,"ãĤ«ãĤ·ãĥ¼":3066,"ãĤ«ãĥªãĥłãĥĮ":3067,"ãĤ«ãĤ·ãĤ¿":3068,"ãĤ«ãĥĲãĤ¹ãĥ³":3069,"ãĤ«ãĤ«ãĤ¤ãĥ«ãĥ³":3070,"ãĤ«ãĥĻãĥ¼":3071,"ãĤ«ãĥĸãĥ«":3072,"ãĤ«ãĤ«ãĤ¦ãĥ³":3073,"ãĤ«ãĥłãĤ¤":3074,"ãĤ«ãĥ¼ãĥŁãĥ¼":3075,"ãĤ¤ãĥ¼ãĥ©":3076,"ãĤ¤ãĤ·ãĤŃ":3077,"ãĤ¤ãĥ¼ãĥ«ãĥ³":3078,"ãĤ¤ãĥŀãĤ¤":3079,"ãĤ¤ãĥĥãĤµ":3080,"ãĤ¤ãĥĸãĥ³":3081,"ãĤ¤ãĥĥãĤ«":3082,"ãĤ¤ãĥĥãĥģ":3083,"ãĤ¤ãĥŁãĥ³":3084,"ãĤ¤ãĤ«ãĤ·":3085,"ãĤ¤ãĥ©ãĥ¼":3086,"ãĤ¤ãĥĴ":3087,"ãĤ¤ãĥķãĥĬ":3088,"ãĤ¤ãĤ«ãĥ©ãĥ¼":3089,"ãĤ¤ãĤ¶ãĥª":3090,"ãĤ¤ãĤ«ãĥ©ãĥ¼ãĥ³":3091,"ãĤ¤ãĥİãĥ³":3092,"ãĤŃãĥĬ":3093,"ãĤŃãĤµ":3094,"ãĤŃãĥĵ":3095,"ãĤŃãĥŁãĥ«ãĥ³":3096,"ãĤŃãĥİ":3097,"ãĤŃãĤ¹ãĤ¯ãĥ³":3098,"ãĤŃãĤºãĥ³":3099,"ãĤŃãĥ¼ãĥĸãĥ«":3100,"ãĤŃãĥ¼ãĥĲãĤŃ":3101,"ãĤ¹ãĥĭ":3102,"ãĤ¹ãĥĢ":3103,"ãĤ¹ãĥ¼ãĥ«":3104,"ãĤ¹ãĥ¼ãĤ·":3105,"ãĤ¹ãĥłãĥ³":3106,"ãĤ¹ãĥŁãĥ«ãĥ³":3107,"ãĤ¹ãĥ©ãĤ¹ãĥ³":3108,"ãĤ¹ãĥ¯":3109,"ãĤ¹ãĥ¼ãĥĳ":3110,"ãĤ¹ãĥĥãĤ«":3111,"ãĤ¹ãĥ¼ãĥŁ":3112,"ãĤ¹ãĥŀãĥ«ãĥ³":3113,"ãĤ¹ãĥ¼ãĥ©ãĤ¹ãĥ³":3114,"ãĤ¹ãĤ¬ãĥ«ãĥ³":3115,"ãĥĬãĤ¯":3116,"ãĥĬãĤµãĤŃ":3117,"ãĥĬãĤŃãĥłãĥĭ":3118,"ãĤ¯ãĥ¼ãĤ¹ãĥ³":3119,"ãĤ¯ãĤµãĥ³":3120,"ãĤ¯ãĥªãĥ³":3121,"ãĤ¯ãĤ¤ãĥ«ãĥ³":3122,"ãĤ¯ãĥŀãĥª":3123,"ãĤ¯ãĥ¬":3124,"ãĤ¯ãĥĨãĤ£ãĥ³":3125,"ãĤ¯ãĥ¡ãĥ¼":3126,"ãĤ¯ãĤ¿ãĥ³ãĥĩãĤ£":3127,"ãĥŀãĤµ":3128,"ãĥŀãĥĨãĤ£":3129,"ãĥŀãĥ¼ãĥĬ":3130,"ãĥŀãĥŀãĥ«ãĥ³":3131,"ãĥŀãĤ®ãĥ«ãĥ³":3132,"ãĥŀãĥ¼ãĥĨãĤ£":3133,"ãĥŀãĥ©ãĥ¼":3134,"ãĥŀãĥ¼ãĥ¦":3135,"ãĥŀãĤ«ãĥĬãĤ¤":3136,"ãĥŀãĤµãĥ¼ãĥ³":3137,"ãĥŀãĤµãĥ«":3138,"ãĥŀãĥĥãĤ·ãĥ³":3139,"ãĤ¿ãĤ¯ãĥ³":3140,"ãĤ¿ãĥ¼ãĥ©":3141,"ãĤ¿ãĥ¼ãĤ¹ãĥ³":3142,"ãĤ¿ãĥ©ãĤ¤":3143,"ãĤ¿ãĥĩãĤ£":3144,"ãĤ¿ãĥĭãĥ³":3145,"ãĤ¿ãĥªãĥłãĥĮ":3146,"ãĤ¿ãĥŀãĥ«ãĥ³":3147,"ãĤ¿ãĤ¯ãĥłãĥ³":3148,"ãĤ¿ãĥ¼ãĥĥãĥĨãĤ£":3149,"ãĤ¿ãĥĪãĤ¥ãĤ¤":3150,"ãĤ¿ãĥİãĥ¼ãĥ«":3151,"ãĥĮãĥķãĥģ":3152,"ãĥĮãĤ·ãĥ³":3153,"ãĥĮãĥĬãĤ¤":3154,"ãĥĮãĥĳãĤ¤":3155,"ãĥĮãĤ¹ãĥĸ":3156,"ãĥĮãĤ«ãĥ«ãĥ³":3157,"ãĥĮãĤ¾ãĥ¼":3158,"ãĥĮãĤ¤ãĥ¼":3159,"ãĥĮãĤ·ãĥģ":3160,"ãĥĮãĥ¡ãĥ¼":3161,"ãĥĮãĥķãĥ«":3162,"ãĥĮãĤ³ãĥ¼ãĥŀ":3163,"ãĥĮãĤ¯ãĥłãĥ³":3164,"ãĥĮãĤµãĤ¦":3165,"ãĥĮãĥ¤ãĥķ":3166,"ãĥĮãĥĳãĥ³ãĤ·":3167,"ãĥĮãĥ³ãĤ¬ãĥ¼ãĥª":3168,"ãĥĮãĥĹãĥªãĥłãĥĮ":3169,"ãĥĮãĤ«ãĤ¿ãĥģãĥĭ":3170,"ãĥĳãĤµãĥ³":3171,"ãĥĳãĥŀãĤ¤":3172,"ãĥĳãĥªãĥłãĥĮ":3173,"ãĥĳãĤ«ãĥª":3174,"ãĥĳãĤ¦ãĥ«":3175,"ãĤ¦ãĥķ":3176,"ãĤ¦ãĤ½":3177,"ãĤ¦ãĤ·ãĥ³":3178,"ãĤ¦ãĥ¤ãĥŀ":3179,"ãĤ¦ãĥªãĥ³":3180,"ãĤ¦ãĥ¬":3181,"ãĤ¦ãĥĪãĤ¥ãĥ«":3182,"ãĤ¦ãĥ©ãĥ¼":3183,"ãĤ¦ãĥ¬ãĥ¼":3184,"ãĤ¦ãĤºãĥ³":3185,"ãĤ¦ãĥĲãĤ¤":3186,"ãĤ¦ãĥĨãĤ£ãĥĢ":3187,"ãĤ¦ãĥĢãĥĨãĤ£":3188,"ãĤµãĥĬ":3189,"ãĤµãĥĳ":3190,"ãĤµãĥĥ":3191,"ãĤµãĥ¤":3192,"ãĤµãĤ«ãĥ¼":3193,"ãĤµãĤ°ãĥ³":3194,"ãĤµãĤ¦ãĥª":3195,"ãĤµãĥŀãĤ¹ãĥ³":3196,"ãĤµãĥŀãĤ·":3197,"ãĤµãĥĲãĤ¯ãĥ³":3198,"ãĤµãĤ·ãĥłãĥĮ":3199,"ãĥłãĤŃ":3200,"ãĥłãĤµãĥ³":3201,"ãĥłãĥ¤ãĥ¼":3202,"ãĥłãĤ¯ãĤ¤":3203,"ãĥłãĥīãĤ¥ãĥ«":3204,"ãĥłãĤ¤ãĤ«":3205,"ãĥłãĥīãĤ¥ãĥª":3206,"ãĥłãĤ¨ãĥ¼":3207,"ãĥłãĥīãĤ¥ãĤ¹ãĥ³":3208,"ãĥłãĤ²ãĥ¼ãĥ«ãĥ³":3209,"ãĥ©ãĥ¼ãĥĥãĤµãĥ³":3210,"ãĥĪãĥ¼ãĥªãĥ«ãĥ³":3211,"ãĥĪãĥ¼ãĥ©ãĥ¼":3212,"ãĥĥãĤ«ãĤ¤":3213,"ãĥĥãĤ½":3214,"ãĥĥãĤ¿ãĥ¼":3215,"ãĥĥãĤ³ãĥ¼ãĥŀ":3216,"ãĥĥãĤ·ãĤ§":3217,"ãĤ¢ãĥĥ":3218,"ãĤ¢ãĤ¹ãĥ³":3219,"ãĤ¢ãĥĨ":3220,"ãĤ¢ãĤµãĥ³":3221,"ãĤ¢ãĤ´":3222,"ãĤ¢ãĤ«ãĥ³":3223,"ãĤ¢ãĤ¹ãĤ¯ãĥ³":3224,"ãĤ¢ãĤ«ãĤ¸":3225,"ãĤ¢ãĥ¼ãĥĭ":3226,"ãĤ¢ãĥĸãĤ·":3227,"ãĤ¢ãĥĥãĤ¿":3228,"ãĤ¢ãĤ¯ãĥĵ":3229,"ãĤ¢ãĥĥãĥĳ":3230,"ãĤ¢ãĥıãĥ¼":3231,"ãĤ¢ãĤ¶ãĥ©ãĥ³":3232,"ãĤ¢ãĥłãĤµãĥ³":3233,"ãĥªãĤ¹ãĥ³":3234,"ãĥªãĤ«ãĤ¶":3235,"ãĥªãĤ¸ãĥĸãĥ³":3236,"ãĥªãĥĥãĤ·ãĥ³":3237,"ãĥĪãĤ¥ãĥĸ":3238,"ãĥĪãĤ¥ãĤŃãĥ«ãĥ³":3239,"ãĥĪãĤ¥ãĥ¬":3240,"ãĥĪãĤ¥ãĤ°ãĥ³":3241,"ãĥĪãĤ¥ãĥ¼ãĥ¯ãĥ³":3242,"ãĥĪãĤ¥ãĤ¢ãĥ¼ãĤ·":3243,"ãĥģãĤ§":3244,"ãĥģãĤ¬ãĤ¦ãĥ³":3245,"ãĥģãĤ¬ãĤ¤ãĥ«ãĥ³":3246,"ãĥģãĥ£ãĥ³ãĥĹãĥ«ãĥ¼":3247,"ãĥĲãĥ¼ãĥŀ":3248,"ãĥĲãĥ¼ãĥª":3249,"ãĥĲãĤ«ãĥ©":3250,"ãĥĲãĥªãĥ³":3251,"ãĥĲãĤ¤ãĥ«ãĥ³":3252,"ãĥĲãĥªãĥ«ãĥ³":3253,"ãĥĲãĥªãĥłãĥĮ":3254,"ãĥĲãĤ³ãĥ¼":3255,"ãĥĲãĤ·ãĤŃãĥ«ãĥ³":3256,"ãĥŁãĤŃ":3257,"ãĥŁãĥ¼ãĥĸ":3258,"ãĥŁãĥ¼ãĥĲ":3259,"ãĥŁãĤ«ãĤ¹ãĥ³":3260,"ãĥŁãĥ¼ãĥĹ":3261,"ãĥŁãĥ£ãĥ¼":3262,"ãĥŁãĥ¼ãĥłãĥĮ":3263,"ãĥŁãĤµãĤ¯":3264,"ãĥŁãĥ©ãĥªãĥ³":3265,"ãĥŁãĥ¼ãĥŀãĤ¤":3266,"ãĥŁãĥīãĥ¼ãĥ³ãĥĥãģµãĤ¡":3267,"ãĥ¤ãĤ®":3268,"ãĥ¤ãĥŁãĥ«ãĥ³":3269,"ãĥ¤ãĥĬãĤ¤":3270,"ãĥ¤ãĤŃãĥłãĥĮ":3271,"ãĥ¤ãĤ¯ãĥĲ":3272,"ãĥ¤ãĤµãĤ¤":3273,"ãĥ¤ãĥ¼ãĤ·ãĤŃ":3274,"ãĥ¤ãĤ·ãĥłãĥĮ":3275,"ãĥ¤ãĥ¼ãĥłãĥĪãĤ¥":3276,"ãĥĭãĤŃ":3277,"ãĥĭãĤ«ãĤ¤":3278,"ãĥĭãĤºãĥ³":3279,"ãĤ¹ãĥ³ãĤ°ãĥ«ãĥ³":3280,"ãĤ¸ãĥª":3281,"ãĤ¸ãĥŁ":3282,"ãĤ¸ãĤ¬ãĥ©":3283,"ãĤ¸ãĥĸãĤ¯":3284,"ãĤ¸ãĥ¼ãĤ¸ãĥ¼":3285,"ãĤ¬ãĤ¶":3286,"ãĤ¬ãĥĥãĤµ":3287,"ãĤ¬ãĥŀãĥģ":3288,"ãĤ¬ãĤºãĥ³":3289,"ãĤ¬ãĤµãĥ©":3290,"ãĤ¬ãĤ¯ãĥłãĥ³":3291,"ãĤ¬ãĥ¼ãĥĸãĥ«":3292,"ãĤ¬ãĥ³ãĥĢãĥ©":3293,"ãĤ¬ãĥ¼ãĥĽãĥ¼":3294,"ãĥķãĥł":3295,"ãĥķãĥĨãĤ£":3296,"ãĥķãĥĬãĤ«":3297,"ãĥķãĤ·ãĥŀ":3298,"ãĥķãĤ°ãĥ³":3299,"ãĥķãĤ«ãĤ·":3300,"ãĥķãĤ¸ãĥ«":3301,"ãĥķãĥĢãĥ«":3302,"ãĥķãĤ¬ãĤ¹ãĥ³":3303,"ãĥķãĤ·ãĤ¥ãĤ«ãĥ«ãĥ³":3304,"ãĥĶãĥ«ãĥ³":3305,"ãĥĶãĥĬãĤ«":3306,"ãĥĶãĥĬãĤ¤":3307,"ãĥĶãĥ£":3308,"ãĥĶãĤ¿ãĥ¼":3309,"ãĥĶãĤ°ãĥ³":3310,"ãĥĶãĥ¥ãĥ¼":3311,"ãĥĶãĥĭãĥģ":3312,"ãĥĶãĥ¼ãĥ¯ãĥ³":3313,"ãĥĶãĥĲãĥĬ":3314,"ãĥĶãĥĬãĤ«ãĥ³":3315,"ãĥĶãĥ³ãĤ¬ãĤ¹ãĥ³":3316,"ãĥĶãĥĥãĥĦãĤ¡ãĤ¹ãĥ³":3317,"ãĥĸãĥ¬":3318,"ãĥĸãĥįãĥ¼":3319,"ãĥĸãĥĦãĤ¡ãĥ¼":3320,"ãĥĸãĥ¼ãĥĸãĥ¼":3321,"ãĥĨãĥ¼ãĥ³":3322,"ãĥĨãĥ¼ãĥĮ":3323,"ãĥĨãĥ¼ãĥķ":3324,"ãĥĢãĤ¯":3325,"ãĥĢãĥ¼ãĥĥ":3326,"ãĥĢãĥĥãĤ¯ãĥ®":3327,"ãĥĵãĥ¼ãĥ³":3328,"ãĥĵãĥ§":3329,"ãĥĵãĤ³ãĥ¼ãĥ³":3330,"ãĥĵãĥ¼ãĥĲãĤŃ":3331,"ãĥĨãĤ£ãĥŀãĥ¼":3332,"ãĥĨãĤ£ãĥĢãĤ¤":3333,"ãĥĨãĤ£ãĥ¼ãĥĥãĤµ":3334,"ãĥĨãĤ£ãĥ¼ãĥ¨ãĥ¼":3335,"ãĥĨãĤ£ãĥ¼ãĥĳãĥ³":3336,"ãĥĨãĤ£ãĥĥãĥĹ":3337,"ãĥĨãĤ£ãĥ¼ãĥĶãĤµ":3338,"ãĥĨãĤ£ãĥ¼ãĥĶãĤ¯ãĥ³":3339,"ãĤ°ãĥ©":3340,"ãĤ°ãĤ¶":3341,"ãĤ°ãĤº":3342,"ãĤ°ãĤµãĥ³":3343,"ãĤ°ãĥ³ãĤ°":3344,"ãĤ°ãĥ¦ãĥ¼":3345,"ãĤ°ãĥªãĥłãĥĮ":3346,"ãĤ°ãĤ¶ãĥ©":3347,"ãĤ°ãĤµãĥ¼ãĤ¯":3348,"ãĤ¶ãĤ¦":3349,"ãĤ¶ãĥŁ":3350,"ãĤ¶ãĥ¼ãĥ©":3351,"ãĤ¶ãĤ³":3352,"ãĤ¶ãĥ©ãĤ¹ãĥ³":3353,"ãĥ¼ãĥ³ãĤ°":3354,"ãĤ¡ãĤ¤":3355,"ãĥīãĤ¥ãĥ¼ãĥ«":3356,"ãĥīãĤ¥ãĥ¼ãĤŃ":3357,"ãĥ¼ãĤ·ãĥ³":3358,"ãĥ¼ãĤ·ãĤ§ãĥ¼":3359,"ãĥ¼ãĤ·ãĥ³ãĤ«":3360,"ãĥ¦ãĥĸ":3361,"ãĥ¦ãĥ¼ãĥ«ãĥ³":3362,"ãĥ¦ãĤ«ãĥ©":3363,"ãĥ¦ãĥĸãĥ³":3364,"ãĥ¦ãĥ©ãĤ·":3365,"ãĥ¦ãĥĢãĥ³":3366,"ãĥ¦ãĥĮãĥ³":3367,"ãĥ¦ãĥ³ãĥŀ":3368,"ãĥ¦ãĥīãĤ¥ãĥ³":3369,"ãĥ¦ãĥªãĥ¼":3370,"ãĥ¦ãĥ¬ãĥ¼ãĥĮ":3371,"ãĥ¦ãĥ¼ãĥľ":3372,"ãĥ¦ãĤ¬ãĥķ":3373,"ãĤ¯ãĥ³ãĥĢ":3374,"ãĥłãĥĮãĤ¦ãĥłãĤ¤":3375,"ãĥłãĥĮãĤ¦ãĥ¢":3376,"ãĥĦãĥª":3377,"ãĥĹãĤµãĥ³":3378,"ãĥĹãĤ·ãĥĮ":3379,"ãĤ®ãĥģ":3380,"ãĤ®ãĥ§ãĥ¼":3381,"ãĤ·ãĤŃãĥĹãĤ¹":3382,"ãĤ·ãĤŃãĥīãĤ¥ãĥ«":3383,"ãĤ·ãĤŃãĤ«ãĥ¼ãĤ·ãĤŃ":3384,"ãĥ¼ãĥĮãĥłãĥĮ":3385,"ãĥ¼ãĥŀãĤŃ":3386,"ãĤºãĥłãĥ³":3387,"ãĤºãĥ¼ãĥłãĥĮ":3388,"ãģµãĤ¡ãĤ¤":3389,"ãĤµãĥ³ãĥĲ":3390,"ãĤµãĥ³ãĤ·ãĤŃ":3391,"ãĤµãĥ³ãĥĲãĥ³":3392,"ãĤµãĥ³ãĤ°ãĥ³":3393,"ãĤµãĥ³ãĥĢãĥ³":3394,"ãĤµãĥ³ãĤ¸ãĥ£":3395,"ãĤ³ãĥ¼ãĥª":3396,"ãĥĹãĤ¹ãĤ¤":3397,"ãĥĹãĤ¹ãĥĥãĤ¯":3398,"ãĥĹãĤ¹ãĥĳãĥ¼":3399,"ãĥĹãĤ¹ãĥĨãĤ£ãĥ¼":3400,"ãĥĹãĤ¹ãĥĥãģµãĤ¡ãĤ¤":3401,"ãĥĹãĤ¹ãĥĸãĤ·":3402,"ãĥłãĥ³ãĤ°ãĥ«":3403,"ãĥłãĥ³ãĥīãĥ¼":3404,"ãĤ«ãĤ¤ãĥĮ":3405,"ãĤ«ãĤ¤ãĤ·ãĥ¼":3406,"ãĥ³ãĤ¬ãĥĬ":3407,"ãĥ³ãĤ¬ãĥĬãĥ¼":3408,"ãĤ½ãĥ¼ãĥĭ":3409,"ãĤ½ãĥ¼ãĥĹ":3410,"ãĤ½ãĥ¼ãĥĶãĤŃ":3411,"ãĤ½ãĥ¼ãĥķãĥ³":3412,"ãĤ½ãĥĥãĤ³":3413,"ãĤ½ãĥ¼ãĥĢãĥ³":3414,"ãĥĥãģµãĤ¡ãĤ¬":3415,"ãĥĳãĥĬãĥīãĤ¥ãĥ«":3416,"ãĥĳãĥ³ãĥŀãĤ¤":3417,"ãĥķãĥģãĥŀãĥģ":3418,"ãĥķãĥģãĤ¸ãĥ«":3419,"ãĥŀãĤ¤ãĥĬãĤ¹ãĥ³":3420,"ãĥŀãĤ¤ãĤ¸ãĥ©":3421,"ãĥŀãĤ¤ãĤºãĥĭ":3422,"ãĥĬãĤ«ãĤ¹ãĥ³":3423,"ãĥĬãĤ«ãĥ¼ãĥ©":3424,"ãĥĬãĤ«ãĥĸãĥĭ":3425,"ãĥĬãĤ«ãĥ¯ãĥª":3426,"ãĥ¼ãĥĬãĤ«":3427,"ãĥ¼ãĥĬãĥŁ":3428,"ãĥ¼ãĥĬãĤ¹ãĥ³":3429,"ãĥĲãĤ¿ãĥĮãĤ·ãĥ¼ãĥłãĥĮ":3430,"ãĥ¨ãĥ¼ãĤ·":3431,"ãĥ¨ãĥ¼ãĤ¸":3432,"ãĥ¨ãĥ¼ãĥŁ":3433,"ãĥ¨ãĤ¤ãĤ·":3434,"ãĤ¹ãĤ¯ãĥŁ":3435,"ãĤ¹ãĤ¯ãĥĸ":3436,"ãĤ¹ãĤ¯ãĥªãĥ«ãĥ³":3437,"ãĤ¹ãĤ¯ãĥŀãĥ«ãĥ³":3438,"ãĥĥãĤµãĤ¹ãĥ³":3439,"ãĥĥãĤµãĥªãĥ«ãĥ³":3440,"ãĥĥãĤµãĥ©ãĥ¼":3441,"ãĤ±ãĥ¼ãĥĢ":3442,"ãĤ±ãĥ¼ãĥĨãĤ£":3443,"ãĥŁãĥ¼ãĤ«":3444,"ãĥŁãĥ¼ãĤ¶":3445,"ãĥŁãĥ¼ãĤ¶ãĥ³":3446,"ãĤ«ãĤ¿ãĤŃ":3447,"ãĤ«ãĤ¿ãĥ¼ãĥ³":3448,"ãĤ«ãĤ¿ãĥĳãĥ³":3449,"ãĤ«ãĤ¿ãĥķãĥģ":3450,"ãĤ«ãĤ¿ãĥĭãĥ¼":3451,"ãĤ«ãĤ¿ãĥĶãĤµ":3452,"ãĤ«ãĤ¿ãĤ½ãĥ¼ãĥĶãĤŃ":3453,"ãĤ«ãĥ©ãĥĮ":3454,"ãĤ«ãĥ©ãĥ¼ãĤ·":3455,"ãĤ«ãĥ¼ãĤµãĥªãĥ³":3456,"ãĤ·ãĥ³ãĥĪãĤ¥":3457,"ãĤ·ãĥ³ãĤ¯ãĥ³":3458,"ãĤ·ãĥ³ãĤ±ãĥ¼":3459,"ãĥĶãĤŃãĤ¦ãĤ·":3460,"ãĤ´ãĥ³":3461,"ãĤ´ãĤ¶":3462,"ãĤ´ãĥ¼ãĥ©":3463,"ãĤ´ãĥ¼ãĥ«ãĥ³":3464,"ãĥ¼ãĥĥãĥĳ":3465,"ãĥ¼ãĥĥãĤµãĥ¼":3466,"ãĤ«ãĥ³ãĤ·":3467,"ãĤ«ãĥ³ãĥĮ":3468,"ãĤ«ãĥ³ãĥĨãĤ£ãĥ¼":3469,"ãĤ«ãĥ³ãĤ¹ãĥ«":3470,"ãĥĩãĥ³":3471,"ãĥĪãĤ¥ãĥªãĥ«ãĥ³":3472,"ãĥ¼ãĤŃãĥ¼":3473,"ãĥ³ãĤ°ãĥŁ":3474,"ãĥ¼ãĥķãĥĭ":3475,"ãĥ¼ãĥķãĤ¯ãĥ³":3476,"ãĥĲãĤ«ãĤ¦ãĥ³":3477,"ãĥĬãĤ¤ãĥ©":3478,"ãĤŃãĥłãĤŃ":3479,"ãĤŃãĥłãĤ·ãĥ«":3480,"ãĤŃãĥłãĥķãĤ¯":3481,"ãĥ¼ãĥ¤ãĥĸãĥª":3482,"ãĥ¤ãĥŀãĥ³ãĤ´":3483,"ãĤ¦ãĥĸãĥĲãĤ¿":3484,"ãĤ¦ãĥĸãĤ¤ãĤŃ":3485,"ãĤ¾ãĥ¼ãĥ³":3486,"ãĤ¾ãĥ¼ãĥĸ":3487,"ãĥ³ãĥĢãĥ³":3488,"ãĥĩãĤ£ãĥ«":3489,"ãĥĩãĤ£ãĤ¯":3490,"ãĥŀãĥ¼ãĤ¶":3491,"ãĥ¯ãĤŃ":3492,"ãĤŃãĥ³ãĤº":3493,"ãĤŃãĥ³ãĤŃãĥ³":3494,"ãĤŃãĥ³ãĤ³ãĥ¼":3495,"ãĥĥãĤ¯ãĥª":3496,"ãĥĥãĤ¯ãĥŀãĤ¹ãĥ³":3497,"ãĥĭãĥ³ãĥĪãĤ¥":3498,"ãĥĭãĥ³ãĥĪãĤ¥ãĥ¼":3499,"ãĥĭãĥ³ãĤ¸ãĥ§ãĥ¼":3500,"ãĥĭãĥ³ãĥĸãĥĦãĤ¡ãĥ¼":3501,"ãĤ«ãĤ¸ãĥŀ":3502,"ãĤ«ãĤ¸ãĥ©":3503,"ãĤ«ãĤ¸ãĥīãĤ¥ãĥ«":3504,"ãĥ¼ãĥĳãĤ«":3505,"ãĥ¼ãĥĳãĥ¤ãĥ¼":3506,"ãĥłãĥĭãĥ¼":3507,"ãĥłãĥĭãĥĮ":3508,"ãĥłãĥĭãĤ¤ãĤ¸":3509,"ãĤ¢ãĤ¬ãĤ¸ãĥ³":3510,"ãĤ¢ãĤ¬ãĤ¸ãĥ«":3511,"ãĤ¢ãĤ¬ãĥŀãĥŁ":3512,"ãĤªãĥ¼ãĥĸ":3513,"ãĤªãĥ¼ãĥĬãĥ«":3514,"ãĥ¼ãĥĸãĥ«ãĥ³":3515,"ãĥıãĥŀ":3516,"ãĥıãĥ³ãĤ¿":3517,"ãĥ¼ãĥĲãĥ«":3518,"ãĥ¼ãĥĲãĤ¯ãĥ³":3519,"ãĥĳãĥ¼ãĤ¿ãĥĪãĤ¥ãĥ³":3520,"ãĤ¦ãĤ¤ãĤ«":3521,"ãĥľãĤ·":3522,"ãĥľãĥ³ãĥĨãĤ£":3523,"ãĥłãĥģãĥĮãĥ¼ãĥª":3524,"ãĤ·ãĥ¼ãĤ¾":3525,"ãĤ·ãĥ¼ãĤ«ãĤ¤ãĤ·ãĥ¼":3526,"ãĥĥãĥĦãĤ¡ãĥłãĥ³":3527,"ãĥŁãĤ¸ãĤ¿ãĥ¼":3528,"ãĥŁãĤ¸ãĥ©ãĤ·":3529,"ãĥŁãĤ¸ãĥ©ãĤµãĥ³":3530,"ãĥ¤ãĥ³ãĥĲãĥ«":3531,"ãĥĥãĤ«ãĥ«":3532,"ãĥĥãĤ«ãĥª":3533,"ãĥĥãĤ«ãĤ¹ãĥ³":3534,"ãĥĥãĤ«ãĤ¦ãĥ³":3535,"ãĤµãĥ¼ãĤ«ãĤµ":3536,"ãĤ·ãĤ¥ãĤ«ãĥŁ":3537,"ãĤ·ãĤ¥ãĤ«ãĥĥãĥĨãĤ£":3538,"ãĥĳãĤ¿ãĥ©ãĤ·":3539,"ãĥĳãĤ¿ãĥĥãĤ¯ãĥ³":3540,"ãĥĳãĤ¿ãĥĥãĤŃãĥ«ãĥ³":3541,"ãĤ¤ãĤ·ãĥĪãĥ¼":3542,"ãĥĥãĤ¹ãĥŁãĥ¼":3543,"ãĥĥãĤ¹ãĥĥãģµãĤ¡ãĤ¤":3544,"ãĤ¢ãĥ©ãĤ«ãĥ¼":3545,"ãĤ¢ãĥ©ãĤ¹ãĤ¤":3546,"ãĥķãĤ¿ãĥ¼ãĥ«":3547,"ãĥķãĤ¿ãĥŀãĤ¿":3548,"ãĤ¢ãĤ¤ãĥ«":3549,"ãĤ¢ãĤ¤ãĤ¯":3550,"ãĤ¢ãĤ¤ãĥ¤ãĥ¼":3551,"ãĤ¢ãĤ¤ãĥŀãĥģ":3552,"ãĤ¢ãĤ¤ãĤºãĥŁ":3553,"ãĤ¢ãĤ¤ãĤ·ãĥ¼ãĤ«ãĤ¤ãĤ·ãĥ¼":3554,"ãĤ¯ãĤ¤ãĥĢãĥ¼":3555,"ãĥ¼ãĥĭãĥ³ãĤ¬ãĤ¤":3556,"ãĤ·ãĥŀãĥĥãģµãĤ¡":3557,"ãĤ¦ãĥ¤ãĥ¼ãĥª":3558,"ãĤ¦ãĥ¤ãĥŀãĤ¤":3559,"ãĥĻãĥ¼ãĤ·":3560,"ãĥĻãĥ¼ãĤ¹ãĥ³":3561,"ãĥĻãĥ¼ãĥ«ãĥ³":3562,"ãĤ«ãĤŃãĥĥãĥĦãĤ¡ãĥ¼ãĤ¹ãĥ³":3563,"ãĤ«ãĤŃãĥŀãĤ«ãĥ«":3564,"ãĤ«ãĤŃãĤ¸ãĤ¯":3565,"ãĤ¤ãĤŃãĤ·":3566,"ãĤ¤ãĤŃãĥĸãĥ«":3567,"ãĤ¯ãĥ«ãĥĵ":3568,"ãĤ¯ãĥ«ãĥĲãĤ¹ãĥ³":3569,"ãĥ¼ãĥĢãĥ¼":3570,"ãĤ·ãĥ©ãĥªãĥ³":3571,"ãĤ·ãĥ©ãĥķãĤ¯":3572,"ãĤ·ãĥ©ãĤ¬ãĥ¼":3573,"ãĤ¿ãĥ³ãĥĸãĥ¼":3574,"ãĤ¿ãĥ³ãĤ«ãĥ¼ãĥŀ":3575,"ãĥĳãĤ¤ãĥ¤ãĤŃ":3576,"ãĥĨãĤ£ãĥ³ãĤŃ":3577,"ãĥĨãĤ£ãĥ³ãĤ¾ãĥ¼":3578,"ãĥĥãģµãĤ¡ãĤ¤ãĥĢãĥŀ":3579,"ãĥĥãģµãĤ¡ãĤ¤ãĥĥãĤ¯ãĥ«":3580,"ãĤ¦ãĥłãĤ¤ãĥ³":3581,"ãĤ¦ãĥłãĤ·ãĥ«":3582,"ãĤ¢ãĥ³ãĤ¿":3583,"ãĤ¢ãĥ³ãĤ«ãĥ¼":3584,"ãĥĶãĥ¼ãĤ«ãĥ¼":3585,"ãĤ·ãĥĵãĥª":3586,"ãĤ·ãĥĵãĥķãĥģ":3587,"ãĤ·ãĥĵãĥĮãĤ·":3588,"ãĥĲãĥ©ãĥĵ":3589,"ãĤ¹ãĥĸãĤ·":3590,"ãĤ¹ãĥĸãĥ«ãĥ³":3591,"ãĤ¦ãĥģãĥŀãĥ¼ãĤ·":3592,"ãĥ¼ãĥģãĥ³":3593,"ãĤ¤ãĥ³ãĥĪãĤ¥ãĥŀ":3594,"ãĤ¿ãĤ«ãĥ¼ãĤ·":3595,"ãĤ¿ãĤ«ãĥĢãĤ¤":3596,"ãĥŁãĥ³ãĤ¿ãĥŀ":3597,"ãĥ¼ãĥĪãĤ¥ãĤ·":3598,"ãĥŃãĥ¼ãĥķãĤ¯":3599,"ãĥĪãĤ¥ãĥ«ãĥĥãĤµãĤ¦ãĥ³":3600,"ãĥĪãĤ¥ãĥ«ãĥĥãĤµãĤ¤ãĥ«ãĥ³":3601,"ãĤ¦ãĤ¿ãĤ·":3602,"ãĤ¦ãĤ¿ãĤ¤":3603,"ãĤ¬ãĤ¤ãĤ¹ãĥ³":3604,"ãĤ«ãĤµãĥ©":3605,"ãĤ«ãĤµãĥĭãĥ«ãĥ³":3606,"ãĥŀãĥģãĥª":3607,"ãĥŀãĥģãĥ£":3608,"ãĤ·ãĥ«ãĤ·":3609,"ãĤ·ãĤ¿ãĤ¯":3610,"ãĤ·ãĤ¿ãĥ©":3611,"ãĤ·ãĤ¿ãĥ«ãĥ³":3612,"ãĥįãĥ¼ãĥ³":3613,"ãĤµãĤŃãĥĮ":3614,"ãĤµãĤŃãĥ³ãĥĢ":3615,"ãĤ°ãĥ«ãĥĥãĤ«":3616,"ãĥķãĤ¯ãĤ¸":3617,"ãĥķãĤ¯ãĥłãĥ³":3618,"ãĤ¤ãĥģãĥ³":3619,"ãĤ¤ãĥģãĤ§ãĥ¼ãĥ©":3620,"ãĤ¤ãĤºãĥĽãĥ¼ãĤ·":3621,"ãĤ«ãĤ·ãĤ«ãĤŃ":3622,"ãĥ¼ãĥĨãĤ£ãĥ³":3623,"ãĤ¢ãĥĲãĤµ":3624,"ãĤ¢ãĥĲãĥĨãĤ£":3625,"ãĤ¢ãĥĲãĥ¬":3626,"ãĤ¿ãĤ¤ãĤ¯":3627,"ãĤ¢ãĥŀãĥŁãĤ¸":3628,"ãĤ¢ãĥŀãĥĢãĥ«":3629,"ãĥĴãĤ¸ãĤ¬ãĥ©":3630,"ãĤ¢ãĤ¿ãĥ©":3631,"ãĤ½ãĥ¼ãĤ®ãĥª":3632,"ãĤŃãĤ·ãĥķãĥģ":3633,"ãĤŃãĤ·ãĤ°ãĥĪãĤ¥":3634,"ãĥĬãĤŃãĥĭãĥĵ":3635,"ãĤ¢ãĤ·ãĥĦãĤ¡":3636,"ãĤ¬ãĥ¼ãĤ¬":3637,"ãĤ¬ãĥ³ãĤ¯":3638,"ãĤ¬ãĥ³ãĥī":3639,"ãĤ¬ãĥ³ãĥŀãĥª":3640,"ãĤ¬ãĥ³ãĥĳãĥ©":3641,"ãĤ¬ãĥ³ãĤºãĥ¼":3642,"ãĤ«ãĥĬãĤµ":3643,"ãĤ«ãĥĬãĥŁ":3644,"ãĤ«ãĥĬãĤ·ãĤŃ":3645,"ãĤ«ãĤ¯ãĤ·":3646,"ãĤ«ãĤ¯ãĥłãĥ³":3647,"ãĤ¯ãĥ¼ãĤµ":3648,"ãĤ¯ãĥ¼ãĤµãĥ³":3649,"ãĥ¢ãĥ¼ãĥ«ãĥ³":3650,"ãĥ¢ãĥ¼ãĥ¢ãĥ¼":3651,"ãĥŀãĥ¼ãĥ«ãĥŀãĥ¼ãĥ«":3652,"ãĤ¿ãĥŀãĤ·ãĥĮ":3653,"ãĤ´ãĥ¼ãĤ«ãĤ¸":3654,"ãĤ´ãĥ¼ãĤµãĥ©":3655,"ãĥĿãĥ¼ãĥª":3656,"ãĤ¤ãĤ¸ãĥĸãĥ³":3657,"ãĤ¤ãĤ¸ãĥ³ãĤ°ãĥªãĤµãĥ³":3658,"ãĥĽãĥ¼ãĥĮ":3659,"ãĥĽãĥ¼ãĥŀ":3660,"ãĤ·ãĥŁãĤ¹ãĤ¯ãĥ³":3661,"ãĤ·ãĤ¸ãĤŃ":3662,"ãĤ¿ãĤŃãĥīãĤ¥ãĥ³":3663,"ãĤ¯ãĥĮãĥĨãĤ£ãĥ¼":3664,"ãĥĢãĥ³ãĥĨãĤ£":3665,"ãĥŀãĤ¿ãĤ·ãĤŃ":3666,"ãĥĬãĥ¼ãĥ³ãĤ¯ãĥĪãĤ¥":3667,"ãĤ«ãĥŀãĤµãĥ¼":3668,"ãĤ«ãĥŀãĥĸãĤ¯":3669,"ãĤ¯ãĥĲãĤ·":3670,"ãĤ¤ãĥªãĥķãĥĭ":3671,"ãĤ¶ãĥ³ãĥĦãĤ¡ãĥ³ãĤ·":3672,"ãĤµãĥ©ãĥ¼ãĥŀ":3673,"ãĤµãĥ©ãĤ¦ãĥ³":3674,"ãĤµãĥ©ãĤ«ãĤµãĥ©":3675,"ãĥĳãĥ©ãĤ·ãĤŃãĥ«ãĥ³":3676,"ãĤ¦ãĤ¯ãĥĬãĤ¤":3677,"ãĥĲãĥ©ãĤ¤ãĥłãĥĮ":3678,"ãĥ¼ãĥĵãĥ³":3679,"ãĥĶãĥĢãĥŁ":3680,"ãĥĶãĥĢãĥĨãĤ£":3681,"ãĥĮãĤ·ãĤ§ãĥ¼":3682,"ãĤ¦ãĤŃãĥĭãĥĵ":3683,"ãĤ¦ãĥªãĥĴãĥ£ãĥ¼":3684,"ãĥ¼ãĥīãĥ³ãĤ°":3685,"ãĥĮãĥ³ãĥĦãĤ¡ãĥ¼ãĤ¹ãĥ³":3686,"ãĥĶãĥ³ãĥĪãĥ¼":3687,"ãĤ¤ãĥ©ãĥ³":3688,"ãĤ¤ãĥ©ãĥĸãĥģ":3689,"ãĤ¯ãĥ©ãĤ¯":3690,"ãĤ¯ãĥ©ãĤµãĥ¼":3691,"ãĤ¯ãĥ©ãĤ¬ãĥ¼":3692,"ãĥ¤ãĥĬãĥłãĥĮ":3693,"ãĤ¹ãĤ¯ãĥªãĥ¨ãĥ¼":3694,"ãĥĪãĤ¥ãĥ©ãĥ¼ãĥŀ":3695,"ãĥ¨ãĤ¤ãĤµãĥ¼":3696,"ãĤ¹ãĥ«ãĤ¹ãĥ«":3697,"ãĤ°ãĥŀãĥ¼ãĥ³":3698,"ãĤ·ãĤ«ãĥ¼ãĤ·ãĤ«ãĥ¼ãĤ·":3699,"ãĤ¿ãĥĨãĤ£ãĥĵãĥª":3700,"ãĤ¦ãĤµãĥ¼ãĥª":3701,"ãĤ¦ãĤµãĤ¦ãĥ³":3702,"ãĤ¦ãĤµãĥ¼ãĥªãĥ³":3703,"ãĥłãĥ«ãĤ¯":3704,"ãĥĥãĤŃãĥ©ãĥ¼":3705,"ãĥĳãĥĬãĤ·ãĤ±ãĥ¼":3706,"ãĥĻãĥ¼ãĤ«ãĥĻãĥ¼":3707,"ãĤ¤ãĥĦãĤ¡ãĥ¼ãĥ³":3708,"ãĥĮãĥŁãĥīãĤ¥ãĤ·":3709,"ãĥ¦ãĤ¯ãĥłãĥĭ":3710,"ãĥ¼ãĥĥãģµãĥ³":3711,"ãĥļãĥ¼ãĥ©":3712,"ãĥļãĥ¼ãĥĸãĤ¯":3713,"ãĤ¢ãĥ¼ãĤµ":3714,"ãĥķãĥ¼ãĤ¿ãĤ¤":3715,"ãĥ¼ãĥªãĥ³ãĥ¼ãĥŀ":3716,"ãĤ«ãĥ¼ãĤ·ãĥĹãĤ¹":3717,"ãĤ¯ãĥŀãĥĥãģµãĤ¡":3718,"ãĤ¦ãĤ¹ãĥŀãĤ·":3719,"ãĤ¦ãĥĨãĤ£ãĥĹãĤ¹":3720,"ãĥŀãĥ©ãĤ¯ãĥ³":3721,"ãĥĮãĥŁãĥ¼ãĤ¹":3722,"ãĤ¢ãĤ«ãĥıãĥģ":3723,"ãĤ¢ãĥĦãĤ¡ãĤ¹ãĥ³":3724,"ãĤ¢ãĥģãĥ¼ãĤ¢ãĥģ":3725,"ãĤ¢ãĤ¸ãĥŀãĥ¼":3726,"ãĥŁãĥ¼ãĥĮãĥĥãĤ¹":3727,"ãĤ°ãĥ®ãĥ¼ãĥĨãĥ¼":3728,"ãĥ³ãĥŀãĥ¼ãĥ³":3729,"ãĥ³ãĥŀãĥĨãĥ¼":3730,"ãĤ¦ãĥ©ãĥ³ãĤ¿":3731,"ãĤµãĥĭãĥ¤ãĥ³":3732,"ãĥ¼ãĥĥãģµãĤ¡ãĥ¼ãĤ¹ãĥ³":3733,"ãĤ·ãĥĨãĤ£ãĤ¬ãĥ©":3734,"ãĤ·ãĥĨãĤ£ãĤ«ãĥ¼ãĤ·":3735,"ãĥŀãĥ«ãĤ±ãĥ¼ãĥĨãĤ£":3736,"ãĤ¦ãĥ¼ãĤ¢ãĥŁ":3737,"ãĤ¦ãĥ¼ãĤµãĥª":3738,"ãĤ¿ãĥ©ãĥ¼ãĥĮ":3739,"ãĥķãĥĬãĥĲãĥ«":3740,"ãĥĸãĥ©ãĥ¼ãĥª":3741,"ãĤ³ãĥ¼ãĥ«ãĥ³ãĤ±ãĥ³":3742,"ãĥ¼ãĥīãĤ¥ãĤ¯":3743,"ãĤ·ãĤ¶ãĤ¦ãĤ·ãĥĪãĤ¥":3744,"ãĥĳãĥĨãĤ£ãĥ¯ãĤ¶":3745,"ãĥķãĤ¤ãĤ«ãĤ¶":3746,"ãĤ®ãĥ¼ãĤ®ãĥ¼ãĤ·":3747,"ãĤ¦ãĥ³ãĥĮãĤ¯ãĤ¸":3748,"ãĥľãĥ¼ãĤ¹ãĥ¼":3749,"ãĤ¤ãĥĥãĤ·ãĥ³":3750,"ãĤ¤ãĥĥãĤ¿ãĥ³":3751,"ãĤ¤ãĥĥãĤ±ãĥ³":3752,"ãĤ¤ãĥĥãĥĿãĥ¼":3753,"ãĤ¦ãĥĵãĥĬãĥ¼":3754,"ãĥ¤ãĥĵãĥ«ãĥ³":3755,"ãĤ°ãĤ¤ãĥķ":3756,"ãĥĳãĥĬãĤ·ãĤŃãĥĮãĥĭãĥ³ãĤ¬ãĤ¤":3757,"ãĤµãĤ¦ãĥ«ãĥ³":3758,"ãĤ¸ãĥ©ãĥŀ":3759,"ãĥķãĥĪãĤ¥ãĥĥãĥĦãĥ³":3760,"ãĥĸãĥĥãĥĪãĤ¥ãĥ«":3761,"ãĤ«ãĥ¼ãĥ©ãĤŃ":3762,"ãĤŃãĥĬãĤ¤ãĥłãĥģ":3763,"ãĥİãĥ¼ãĤ·ãĥłãĥĮ":3764,"ãĤ¦ãĤ¬ãĥ³ãĥĦ":3765,"ãĥĪãĤ¥ãĥīãĤ¥ãĥŀãĥ«ãĥ³":3766,"ãĤ·ãĥĢãĥŁ":3767,"ãĤ·ãĥĢãĥŁãĥĮ":3768,"ãĤ«ãĥŀãĤ¤ãĥ«ãĥ³":3769,"ãĤ¢ãĥªãĥ¨ãĥ¼":3770,"ãĥĲãĤ¯ãĥ¨ãĥ¼":3771,"ãĥ³ãĤ°ãĥ³ãĤ¸ãĥŀ":3772,"ãĤ¬ãĥŀãĤ¸ãĥĮ":3773,"ãĤ¨ãĥ³":3774,"ãĥ¼ãĥĩãĤ£ãĥĹãĤ¹":3775,"ãĤ·ãĤºãĥŀãĥ«ãĥ³":3776,"ãĤ¯ãĥĢãĤ·":3777,"ãĤ¯ãĥĢãĤ¹ãĥ³":3778,"ãĤ¯ãĥĨãĤ£ãĥłãĥĭ":3779,"ãĤ¯ãĥ©ãĤ·ãĥłãĥĮ":3780,"ãĥŁãĥ¼ãĥĬãĥ©ãĤ¤":3781,"ãĥīãĤ¥ãĥªãĤ«":3782,"ãĤ½ãĥ¼ãĤŃãĥĸãĥĭ":3783,"ãĥ³ãĥ¼ãĥŀãĥĮãĥĥãģµãĤ¡":3784,"ãĥŁãĥ¼ãĥŀãĥ¼ãĥ«":3785,"ãĥŁãĥĦãĤ¡ãĥ¼ãĥ«":3786,"ãĤ·ãĥĩãĤ£ãĥ«ãĥ³":3787,"ãĥĬãĤ«ãĥ³ãĥĨãĥ¼":3788,"ãĥıãĥ©ãĤ´ãĥ¼":3789,"ãĤ¤ãĥ³ãĤ¿ãĥĮ":3790,"ãĥĽãĥ¼ãĤ¬ãĥ¼ãĥĽãĥ¼":3791,"ãĤ«ãĥĸãĥĥãĥģ":3792,"ãĤ¤ãĥĬãĥłãĥĮ":3793,"ãĥŀãĤ¸ãĥŁ":3794,"ãĥŀãĤ¸ãĥłãĥĮ":3795,"ãĤ¢ãĥĢãĥĬãĤ·":3796,"ãĥŁãĥ³ãĤ°ãĥ«":3797,"ãĥķãĥ©ãĥĥãĤ¯ãĥ³":3798,"ãĤ¿ãĤ«ãĥĵãĥ¼ãĥĮ":3799,"ãĥ¼ãĥĽãĥ¼ãĤ¹ãĥ³":3800,"ãĤ«ãĤ«ãĥªãĥ³":3801,"ãĤŃãĥ§ãĥ³ãĤ®ãĥ³":3802,"ãĤ¹ãĥ¼ãĥŀãĥ³":3803,"ãĤ¯ãĤ¬ãĥĭãĥĶãĥ¥ãĥ¼ãĥ«":3804,"ãĤ¿ãĥĸãĤ¤":3805,"ãĥĪãĤ¥ãĤºãĥłãĥ³":3806,"ãĤ¸ãĥ§ãĥ¼ãĥłãĥģ":3807,"ãĥĸãĤ¶ãĤµ":3808,"ãĥīãĤ¥ãĥ¼ãĥłãĥĪãĤ¥ãĥ³":3809,"ãĥ¦ãĥģãĥ«":3810,"ãĥ¼ãĥĥãģµãĤ¡ãĤ¤ãĥłãĥĮ":3811,"ãĥĳãĤ¶ãĤŃãĥ«ãĥ³":3812,"ãĤµãĥ¼ãĥĮãĥŁ":3813,"ãĤ¢ãĤºãĤ«ãĥ¼":3814,"ãĤ¸ãĥ¼ãĥŀãĥŁ":3815,"ãĥıãĤ¤ãĤ«ãĥ©ãĥ¼":3816,"ãĥĳãĥ¼ãĤ·ãĥĮ":3817,"ãĥĶãĥ§ãĥ¼ãĤ·":3818,"ãĥĵãĥĢãĥ¼ãĤ«ãĤ¹ãĥ³":3819,"ãĥĿãĥ¼ãĥĿãĥ¼":3820,"ãĥĿãĥ¼ãĥĿãĥ¼ãĤ·":3821,"ãĤ¯ãĥ®ãĥ³ãĥĭãĥ³":3822,"ãĤ«ãĤµãĥ³ãĥĳãĥ¼":3823,"ãĤ¤ãĥĢãĥķãĥĭ":3824,"ãĤ¤ãĥĢãĥªãĥ¼":3825,"ãĤŃãĥĥãĥĪãĤ¥ãĥ¼":3826,"ãĤ¢ãĥ¼ãĥĳãĥ¼ãĥ¬ãĥ¼":3827,"ãĥŁãĥ¼ãĥĢãĥ³ãĤ°":3828,"ãĥĨãĤ£ãĥ©ãĥĨãĥ¼":3829,"ãĤ¯ãĥ³ãĤ¾ãĥ¼ãĥ³":3830,"ãĥĶãĤµãĤ·ãĤ¤ãĥ¼":3831,"ãĤ«ãĥ¼ãĥĢãĥ«":3832,"ãĥĲãĤµãĥ³ãĥĬãĥ«":3833,"ãĥĶãĤ¶ãĥķãĥģ":3834,"ãĥĨãĤ£ãĥ¼ãĥĥãĤ·":3835,"ãĤ¶ãĥŀãĥ³ãĥīãĤ¥ãĥ«ãĥ³":3836,"ãĤºãĥ³ãĤ°ãĥĭãĥģ":3837,"ãĤ·ãĤ§ãĥ³ãĤ¹ãĥ«":3838,"ãĤ¤ãĥ¼ãĥĳãĤ¤":3839,"ãĤŃãĥ£ãĥ¼ãĥ³ãĤ®":3840,"ãĤ¹ãĥ¼ãĥĶãĤµãĥ¼ãĥ«":3841,"ãĤ¿ãĤ¿ãĤ«ãĤ¦ãĥ³":3842,"ãĥłãĥİãĥ¼ãĤ¢ãĥ©ãĥĮ":3843,"ãĤ¬ãĥĲãĥ¼ãĥķ":3844,"ãĥĢãĥĥãĤ«ãĥĨãĤ£":3845,"ãĥĵãĥªãĥ³ãĥĬãĥ©ãĥĮ":3846,"ãĤ®ãĥ£ãĥ³ãĥĨãĤ£":3847,"ãĥĹãĤ¹ãĤ±ãĥ³ãĥĬãĥ¼":3848,"ãĥĿãĥ¼ãĥĦãĤ¡ãĥ¼":3849,"ãĥŁãĥ¼ãĥķãĥ©ãĥĥãĤ«ãĤ¹ãĥ³":3850,"ãĥŀãĥĥãĤ·ãĥ³ãĤ°":3851,"ãĥŁãĥ£ãĥ¼ãĤ¦":3852,"ãĥĨãĥ¼ãĥķãĤ¡":3853,"ãĥĵãĤ³ãĥ¼ãĥ³ãĥĥãģµãĤ¡":3854,"ãĤ°ãĥ³ãĤ°ãĥ«":3855,"ãĥ¦ãĥ¼ãĥľãĥ³":3856,"ãĥķãĥģãĥŀãĥģãĥ«":3857,"ãĥıãĥ³ãĤ¿ãĤ°ãĥ®ãĥ¼ãĥĨãĥ¼":3858,"ãĥĳãĤ¤ãĥ¤ãĤŃãĤ¬ãĥŀ":3859,"ãĥŃãĥ¼ãĥķãĤ¯ãĥŃãĥ¼ãĤ·":3860,"ãĤ¢ãĥģãĥ¼ãĤ¢ãĥģãĥ¼ãĤ·":3861,"¸ł":3862,"â¸ł":3863,"ãĢ":3864,"ãĥ»":3865,"ãĥ¼ãĤ¦ãĤ¤":3866,"ãĥ¼ãĤµãĥ¼":3867,"ãĥ¼ãĤ¿ãĥŀ":3868,"ãĥ¼ãĤ¤ãĥ¼":3869,"ãĥ³ãĥ¼":3870,"ãĥ³ãĤ¯ãĥ³":3871,"ãĥ³ãĥĲãĤ¿":3872,"ãĥ³ãĤºãĥ³":3873,"ãĥ³ãĥĪãĥ¼":3874,"ãĥ³ãĤ¸ãĥ«ãĥ³":3875,"ãĥ³ãĥĻãĥ¼":3876,"ãĥ³ãĤ«ãĤ¦ãĥ³":3877,"ãĥ³ãĥĦãĤ¡ãĥ³":3878,"ãĥ³ãĥĳãĥ¼ãĥĮ":3879,"ãĥ³ãĥĻãĥ¼ãĥ«ãĥ³":3880,"ãĥ¼ãĥļ":3881,"ãĤ·ãĥ¼ãĥ«ãĥ³":3882,"ãĤ·ãĥĹãĤ¹":3883,"ãĤ·ãĥ¼ãĤŃ":3884,"ãĤ·ãĥ©ãĤ¹ãĥ³":3885,"ãĤ·ãĥ¼ãĥ¤":3886,"ãĤ·ãĥ¼ãĥĸ":3887,"ãĤ·ãĥ¼ãĥĲ":3888,"ãĤ·ãĤ«ãĤµ":3889,"ãĤ·ãĤ°ãĥ³":3890,"ãĤ·ãĥ¼ãĥĨãĤ£":3891,"ãĤ·ãĥ¼ãĥĹ":3892,"ãĤ·ãĥĪãĤ¥ãĥ«ãĥ³":3893,"ãĤ·ãĤºãĥ³":3894,"ãĤ·ãĤ«ãĤ¯":3895,"ãĤ·ãĤ´ãĥ¼":3896,"ãĤ·ãĥĢãĤŃ":3897,"ãĤ·ãĥ¼ãĥ¨":3898,"ãĤ·ãĥĻãĥ¼":3899,"ãĤ·ãĤ²":3900,"ãĤ·ãĤ®ãĥª":3901,"ãĤ·ãĤºãĥŁ":3902,"ãĤ·ãĥİãĥ¼":3903,"ãĤ·ãĥĸãĤ¯":3904,"ãĤ·ãĤ¿ãĥ³ãĥĨãĤ£ãĥ³":3905,"ãĤ·ãĥ¼ãĥĲãĤ¤":3906,"ãĤ·ãĥ¼ãĥĥãģµãĤ¡ãĤ¤":3907,"ãĤ·ãĥ¼ãĤŃãĤ¹ãĥ³":3908,"ãĤ·ãĥĥãĤ«ãĤ¯":3909,"ãĤ·ãĤ¬ãĥ¼ãĤ·":3910,"ãĤ·ãĥ¼ãĥĢãĥĭ":3911,"ãĤ·ãĥĪãĥ¼ãĥ³":3912,"ãĤ·ãĥ¼ãĥķãĥģ":3913,"ãĤ·ãĥ¢ãĥ¼ãĥ«ãĥ³":3914,"ãĤ«ãĥĥ":3915,"ãĤ«ãĥ¤":3916,"ãĤ«ãĥĬãĥ¼":3917,"ãĤ«ãĥ¼ãĥĸ":3918,"ãĤ«ãĥľ":3919,"ãĤ«ãĥĥãĥĦãĤ¡":3920,"ãĤ«ãĤ«ãĤ¹ãĥ³":3921,"ãĤ«ãĥ¼ãĥ¬":3922,"ãĤ«ãĥ¼ãĥĨãĤ£":3923,"ãĤ«ãĥ¼ãĥ©ãĤ¹ãĥ³":3924,"ãĤ«ãĥ¬ãĥ¼":3925,"ãĤ«ãĥĨãĤ£ãĥ«ãĥ³":3926,"ãĤ«ãĥĢãĥ³":3927,"ãĤ«ãĥĢãĥ«":3928,"ãĤ«ãĥĥãĥĪãĤ¥":3929,"ãĤ«ãĥĮãĤ·":3930,"ãĤ«ãĥĥãĥĨãĤ£":3931,"ãĤ«ãĥĲãĥ¼":3932,"ãĤ«ãĥ¼ãĥªãĥ³":3933,"ãĤ«ãĥĮãĥ¼":3934,"ãĤ«ãĥ¼ãĥĸãĥ«":3935,"ãĤ«ãĥĢãĤ«":3936,"ãĤ«ãĥŃãĥ¼":3937,"ãĤ«ãĥ¼ãĥĬãĥ¼ãĥ³":3938,"ãĤ«ãĥĮãĤ«":3939,"ãĤ«ãĤ±ãĥ¼ãĤ·":3940,"ãĤ«ãĥ¼ãĥĲãĤ¤":3941,"ãĤ«ãĥŀãĥ³ãĤ¿":3942,"ãĤ«ãĥŃãĥ¼ãĤ·":3943,"ãĤ¤ãĥ¤":3944,"ãĤ¤ãĤµãĥ³":3945,"ãĤ¤ãĥ¤ãĥ¼":3946,"ãĤ¤ãĤ¹ãĤ¯":3947,"ãĤ¤ãĥ©ãĤ¤":3948,"ãĤ¤ãĤ¹ãĤ¯ãĥ³":3949,"ãĤ¤ãĤ¾":3950,"ãĤ¤ãĤŃãĥ³":3951,"ãĤ¤ãĤŃãĥ«ãĥ³":3952,"ãĤ¤ãĥ¼ãĤ¸":3953,"ãĤ¤ãĥ¼ãĥĲ":3954,"ãĤ¤ãĥªãĥłãĥĮ":3955,"ãĤ¤ãĤ³ãĥ¼":3956,"ãĤ¤ãĥŃ":3957,"ãĤ¤ãĥ¼ãĥĶ":3958,"ãĤ¤ãĤ§ãĥ¼":3959,"ãĤ¤ãĥĥãĥģãĥ³":3960,"ãĤ¤ãĥŀãĤ·":3961,"ãĤ¤ãĤ¿ãĥ©":3962,"ãĤ¤ãĥĲãĥģ":3963,"ãĤ¤ãĥİãĥ¼":3964,"ãĤ¤ãĥĵãĥ«ãĥ³":3965,"ãĤ¤ãĥķãĥĬãĥ¼":3966,"ãĤ¤ãĥ¼ãĥ©ãĥªãĥ³":3967,"ãĤ¤ãĥ¼ãĥŃ":3968,"ãĤ¤ãĥĳãĥ©ãĥĥãĥĦãĤ¡":3969,"ãĤ¤ãĥ¼ãĥĪãĤ¥ãĤ·":3970,"ãĥ«ãĥĬ":3971,"ãĥ«ãĥ¦ãĥ¼":3972,"ãĥ«ãĤ¶ãĥ¼ãĥĨãĥ¼":3973,"ãĥ«ãĤ¯ãĥ³ãĤ¬ãĥģ":3974,"ãĤŃãĥŁ":3975,"ãĤŃãĤ¬":3976,"ãĤŃãĥ¼ãĥ«ãĥ³":3977,"ãĤŃãĥ¯":3978,"ãĤŃãĤµãĥ¼":3979,"ãĤŃãĤ«ãĤ¶":3980,"ãĤŃãĤ¬ãĤ¤":3981,"ãĤŃãĤ¶ãĥ³":3982,"ãĤŃãĥ¼ãĥ¦":3983,"ãĤŃãĥĸãĥ«":3984,"ãĤŃãĥ©ãĥªãĥ³":3985,"ãĤŃãĥĦãĤ¡ãĥ³":3986,"ãĤŃãĥ¼ãĥľ":3987,"ãĤŃãĥ©ãĤ¦ãĥ³":3988,"ãĤŃãĥ¼ãĤ·ãĤŃãĥ«ãĥ³":3989,"ãĤŃãĥ¢ãĥ¼":3990,"ãĤŃãĥ³ãĥĢãĥ³":3991,"ãĤŃãĥįãĥ¼ãĥ³":3992,"ãĤ¹ãĥłãĥĮ":3993,"ãĤ¹ãĥĬãĤ«":3994,"ãĤ¹ãĥ¼ãĥł":3995,"ãĤ¹ãĥ¼ãĤŃ":3996,"ãĤ¹ãĥĬãĤ¤":3997,"ãĤ¹ãĤ¤ãĥ«ãĥ³":3998,"ãĤ¹ãĥªãĥ«ãĥ³":3999}